#include "model_data.h"

alignas(16) const unsigned char g_vlp_model_data[] = {
  0x1c, 0x00, 0x00, 0x00, 0x54, 0x46, 0x4c, 0x33, 0x14, 0x00, 0x20, 0x00,
  0x04, 0x00, 0x08, 0x00, 0x0c, 0x00, 0x10, 0x00, 0x14, 0x00, 0x00, 0x00,
  0x18, 0x00, 0x1c, 0x00, 0x14, 0x00, 0x00, 0x00, 0x03, 0x00, 0x00, 0x00,
  0x5c, 0x00, 0x00, 0x00, 0x50, 0x00, 0x00, 0x00, 0x6c, 0x01, 0x00, 0x00,
  0x0c, 0x00, 0x00, 0x00, 0xd8, 0x00, 0x00, 0x00, 0x54, 0x00, 0x00, 0x00,
  0x0e, 0x00, 0x00, 0x00, 0xc0, 0x21, 0x00, 0x00, 0xbc, 0x21, 0x00, 0x00,
  0x44, 0x21, 0x00, 0x00, 0x08, 0x20, 0x00, 0x00, 0x58, 0x1e, 0x00, 0x00,
  0xa4, 0x0d, 0x00, 0x00, 0x70, 0x08, 0x00, 0x00, 0x3c, 0x07, 0x00, 0x00,
  0xa0, 0x21, 0x00, 0x00, 0x9c, 0x21, 0x00, 0x00, 0x98, 0x21, 0x00, 0x00,
  0x94, 0x21, 0x00, 0x00, 0x0c, 0x01, 0x00, 0x00, 0xcc, 0x00, 0x00, 0x00,
  0x01, 0x00, 0x00, 0x00, 0x40, 0x01, 0x00, 0x00, 0x02, 0x00, 0x00, 0x00,
  0x4c, 0x05, 0x00, 0x00, 0xd8, 0x01, 0x00, 0x00, 0x01, 0x00, 0x00, 0x00,
  0x10, 0x00, 0x00, 0x00, 0x00, 0x00, 0x0a, 0x00, 0x10, 0x00, 0x0c, 0x00,
  0x08, 0x00, 0x04, 0x00, 0x0a, 0x00, 0x00, 0x00, 0x0c, 0x00, 0x00, 0x00,
  0x1c, 0x00, 0x00, 0x00, 0x20, 0x00, 0x00, 0x00, 0x0f, 0x00, 0x00, 0x00,
  0x73, 0x65, 0x72, 0x76, 0x69, 0x6e, 0x67, 0x5f, 0x64, 0x65, 0x66, 0x61,
  0x75, 0x6c, 0x74, 0x00, 0x01, 0x00, 0x00, 0x00, 0x14, 0x00, 0x00, 0x00,
  0x01, 0x00, 0x00, 0x00, 0x28, 0x00, 0x00, 0x00, 0x08, 0x00, 0x0c, 0x00,
  0x08, 0x00, 0x04, 0x00, 0x08, 0x00, 0x00, 0x00, 0x0a, 0x00, 0x00, 0x00,
  0x04, 0x00, 0x00, 0x00, 0x08, 0x00, 0x00, 0x00, 0x6f, 0x75, 0x74, 0x70,
  0x75, 0x74, 0x5f, 0x30, 0x00, 0x00, 0x00, 0x00, 0x72, 0xdf, 0xff, 0xff,
  0x04, 0x00, 0x00, 0x00, 0x06, 0x00, 0x00, 0x00, 0x61, 0x72, 0x67, 0x73,
  0x5f, 0x30, 0x00, 0x00, 0x02, 0x00, 0x00, 0x00, 0x48, 0x00, 0x00, 0x00,
  0x04, 0x00, 0x00, 0x00, 0xc8, 0xff, 0xff, 0xff, 0x08, 0x00, 0x00, 0x00,
  0x0d, 0x00, 0x00, 0x00, 0x17, 0x00, 0x00, 0x00, 0x6b, 0x65, 0x65, 0x70,
  0x5f, 0x73, 0x74, 0x61, 0x62, 0x6c, 0x65, 0x68, 0x6c, 0x6f, 0x5f, 0x63,
  0x6f, 0x6e, 0x73, 0x74, 0x61, 0x6e, 0x74, 0x00, 0xba, 0xdf, 0xff, 0xff,
  0x04, 0x00, 0x00, 0x00, 0x04, 0x00, 0x00, 0x00, 0x74, 0x72, 0x75, 0x65,
  0x08, 0x00, 0x0c, 0x00, 0x04, 0x00, 0x08, 0x00, 0x08, 0x00, 0x00, 0x00,
  0x08, 0x00, 0x00, 0x00, 0x0c, 0x00, 0x00, 0x00, 0x13, 0x00, 0x00, 0x00,
  0x6d, 0x69, 0x6e, 0x5f, 0x72, 0x75, 0x6e, 0x74, 0x69, 0x6d, 0x65, 0x5f,
  0x76, 0x65, 0x72, 0x73, 0x69, 0x6f, 0x6e, 0x00, 0xf6, 0xdf, 0xff, 0xff,
  0x04, 0x00, 0x00, 0x00, 0x10, 0x00, 0x00, 0x00, 0x32, 0x2e, 0x30, 0x2e,
  0x30, 0x00, 0x00, 0x00, 0x00, 0x00, 0x00, 0x00, 0x00, 0x00, 0x00, 0x00,
  0x0f, 0x00, 0x00, 0x00, 0x4d, 0x4c, 0x49, 0x52, 0x20, 0x43, 0x6f, 0x6e,
  0x76, 0x65, 0x72, 0x74, 0x65, 0x64, 0x2e, 0x00, 0x00, 0x00, 0x0e, 0x00,
  0x18, 0x00, 0x04, 0x00, 0x08, 0x00, 0x0c, 0x00, 0x10, 0x00, 0x14, 0x00,
  0x0e, 0x00, 0x00, 0x00, 0x44, 0x00, 0x00, 0x00, 0x38, 0x00, 0x00, 0x00,
  0x2c, 0x00, 0x00, 0x00, 0x14, 0x00, 0x00, 0x00, 0x04, 0x00, 0x00, 0x00,
  0x04, 0x00, 0x00, 0x00, 0x6d, 0x61, 0x69, 0x6e, 0x00, 0x00, 0x00, 0x00,
  0x04, 0x00, 0x00, 0x00, 0xa0, 0x03, 0x00, 0x00, 0xc8, 0x01, 0x00, 0x00,
  0xd0, 0x00, 0x00, 0x00, 0x50, 0x00, 0x00, 0x00, 0x01, 0x00, 0x00, 0x00,
  0x0a, 0x00, 0x00, 0x00, 0x01, 0x00, 0x00, 0x00, 0x00, 0x00, 0x00, 0x00,
  0x0b, 0x00, 0x00, 0x00, 0xb0, 0x1f, 0x00, 0x00, 0xd4, 0x1e, 0x00, 0x00,
  0xa4, 0x1d, 0x00, 0x00, 0xf0, 0x1b, 0x00, 0x00, 0x3c, 0x0b, 0x00, 0x00,
  0x08, 0x06, 0x00, 0x00, 0xd8, 0x04, 0x00, 0x00, 0xbc, 0x03, 0x00, 0x00,
  0xbc, 0x01, 0x00, 0x00, 0xd0, 0x00, 0x00, 0x00, 0x40, 0x00, 0x00, 0x00,
  0x00, 0x00, 0x0a, 0x00, 0x10, 0x00, 0x04, 0x00, 0x08, 0x00, 0x0c, 0x00,
  0x0a, 0x00, 0x00, 0x00, 0x01, 0x00, 0x00, 0x00, 0x10, 0x00, 0x00, 0x00,
  0x04, 0x00, 0x00, 0x00, 0x01, 0x00, 0x00, 0x00, 0x0a, 0x00, 0x00, 0x00,
  0x01, 0x00, 0x00, 0x00, 0x09, 0x00, 0x00, 0x00, 0x9c, 0xfc, 0xff, 0xff,
  0x0e, 0x00, 0x00, 0x00, 0x00, 0x00, 0x00, 0x0e, 0x01, 0x00, 0x00, 0x00,
  0xce, 0xe0, 0xff, 0xff, 0x00, 0x00, 0x00, 0x01, 0x34, 0x00, 0x00, 0x00,
  0x0b, 0x00, 0x00, 0x00, 0x08, 0x00, 0x00, 0x00, 0x34, 0x00, 0x00, 0x00,
  0x1f, 0x00, 0x00, 0x00, 0x73, 0x65, 0x72, 0x76, 0x69, 0x6e, 0x67, 0x5f,
  0x64, 0x65, 0x66, 0x61, 0x75, 0x6c, 0x74, 0x5f, 0x6f, 0x75, 0x74, 0x70,
  0x75, 0x74, 0x5f, 0x30, 0x5f, 0x6f, 0x75, 0x74, 0x70, 0x75, 0x74, 0x00,
  0x02, 0x00, 0x00, 0x00, 0x01, 0x00, 0x00, 0x00, 0x02, 0x00, 0x00, 0x00,
  0xbc, 0xe0, 0xff, 0xff, 0x46, 0xfd, 0xff, 0xff, 0x00, 0x00, 0x00, 0x08,
  0x28, 0x00, 0x00, 0x00, 0x1c, 0x00, 0x00, 0x00, 0x10, 0x00, 0x00, 0x00,
  0x00, 0x00, 0x0a, 0x00, 0x08, 0x00, 0x00, 0x00, 0x00, 0x00, 0x07, 0x00,
  0x0a, 0x00, 0x00, 0x00, 0x00, 0x00, 0x00, 0x01, 0x01, 0x00, 0x00, 0x00,
  0x09, 0x00, 0x00, 0x00, 0x03, 0x00, 0x00, 0x00, 0x08, 0x00, 0x00, 0x00,
  0x03, 0x00, 0x00, 0x00, 0x01, 0x00, 0x00, 0x00, 0x5a, 0xe1, 0xff, 0xff,
  0x00, 0x00, 0x00, 0x01, 0x8c, 0x00, 0x00, 0x00, 0x0a, 0x00, 0x00, 0x00,
  0x08, 0x00, 0x00, 0x00, 0x8c, 0x00, 0x00, 0x00, 0x75, 0x00, 0x00, 0x00,
  0x76, 0x6c, 0x70, 0x5f, 0x68, 0x61, 0x63, 0x6b, 0x61, 0x74, 0x68, 0x6f,
  0x6e, 0x2e, 0x62, 0x61, 0x73, 0x65, 0x6c, 0x69, 0x6e, 0x65, 0x5f, 0x6d,
  0x6f, 0x64, 0x65, 0x6c, 0x2e, 0x42, 0x61, 0x73, 0x65, 0x6c, 0x69, 0x6e,
  0x65, 0x4d, 0x4c, 0x50, 0x2f, 0x74, 0x6f, 0x72, 0x63, 0x68, 0x2e, 0x6e,
  0x6e, 0x2e, 0x6d, 0x6f, 0x64, 0x75, 0x6c, 0x65, 0x73, 0x2e, 0x63, 0x6f,
  0x6e, 0x74, 0x61, 0x69, 0x6e, 0x65, 0x72, 0x2e, 0x53, 0x65, 0x71, 0x75,
  0x65, 0x6e, 0x74, 0x69, 0x61, 0x6c, 0x5f, 0x6e, 0x65, 0x74, 0x2f, 0x74,
  0x6f, 0x72, 0x63, 0x68, 0x2e, 0x6e, 0x6e, 0x2e, 0x6d, 0x6f, 0x64, 0x75,
  0x6c, 0x65, 0x73, 0x2e, 0x6c, 0x69, 0x6e, 0x65, 0x61, 0x72, 0x2e, 0x4c,
  0x69, 0x6e, 0x65, 0x61, 0x72, 0x5f, 0x34, 0x3b, 0x32, 0x00, 0x00, 0x00,
  0x02, 0x00, 0x00, 0x00, 0x01, 0x00, 0x00, 0x00, 0x02, 0x00, 0x00, 0x00,
  0x20, 0xe2, 0xff, 0xff, 0x00, 0x00, 0x0e, 0x00, 0x14, 0x00, 0x00, 0x00,
  0x08, 0x00, 0x0c, 0x00, 0x07, 0x00, 0x10, 0x00, 0x0e, 0x00, 0x00, 0x00,
  0x00, 0x00, 0x00, 0x08, 0x1c, 0x00, 0x00, 0x00, 0x10, 0x00, 0x00, 0x00,
  0x04, 0x00, 0x00, 0x00, 0x2a, 0xfe, 0xff, 0xff, 0x00, 0x00, 0x01, 0x01,
  0x01, 0x00, 0x00, 0x00, 0x08, 0x00, 0x00, 0x00, 0x03, 0x00, 0x00, 0x00,
  0x07, 0x00, 0x00, 0x00, 0x04, 0x00, 0x00, 0x00, 0x02, 0x00, 0x00, 0x00,
  0x42, 0xe2, 0xff, 0xff, 0x00, 0x00, 0x00, 0x01, 0x78, 0x01, 0x00, 0x00,
  0x09, 0x00, 0x00, 0x00, 0x08, 0x00, 0x00, 0x00, 0x78, 0x01, 0x00, 0x00,
  0x62, 0x01, 0x00, 0x00, 0x76, 0x6c, 0x70, 0x5f, 0x68, 0x61, 0x63, 0x6b,
  0x61, 0x74, 0x68, 0x6f, 0x6e, 0x2e, 0x62, 0x61, 0x73, 0x65, 0x6c, 0x69,
  0x6e, 0x65, 0x5f, 0x6d, 0x6f, 0x64, 0x65, 0x6c, 0x2e, 0x42, 0x61, 0x73,
  0x65, 0x6c, 0x69, 0x6e, 0x65, 0x4d, 0x4c, 0x50, 0x2f, 0x74, 0x6f, 0x72,
  0x63, 0x68, 0x2e, 0x6e, 0x6e, 0x2e, 0x6d, 0x6f, 0x64, 0x75, 0x6c, 0x65,
  0x73, 0x2e, 0x63, 0x6f, 0x6e, 0x74, 0x61, 0x69, 0x6e, 0x65, 0x72, 0x2e,
  0x53, 0x65, 0x71, 0x75, 0x65, 0x6e, 0x74, 0x69, 0x61, 0x6c, 0x5f, 0x6e,
  0x65, 0x74, 0x2f, 0x74, 0x6f, 0x72, 0x63, 0x68, 0x2e, 0x6e, 0x6e, 0x2e,
  0x6d, 0x6f, 0x64, 0x75, 0x6c, 0x65, 0x73, 0x2e, 0x6c, 0x69, 0x6e, 0x65,
  0x61, 0x72, 0x2e, 0x4c, 0x69, 0x6e, 0x65, 0x61, 0x72, 0x5f, 0x32, 0x3b,
  0x3b, 0x76, 0x6c, 0x70, 0x5f, 0x68, 0x61, 0x63, 0x6b, 0x61, 0x74, 0x68,
  0x6f, 0x6e, 0x2e, 0x62, 0x61, 0x73, 0x65, 0x6c, 0x69, 0x6e, 0x65, 0x5f,
  0x6d, 0x6f, 0x64, 0x65, 0x6c, 0x2e, 0x42, 0x61, 0x73, 0x65, 0x6c, 0x69,
  0x6e, 0x65, 0x4d, 0x4c, 0x50, 0x2f, 0x74, 0x6f, 0x72, 0x63, 0x68, 0x2e,
  0x6e, 0x6e, 0x2e, 0x6d, 0x6f, 0x64, 0x75, 0x6c, 0x65, 0x73, 0x2e, 0x63,
  0x6f, 0x6e, 0x74, 0x61, 0x69, 0x6e, 0x65, 0x72, 0x2e, 0x53, 0x65, 0x71,
  0x75, 0x65, 0x6e, 0x74, 0x69, 0x61, 0x6c, 0x5f, 0x6e, 0x65, 0x74, 0x2f,
  0x74, 0x6f, 0x72, 0x63, 0x68, 0x2e, 0x6e, 0x6e, 0x2e, 0x6d, 0x6f, 0x64,
  0x75, 0x6c, 0x65, 0x73, 0x2e, 0x61, 0x63, 0x74, 0x69, 0x76, 0x61, 0x74,
  0x69, 0x6f, 0x6e, 0x2e, 0x52, 0x65, 0x4c, 0x55, 0x5f, 0x33, 0x3b, 0x3b,
  0x76, 0x6c, 0x70, 0x5f, 0x68, 0x61, 0x63, 0x6b, 0x61, 0x74, 0x68, 0x6f,
  0x6e, 0x2e, 0x62, 0x61, 0x73, 0x65, 0x6c, 0x69, 0x6e, 0x65, 0x5f, 0x6d,
  0x6f, 0x64, 0x65, 0x6c, 0x2e, 0x42, 0x61, 0x73, 0x65, 0x6c, 0x69, 0x6e,
  0x65, 0x4d, 0x4c, 0x50, 0x2f, 0x74, 0x6f, 0x72, 0x63, 0x68, 0x2e, 0x6e,
  0x6e, 0x2e, 0x6d, 0x6f, 0x64, 0x75, 0x6c, 0x65, 0x73, 0x2e, 0x63, 0x6f,
  0x6e, 0x74, 0x61, 0x69, 0x6e, 0x65, 0x72, 0x2e, 0x53, 0x65, 0x71, 0x75,
  0x65, 0x6e, 0x74, 0x69, 0x61, 0x6c, 0x5f, 0x6e, 0x65, 0x74, 0x2f, 0x74,
  0x6f, 0x72, 0x63, 0x68, 0x2e, 0x6e, 0x6e, 0x2e, 0x6d, 0x6f, 0x64, 0x75,
  0x6c, 0x65, 0x73, 0x2e, 0x61, 0x63, 0x74, 0x69, 0x76, 0x61, 0x74, 0x69,
  0x6f, 0x6e, 0x2e, 0x52, 0x65, 0x4c, 0x55, 0x5f, 0x31, 0x3b, 0x00, 0x00,
  0x02, 0x00, 0x00, 0x00, 0x01, 0x00, 0x00, 0x00, 0x20, 0x00, 0x00, 0x00,
  0xf4, 0xe3, 0xff, 0xff, 0x00, 0x00, 0x0e, 0x00, 0x16, 0x00, 0x00, 0x00,
  0x08, 0x00, 0x0c, 0x00, 0x07, 0x00, 0x10, 0x00, 0x0e, 0x00, 0x00, 0x00,
  0x00, 0x00, 0x00, 0x08, 0x28, 0x00, 0x00, 0x00, 0x1c, 0x00, 0x00, 0x00,
  0x10, 0x00, 0x00, 0x00, 0x00, 0x00, 0x0a, 0x00, 0x08, 0x00, 0x07, 0x00,
  0x00, 0x00, 0x06, 0x00, 0x0a, 0x00, 0x00, 0x00, 0x00, 0x00, 0x01, 0x01,
  0x01, 0x00, 0x00, 0x00, 0x07, 0x00, 0x00, 0x00, 0x03, 0x00, 0x00, 0x00,
  0x00, 0x00, 0x00, 0x00, 0x05, 0x00, 0x00, 0x00, 0x06, 0x00, 0x00, 0x00,
  0x0c, 0x00, 0x10, 0x00, 0x0b, 0x00, 0x00, 0x00, 0x0c, 0x00, 0x04, 0x00,
  0x0c, 0x00, 0x00, 0x00, 0x09, 0x00, 0x00, 0x00, 0x00, 0x00, 0x00, 0x09,
  0x05, 0x00, 0x00, 0x00, 0x3e, 0xe4, 0xff, 0xff, 0x00, 0x00, 0x00, 0x01,
  0x00, 0x01, 0x00, 0x00, 0x08, 0x00, 0x00, 0x00, 0x08, 0x00, 0x00, 0x00,
  0x00, 0x01, 0x00, 0x00, 0xeb, 0x00, 0x00, 0x00, 0x76, 0x6c, 0x70, 0x5f,
  0x68, 0x61, 0x63, 0x6b, 0x61, 0x74, 0x68, 0x6f, 0x6e, 0x2e, 0x62, 0x61,
  0x73, 0x65, 0x6c, 0x69, 0x6e, 0x65, 0x5f, 0x6d, 0x6f, 0x64, 0x65, 0x6c,
  0x2e, 0x42, 0x61, 0x73, 0x65, 0x6c, 0x69, 0x6e, 0x65, 0x4d, 0x4c, 0x50,
  0x2f, 0x74, 0x6f, 0x72, 0x63, 0x68, 0x2e, 0x6e, 0x6e, 0x2e, 0x6d, 0x6f,
  0x64, 0x75, 0x6c, 0x65, 0x73, 0x2e, 0x63, 0x6f, 0x6e, 0x74, 0x61, 0x69,
  0x6e, 0x65, 0x72, 0x2e, 0x53, 0x65, 0x71, 0x75, 0x65, 0x6e, 0x74, 0x69,
  0x61, 0x6c, 0x5f, 0x6e, 0x65, 0x74, 0x2f, 0x74, 0x6f, 0x72, 0x63, 0x68,
  0x2e, 0x6e, 0x6e, 0x2e, 0x6d, 0x6f, 0x64, 0x75, 0x6c, 0x65, 0x73, 0x2e,
  0x6c, 0x69, 0x6e, 0x65, 0x61, 0x72, 0x2e, 0x4c, 0x69, 0x6e, 0x65, 0x61,
  0x72, 0x5f, 0x30, 0x3b, 0x3b, 0x76, 0x6c, 0x70, 0x5f, 0x68, 0x61, 0x63,
  0x6b, 0x61, 0x74, 0x68, 0x6f, 0x6e, 0x2e, 0x62, 0x61, 0x73, 0x65, 0x6c,
  0x69, 0x6e, 0x65, 0x5f, 0x6d, 0x6f, 0x64, 0x65, 0x6c, 0x2e, 0x42, 0x61,
  0x73, 0x65, 0x6c, 0x69, 0x6e, 0x65, 0x4d, 0x4c, 0x50, 0x2f, 0x74, 0x6f,
  0x72, 0x63, 0x68, 0x2e, 0x6e, 0x6e, 0x2e, 0x6d, 0x6f, 0x64, 0x75, 0x6c,
  0x65, 0x73, 0x2e, 0x63, 0x6f, 0x6e, 0x74, 0x61, 0x69, 0x6e, 0x65, 0x72,
  0x2e, 0x53, 0x65, 0x71, 0x75, 0x65, 0x6e, 0x74, 0x69, 0x61, 0x6c, 0x5f,
  0x6e, 0x65, 0x74, 0x2f, 0x74, 0x6f, 0x72, 0x63, 0x68, 0x2e, 0x6e, 0x6e,
  0x2e, 0x6d, 0x6f, 0x64, 0x75, 0x6c, 0x65, 0x73, 0x2e, 0x61, 0x63, 0x74,
  0x69, 0x76, 0x61, 0x74, 0x69, 0x6f, 0x6e, 0x2e, 0x52, 0x65, 0x4c, 0x55,
  0x5f, 0x31, 0x3b, 0x00, 0x02, 0x00, 0x00, 0x00, 0x01, 0x00, 0x00, 0x00,
  0x20, 0x00, 0x00, 0x00, 0xf8, 0xe4, 0xff, 0xff, 0x56, 0xe5, 0xff, 0xff,
  0x00, 0x00, 0x00, 0x01, 0x8c, 0x00, 0x00, 0x00, 0x07, 0x00, 0x00, 0x00,
  0x08, 0x00, 0x00, 0x00, 0x88, 0x00, 0x00, 0x00, 0x75, 0x00, 0x00, 0x00,
  0x76, 0x6c, 0x70, 0x5f, 0x68, 0x61, 0x63, 0x6b, 0x61, 0x74, 0x68, 0x6f,
  0x6e, 0x2e, 0x62, 0x61, 0x73, 0x65, 0x6c, 0x69, 0x6e, 0x65, 0x5f, 0x6d,
  0x6f, 0x64, 0x65, 0x6c, 0x2e, 0x42, 0x61, 0x73, 0x65, 0x6c, 0x69, 0x6e,
  0x65, 0x4d, 0x4c, 0x50, 0x2f, 0x74, 0x6f, 0x72, 0x63, 0x68, 0x2e, 0x6e,
  0x6e, 0x2e, 0x6d, 0x6f, 0x64, 0x75, 0x6c, 0x65, 0x73, 0x2e, 0x63, 0x6f,
  0x6e, 0x74, 0x61, 0x69, 0x6e, 0x65, 0x72, 0x2e, 0x53, 0x65, 0x71, 0x75,
  0x65, 0x6e, 0x74, 0x69, 0x61, 0x6c, 0x5f, 0x6e, 0x65, 0x74, 0x2f, 0x74,
  0x6f, 0x72, 0x63, 0x68, 0x2e, 0x6e, 0x6e, 0x2e, 0x6d, 0x6f, 0x64, 0x75,
  0x6c, 0x65, 0x73, 0x2e, 0x6c, 0x69, 0x6e, 0x65, 0x61, 0x72, 0x2e, 0x4c,
  0x69, 0x6e, 0x65, 0x61, 0x72, 0x5f, 0x30, 0x3b, 0x31, 0x00, 0x00, 0x00,
  0x01, 0x00, 0x00, 0x00, 0x20, 0x00, 0x00, 0x00, 0x98, 0xe5, 0xff, 0xff,
  0x12, 0xe6, 0xff, 0xff, 0x04, 0x00, 0x00, 0x00, 0x80, 0x00, 0x00, 0x00,
  0x2a, 0x17, 0x15, 0x3f, 0x80, 0xb0, 0xb2, 0x3d, 0xf3, 0x52, 0x4b, 0xbe,
  0x3e, 0x3a, 0x5d, 0x3d, 0x5d, 0x76, 0xa1, 0xbe, 0x54, 0x15, 0xa6, 0xbe,
  0xd3, 0x2f, 0x8f, 0x3e, 0xf0, 0xd0, 0x5d, 0x3d, 0xe4, 0x1a, 0x6e, 0x3e,
  0x16, 0xba, 0x92, 0x3e, 0x7f, 0x5e, 0x06, 0x3e, 0x5b, 0xdb, 0xdc, 0xbd,
  0x6f, 0xc1, 0x8f, 0x3e, 0x56, 0xcd, 0x90, 0xbd, 0xf0, 0xb8, 0xb4, 0x3d,
  0x65, 0x8c, 0x2f, 0xbe, 0xea, 0x66, 0xd7, 0xbd, 0xfd, 0xcd, 0xfd, 0x3e,
  0xf9, 0xa9, 0x31, 0x3e, 0x87, 0xcf, 0x12, 0x3e, 0x29, 0x65, 0xe5, 0x3b,
  0x54, 0xc3, 0x18, 0x3e, 0x36, 0xc9, 0xe6, 0x3e, 0x66, 0x2c, 0xae, 0x3e,
  0x52, 0xe6, 0x93, 0xbe, 0x7f, 0x18, 0xce, 0x3e, 0xe2, 0xc1, 0x24, 0x3e,
  0x9c, 0x90, 0x99, 0x3e, 0x16, 0xfd, 0xfe, 0x3e, 0x44, 0x14, 0x12, 0x3e,
  0xc5, 0x22, 0x64, 0xbc, 0x56, 0xef, 0xab, 0x3e, 0x82, 0xe6, 0xff, 0xff,
  0x00, 0x00, 0x00, 0x01, 0x8c, 0x00, 0x00, 0x00, 0x06, 0x00, 0x00, 0x00,
  0x08, 0x00, 0x00, 0x00, 0x8c, 0x00, 0x00, 0x00, 0x74, 0x00, 0x00, 0x00,
  0x76, 0x6c, 0x70, 0x5f, 0x68, 0x61, 0x63, 0x6b, 0x61, 0x74, 0x68, 0x6f,
  0x6e, 0x2e, 0x62, 0x61, 0x73, 0x65, 0x6c, 0x69, 0x6e, 0x65, 0x5f, 0x6d,
  0x6f, 0x64, 0x65, 0x6c, 0x2e, 0x42, 0x61, 0x73, 0x65, 0x6c, 0x69, 0x6e,
  0x65, 0x4d, 0x4c, 0x50, 0x2f, 0x74, 0x6f, 0x72, 0x63, 0x68, 0x2e, 0x6e,
  0x6e, 0x2e, 0x6d, 0x6f, 0x64, 0x75, 0x6c, 0x65, 0x73, 0x2e, 0x63, 0x6f,
  0x6e, 0x74, 0x61, 0x69, 0x6e, 0x65, 0x72, 0x2e, 0x53, 0x65, 0x71, 0x75,
  0x65, 0x6e, 0x74, 0x69, 0x61, 0x6c, 0x5f, 0x6e, 0x65, 0x74, 0x2f, 0x74,
  0x6f, 0x72, 0x63, 0x68, 0x2e, 0x6e, 0x6e, 0x2e, 0x6d, 0x6f, 0x64, 0x75,
  0x6c, 0x65, 0x73, 0x2e, 0x6c, 0x69, 0x6e, 0x65, 0x61, 0x72, 0x2e, 0x4c,
  0x69, 0x6e, 0x65, 0x61, 0x72, 0x5f, 0x30, 0x3b, 0x00, 0x00, 0x00, 0x00,
  0x02, 0x00, 0x00, 0x00, 0x20, 0x00, 0x00, 0x00, 0x09, 0x00, 0x00, 0x00,
  0xc8, 0xe6, 0xff, 0xff, 0x42, 0xe7, 0xff, 0xff, 0x04, 0x00, 0x00, 0x00,
  0x80, 0x04, 0x00, 0x00, 0x3f, 0x7a, 0x56, 0x3e, 0xc2, 0xd3, 0x15, 0x3d,
  0xe7, 0xca, 0xc3, 0xbe, 0x9e, 0x64, 0x9c, 0x3e, 0xc4, 0x54, 0x6a, 0xbe,
  0x07, 0xf6, 0x30, 0xbe, 0x45, 0xae, 0x10, 0x3b, 0x8a, 0x23, 0x92, 0x3e,
  0x0e, 0xc1, 0x04, 0x3f, 0xbd, 0x2b, 0x42, 0xbe, 0x09, 0xd9, 0xe5, 0x3e,
  0x4e, 0x3c, 0x88, 0x3e, 0x4a, 0xcd, 0x88, 0x3d, 0xdb, 0x64, 0x3a, 0xbe,
  0xc1, 0x9d, 0xc9, 0x3e, 0x2c, 0xac, 0xb8, 0xbe, 0xd3, 0xab, 0x0d, 0xbd,
  0xb9, 0x16, 0x39, 0x3e, 0xc0, 0xb3, 0x60, 0x3e, 0x55, 0x42, 0xd5, 0x3e,
  0x0b, 0x0f, 0x21, 0x3f, 0xbf, 0x8b, 0x55, 0x3f, 0xfc, 0x0c, 0x5c, 0x3f,
  0xd3, 0x2d, 0x84, 0x3f, 0xe6, 0x2d, 0x42, 0x3d, 0x2b, 0xe0, 0x4d, 0x3d,
  0x47, 0x8d, 0xb9, 0x3d, 0x95, 0xc7, 0x2d, 0x3e, 0xd7, 0xdd, 0x39, 0xbf,
  0x97, 0xfa, 0x9c, 0xbf, 0xdb, 0x39, 0xd2, 0x3e, 0xb8, 0x34, 0xfb, 0xbe,
  0x98, 0xab, 0x08, 0x3e, 0x13, 0xb7, 0x9c, 0x3e, 0xac, 0xe4, 0x08, 0x3e,
  0x64, 0x2e, 0x30, 0x3e, 0xcb, 0xc9, 0x54, 0x3d, 0x76, 0xe4, 0x89, 0x3e,
  0x00, 0x42, 0x15, 0x3d, 0xae, 0xba, 0xf3, 0xbd, 0x64, 0x56, 0x9a, 0x3d,
  0x86, 0xbd, 0xd5, 0xbd, 0x94, 0x28, 0x01, 0x3e, 0x41, 0x00, 0x91, 0x3e,
  0x49, 0xa6, 0x36, 0x3e, 0xb8, 0x38, 0x15, 0xbe, 0x28, 0x0a, 0x45, 0x3e,
  0x40, 0x4b, 0x74, 0x3d, 0x4e, 0x57, 0x2d, 0x3e, 0x5e, 0x0b, 0x50, 0xbe,
  0xc3, 0xf1, 0xa8, 0xbe, 0xb3, 0xe0, 0x03, 0xbe, 0xbe, 0xe7, 0x82, 0xbe,
  0xe4, 0x09, 0x8c, 0x3e, 0x50, 0x6b, 0x98, 0x3e, 0x60, 0x61, 0xb8, 0x3e,
  0xce, 0x35, 0xb5, 0x3e, 0xdb, 0xb0, 0x20, 0x3e, 0xba, 0xd6, 0x90, 0x3e,
  0x2c, 0x9a, 0xed, 0xbd, 0xb6, 0x8a, 0xf6, 0xbb, 0x5f, 0xa5, 0x85, 0xbe,
  0xfd, 0xb6, 0x83, 0xbd, 0x9c, 0x41, 0x88, 0x3d, 0x5f, 0xc1, 0xa6, 0xbe,
  0x87, 0xca, 0xf5, 0xbe, 0xdf, 0xb6, 0x04, 0x3f, 0x7b, 0xdd, 0x2b, 0x3e,
  0x40, 0x69, 0x92, 0xbc, 0xc2, 0x5e, 0xf5, 0x3d, 0x36, 0x15, 0xf6, 0x3e,
  0xf8, 0x30, 0xf3, 0x3e, 0x4d, 0x81, 0xc7, 0x3e, 0xaf, 0xaf, 0x19, 0xbe,
  0xc4, 0x30, 0x32, 0xbf, 0x5e, 0xb6, 0xa3, 0xbd, 0x5f, 0xb6, 0x55, 0xbf,
  0xeb, 0x97, 0x08, 0xbf, 0x76, 0xbc, 0xb9, 0x3d, 0x71, 0x7a, 0x5e, 0xbf,
  0x39, 0xef, 0x81, 0xbf, 0x5c, 0xcb, 0x78, 0x3d, 0x7f, 0x04, 0xb9, 0x3e,
  0x62, 0x53, 0xc1, 0x3d, 0xe0, 0x53, 0x1c, 0xbe, 0x4a, 0x7d, 0xe3, 0xbd,
  0xfa, 0x16, 0x03, 0x3f, 0xc8, 0x9b, 0x20, 0xbf, 0x82, 0x68, 0x63, 0xbf,
  0xa2, 0x4c, 0x8d, 0xbe, 0x37, 0xc7, 0x80, 0x3e, 0xd5, 0xb7, 0x99, 0x3d,
  0xad, 0x50, 0x9a, 0x3d, 0xfa, 0x6b, 0xe4, 0x3e, 0x7d, 0x5b, 0x7e, 0xbd,
  0x89, 0x38, 0x92, 0xbf, 0x7f, 0x71, 0x08, 0x3f, 0x0d, 0x92, 0x0a, 0xbe,
  0xd0, 0xe8, 0xef, 0xbe, 0xdb, 0x22, 0xa5, 0xbe, 0xb0, 0x78, 0x43, 0xbe,
  0x5b, 0x88, 0xaa, 0x3d, 0xf6, 0x36, 0x34, 0xbd, 0xe3, 0xc4, 0x77, 0xbe,
  0xd6, 0x1a, 0x00, 0x3c, 0x93, 0x28, 0x69, 0xbe, 0x04, 0xcb, 0x90, 0xbe,
  0xa3, 0xf5, 0x3b, 0xbe, 0xf0, 0x1a, 0x66, 0xbb, 0xf8, 0x12, 0x87, 0xbc,
  0x92, 0xbd, 0x0b, 0x3f, 0xa6, 0x32, 0x97, 0xbe, 0x75, 0xa9, 0x1d, 0xbe,
  0x95, 0x9d, 0x46, 0xbe, 0xa2, 0xa9, 0x20, 0xbf, 0xd2, 0xf4, 0x4c, 0xbf,
  0x79, 0xa3, 0xd8, 0xbe, 0x5a, 0x2c, 0x96, 0xbe, 0x43, 0x12, 0x13, 0xbe,
  0x76, 0x58, 0x4c, 0xbe, 0x00, 0x28, 0x72, 0x3a, 0xc0, 0x05, 0xfe, 0xbd,
  0x40, 0x39, 0xbd, 0xbc, 0x30, 0x4c, 0x67, 0xbe, 0x20, 0x4a, 0x6a, 0xbe,
  0x6e, 0x22, 0x47, 0xbe, 0x8e, 0xbc, 0xe7, 0x3d, 0xf5, 0xd7, 0xdd, 0xbc,
  0x48, 0xbe, 0x03, 0x3f, 0xd2, 0x55, 0x8b, 0xbd, 0x4c, 0x31, 0xb1, 0x3e,
  0xf4, 0xd9, 0xb4, 0x3e, 0x42, 0x06, 0x00, 0xbe, 0xae, 0x29, 0x57, 0x3e,
  0x9f, 0x2d, 0x61, 0xbb, 0x8b, 0xd7, 0x02, 0xbe, 0x56, 0xaa, 0x8d, 0xbe,
  0x8b, 0xab, 0xa9, 0xbe, 0x61, 0xbf, 0xb5, 0x3d, 0xd8, 0xf9, 0xa7, 0xbd,
  0x33, 0x66, 0xfc, 0x3d, 0xe3, 0x43, 0x91, 0xbe, 0x10, 0x44, 0x71, 0x3e,
  0xdc, 0x62, 0x82, 0xbe, 0x46, 0xde, 0x5d, 0x3e, 0xe6, 0x41, 0xe8, 0x3e,
  0x92, 0x4b, 0x1b, 0x3f, 0x84, 0xa3, 0x1d, 0x3f, 0x67, 0x60, 0x5f, 0x3f,
  0xef, 0x2b, 0xa2, 0x3e, 0x7b, 0xb1, 0xfa, 0x3e, 0x7e, 0xab, 0xb9, 0x3e,
  0xbc, 0x49, 0x17, 0x3f, 0x07, 0x9d, 0xe6, 0xbe, 0x35, 0xc2, 0x7c, 0x3d,
  0xb6, 0xb6, 0x03, 0xbf, 0x93, 0x2f, 0x56, 0x3e, 0xa6, 0x0a, 0xd8, 0x3d,
  0xeb, 0x90, 0x04, 0xbe, 0xe3, 0x53, 0x8f, 0x3c, 0xbd, 0xd6, 0xe6, 0x3e,
  0xa7, 0x00, 0x8d, 0x3e, 0xd6, 0xfe, 0x22, 0xbe, 0xb9, 0x8d, 0x46, 0xbf,
  0xb0, 0x76, 0x9c, 0x3e, 0x62, 0x0a, 0xa6, 0xbe, 0x66, 0xe5, 0x23, 0xbf,
  0x12, 0x54, 0xaf, 0x3e, 0x89, 0x70, 0xb5, 0xbe, 0xc2, 0x16, 0x94, 0xbf,
  0x09, 0xd0, 0x49, 0xbd, 0x81, 0xea, 0x8d, 0x3c, 0x61, 0xe0, 0xc1, 0xbe,
  0x11, 0xb8, 0xed, 0xbe, 0xde, 0xbb, 0x69, 0xbe, 0x4e, 0xbc, 0xd7, 0xbe,
  0x76, 0x09, 0xa6, 0xbf, 0xc7, 0x08, 0x84, 0x3e, 0x8f, 0x35, 0xb5, 0x3e,
  0x39, 0x64, 0x83, 0x3d, 0xf9, 0x76, 0xa9, 0x3e, 0xc0, 0x75, 0xdc, 0x3e,
  0x6c, 0x02, 0xb9, 0x3e, 0x98, 0x3a, 0xa0, 0xbd, 0x2c, 0x0a, 0xd3, 0x3e,
  0x42, 0x7d, 0x2b, 0x3f, 0x5b, 0x15, 0x25, 0xbd, 0x89, 0xb3, 0x4b, 0x3e,
  0xad, 0x52, 0xd0, 0x3d, 0x78, 0x35, 0x7a, 0x3e, 0x3e, 0x4f, 0x3a, 0x3e,
  0x7b, 0x2d, 0x1f, 0xbe, 0xea, 0x28, 0xcb, 0x3e, 0x9b, 0x39, 0xf3, 0x3e,
  0xe3, 0xf6, 0x3b, 0xbe, 0x0a, 0xb9, 0x73, 0x3e, 0x92, 0x56, 0xb9, 0x3e,
  0xd8, 0x7b, 0x12, 0xbe, 0xc9, 0x2b, 0x8f, 0x3e, 0xbd, 0x61, 0x8f, 0x3e,
  0x2d, 0x2f, 0xd8, 0xbd, 0x26, 0xfd, 0x8b, 0xbe, 0x5a, 0xe3, 0x38, 0x3e,
  0x3f, 0x41, 0xc7, 0x3e, 0x0d, 0xf0, 0x62, 0xbe, 0x07, 0x62, 0xb3, 0xbe,
  0xad, 0x0a, 0xd1, 0xbe, 0x2a, 0xc9, 0x04, 0xbf, 0x66, 0x2a, 0xdf, 0xbe,
  0x24, 0xc2, 0xe0, 0x3c, 0x2a, 0x91, 0xda, 0xbc, 0x90, 0x49, 0x03, 0x3c,
  0xf7, 0xdd, 0x1e, 0xbe, 0x42, 0x0e, 0x48, 0xbf, 0xf6, 0x0f, 0x01, 0xbf,
  0x0d, 0x28, 0xdc, 0x3e, 0x76, 0x81, 0x45, 0x3d, 0x6b, 0xca, 0xb0, 0xbd,
  0xfe, 0x36, 0x0d, 0x3e, 0xf0, 0x01, 0x02, 0xbe, 0x10, 0xee, 0x5c, 0xbe,
  0x86, 0x22, 0x79, 0x3e, 0x73, 0x34, 0x1b, 0xbe, 0x1b, 0xda, 0x88, 0xbd,
  0xaa, 0xc7, 0xa9, 0xbe, 0x82, 0x17, 0x83, 0xbd, 0x30, 0x6a, 0x12, 0xbe,
  0x58, 0xca, 0xbd, 0x3d, 0x3f, 0x69, 0x34, 0xbf, 0x89, 0x37, 0x9d, 0xbf,
  0x7e, 0x32, 0xb4, 0xbe, 0x13, 0xf7, 0xda, 0xbd, 0x5f, 0x70, 0x19, 0xbe,
  0xb6, 0x6d, 0xcf, 0x3e, 0xbc, 0x50, 0x9e, 0x3e, 0x6b, 0x1f, 0x99, 0x3e,
  0x14, 0xd1, 0xc7, 0x3d, 0x2e, 0x09, 0x3a, 0xbd, 0x53, 0x37, 0x6a, 0xbd,
  0x5c, 0x05, 0x4b, 0xbf, 0xf1, 0x1d, 0x7f, 0x3d, 0x3d, 0x26, 0x89, 0xbf,
  0x8d, 0xb7, 0xf0, 0xbe, 0x49, 0x6a, 0xf1, 0xbe, 0x57, 0xfe, 0x12, 0xbe,
  0x23, 0x42, 0x67, 0xbf, 0x7d, 0x59, 0xad, 0xbe, 0x22, 0xbb, 0x2e, 0xbe,
  0x07, 0xeb, 0x0a, 0xbf, 0xa5, 0x88, 0xb1, 0x3e, 0xf2, 0x82, 0x61, 0xbc,
  0xd6, 0x04, 0x7b, 0xbd, 0x94, 0x88, 0x7c, 0xbe, 0xd6, 0xdb, 0xbf, 0xbe,
  0xab, 0x98, 0xc8, 0xbe, 0xb9, 0xc6, 0x1d, 0xbf, 0x24, 0x61, 0x0e, 0xbe,
  0x0d, 0xd0, 0x16, 0xbf, 0xac, 0x9a, 0x99, 0x3e, 0xb8, 0x1d, 0x79, 0x3e,
  0x60, 0x3d, 0xce, 0x3e, 0xfb, 0x59, 0x86, 0xbd, 0x58, 0xf6, 0xef, 0x3e,
  0xb7, 0x0a, 0x2c, 0xbe, 0xcd, 0x91, 0x9e, 0x3e, 0xe2, 0x44, 0xba, 0x3e,
  0x1a, 0x3d, 0x34, 0xbe, 0x75, 0xcf, 0x6e, 0x3e, 0xac, 0xca, 0xda, 0xbd,
  0xa6, 0x4c, 0x15, 0xbf, 0x13, 0x40, 0xbe, 0x3e, 0xf5, 0xbc, 0x90, 0xbd,
  0xd4, 0x3d, 0x19, 0x3f, 0xd1, 0x75, 0xff, 0x3e, 0x9b, 0xdc, 0x15, 0x3f,
  0x9a, 0x96, 0x53, 0x3e, 0x27, 0xd2, 0x5d, 0x3e, 0x9f, 0x6c, 0xc1, 0x3d,
  0xc9, 0xbc, 0x49, 0x3d, 0x95, 0x3c, 0xf4, 0xbe, 0xa0, 0x5f, 0x33, 0xbf,
  0x24, 0xae, 0x23, 0xbf, 0x00, 0x06, 0xb1, 0xbe, 0xa7, 0x11, 0x1d, 0xbe,
  0x63, 0x07, 0xf6, 0xbc, 0x15, 0x88, 0xed, 0xbe, 0xcd, 0x4a, 0x8f, 0xbe,
  0x64, 0xd5, 0xdd, 0x3e, 0xb2, 0xeb, 0xff, 0xff, 0x00, 0x00, 0x00, 0x01,
  0x8c, 0x00, 0x00, 0x00, 0x05, 0x00, 0x00, 0x00, 0x08, 0x00, 0x00, 0x00,
  0x8c, 0x00, 0x00, 0x00, 0x75, 0x00, 0x00, 0x00, 0x76, 0x6c, 0x70, 0x5f,
  0x68, 0x61, 0x63, 0x6b, 0x61, 0x74, 0x68, 0x6f, 0x6e, 0x2e, 0x62, 0x61,
  0x73, 0x65, 0x6c, 0x69, 0x6e, 0x65, 0x5f, 0x6d, 0x6f, 0x64, 0x65, 0x6c,
  0x2e, 0x42, 0x61, 0x73, 0x65, 0x6c, 0x69, 0x6e, 0x65, 0x4d, 0x4c, 0x50,
  0x2f, 0x74, 0x6f, 0x72, 0x63, 0x68, 0x2e, 0x6e, 0x6e, 0x2e, 0x6d, 0x6f,
  0x64, 0x75, 0x6c, 0x65, 0x73, 0x2e, 0x63, 0x6f, 0x6e, 0x74, 0x61, 0x69,
  0x6e, 0x65, 0x72, 0x2e, 0x53, 0x65, 0x71, 0x75, 0x65, 0x6e, 0x74, 0x69,
  0x61, 0x6c, 0x5f, 0x6e, 0x65, 0x74, 0x2f, 0x74, 0x6f, 0x72, 0x63, 0x68,
  0x2e, 0x6e, 0x6e, 0x2e, 0x6d, 0x6f, 0x64, 0x75, 0x6c, 0x65, 0x73, 0x2e,
  0x6c, 0x69, 0x6e, 0x65, 0x61, 0x72, 0x2e, 0x4c, 0x69, 0x6e, 0x65, 0x61,
  0x72, 0x5f, 0x32, 0x3b, 0x31, 0x00, 0x00, 0x00, 0x02, 0x00, 0x00, 0x00,
  0x20, 0x00, 0x00, 0x00, 0x20, 0x00, 0x00, 0x00, 0xf8, 0xeb, 0xff, 0xff,
  0x72, 0xec, 0xff, 0xff, 0x04, 0x00, 0x00, 0x00, 0x00, 0x10, 0x00, 0x00,
  0x2c, 0xa1, 0xfb, 0xbd, 0x3c, 0x37, 0x15, 0xbd, 0x5b, 0x0f, 0x06, 0x3e,
  0xfd, 0x98, 0xb9, 0x3d, 0x16, 0x18, 0xe5, 0xbd, 0x1d, 0x28, 0x11, 0xbe,
  0x71, 0x67, 0xf7, 0xbd, 0xd9, 0xa4, 0x32, 0xbe, 0x7c, 0xae, 0x0b, 0xbe,
  0xfc, 0x0f, 0x33, 0xbd, 0xe6, 0x54, 0xf4, 0x3d, 0x37, 0x65, 0xf2, 0x3c,
  0x2e, 0xaf, 0x09, 0xbe, 0xd1, 0x37, 0x11, 0xbe, 0xf4, 0x1a, 0xb4, 0x3d,
  0x50, 0xa6, 0x06, 0xbe, 0xbf, 0x4e, 0xb2, 0xbc, 0x11, 0xac, 0xad, 0x3d,
  0x4d, 0x8e, 0xa7, 0xbd, 0x1a, 0xe8, 0x9d, 0xbc, 0x94, 0x1b, 0x7c, 0xbc,
  0xfd, 0x4d, 0x2b, 0xbd, 0xb4, 0x90, 0xb7, 0xbd, 0x1a, 0x5e, 0x21, 0xbe,
  0x08, 0x54, 0x12, 0xbe, 0x9b, 0xdb, 0xc1, 0xbd, 0xd6, 0xd5, 0x2e, 0x3e,
  0xb8, 0xde, 0xae, 0xbd, 0x7d, 0x1e, 0xf3, 0xbd, 0x1c, 0x83, 0x2f, 0x3d,
  0x2d, 0x90, 0x47, 0x3d, 0x51, 0x5d, 0xc6, 0x3d, 0x97, 0x56, 0xb2, 0x3e,
  0x2d, 0x5a, 0x74, 0x3e, 0xc5, 0x6d, 0x21, 0x3e, 0x4b, 0xbb, 0x5f, 0xbd,
  0xdd, 0x43, 0xf0, 0x3d, 0xac, 0xd8, 0x85, 0xbc, 0x2c, 0x17, 0x60, 0xbe,
  0x19, 0xd9, 0x99, 0x3e, 0x2c, 0xbc, 0x3d, 0xbf, 0x94, 0x07, 0xaf, 0x3e,
  0xc9, 0x9e, 0x04, 0xbf, 0x8e, 0x5f, 0x01, 0x3c, 0x9f, 0xdb, 0x11, 0x3f,
  0xa8, 0x48, 0x20, 0x3d, 0x27, 0x3b, 0xef, 0xbd, 0x2e, 0xc6, 0x05, 0xbe,
  0x1e, 0x52, 0x26, 0xbf, 0x37, 0x79, 0x63, 0x3e, 0xe8, 0x72, 0x26, 0x3f,
  0x6b, 0xe5, 0xbd, 0x3e, 0x33, 0xf2, 0x1b, 0xbf, 0xd3, 0xd2, 0x3b, 0xbe,
  0x4c, 0xb4, 0x16, 0x3d, 0x6f, 0xfe, 0x40, 0x3e, 0x14, 0x21, 0x03, 0x3d,
  0x45, 0x04, 0xb9, 0x3e, 0x3c, 0x7a, 0x26, 0xbe, 0x3a, 0x3e, 0x94, 0x3e,
  0xb5, 0x3f, 0xb2, 0x3e, 0x3a, 0x23, 0x9d, 0xbe, 0x4c, 0xf1, 0x46, 0xbe,
  0xa1, 0x33, 0xdb, 0x3e, 0x83, 0x6c, 0xe8, 0xbc, 0xee, 0xba, 0x06, 0x3e,
  0xe0, 0x3c, 0x1a, 0xbe, 0xd1, 0xde, 0x66, 0xbd, 0x43, 0x8e, 0xbb, 0x3d,
  0xd0, 0xc0, 0x1d, 0xbd, 0x01, 0x43, 0xa8, 0xbc, 0x39, 0xcd, 0xd8, 0xbd,
  0x9d, 0x87, 0xbe, 0x3d, 0x89, 0xd6, 0xcb, 0x3d, 0x6c, 0x88, 0x62, 0x3d,
  0xdc, 0x73, 0xcb, 0xbd, 0x86, 0xa0, 0x08, 0xbe, 0x20, 0xa2, 0x9c, 0x3c,
  0x76, 0x3a, 0xb7, 0x3c, 0x82, 0xe9, 0xb2, 0xbd, 0x5c, 0x98, 0x4a, 0xbd,
  0xa9, 0x4c, 0xb8, 0x3d, 0x19, 0xb8, 0x66, 0x3c, 0xf5, 0x5a, 0x91, 0xbc,
  0x22, 0x32, 0x32, 0xbd, 0x67, 0xdb, 0x3f, 0xbe, 0xba, 0x96, 0x45, 0xbe,
  0xe5, 0x8e, 0xb3, 0xbd, 0x31, 0x08, 0xb8, 0xbd, 0xee, 0xfa, 0xcf, 0x3c,
  0xea, 0xee, 0x9e, 0xbd, 0x52, 0x72, 0xb3, 0xbd, 0x8f, 0x06, 0x0e, 0x3e,
  0x47, 0x90, 0x0f, 0x3d, 0xce, 0x98, 0x0f, 0x3e, 0x9d, 0x03, 0x8f, 0xbd,
  0xe0, 0xfb, 0xea, 0x3d, 0xa2, 0x39, 0x5b, 0x3e, 0x59, 0xf3, 0x36, 0xbd,
  0x62, 0x8e, 0x63, 0xbe, 0x1e, 0xf2, 0x3b, 0x3b, 0x65, 0x6b, 0x84, 0xbd,
  0x24, 0xe8, 0x7b, 0xbe, 0x71, 0xb6, 0x5d, 0x3e, 0x4a, 0x41, 0xe9, 0xbe,
  0x3d, 0xd9, 0xa4, 0x3e, 0x07, 0x94, 0xa2, 0xbe, 0x5f, 0xac, 0x27, 0xbe,
  0xa8, 0x0f, 0xa2, 0x3e, 0xf5, 0x56, 0x38, 0x3d, 0x22, 0x5d, 0x4c, 0x3e,
  0x7c, 0xe4, 0x86, 0xbc, 0x33, 0x06, 0x02, 0xbf, 0xdf, 0xf6, 0x9a, 0x3e,
  0x4c, 0xac, 0x87, 0x3e, 0x2d, 0xf3, 0x95, 0x3d, 0xf4, 0x9e, 0xdf, 0xbe,
  0x55, 0x1e, 0x02, 0xbe, 0x71, 0xed, 0x97, 0x3d, 0x3c, 0xc0, 0x7f, 0x3e,
  0xa5, 0xd0, 0x5a, 0xbd, 0xfd, 0xc1, 0xb3, 0x3e, 0xe5, 0xb6, 0x89, 0xbe,
  0x7d, 0x49, 0xcb, 0x3e, 0x42, 0xcd, 0xbf, 0x3e, 0x29, 0x5a, 0x80, 0xbe,
  0xf5, 0x55, 0xa6, 0xbe, 0x17, 0x27, 0xc0, 0x3e, 0xaa, 0x6c, 0xfa, 0x3d,
  0x19, 0xd2, 0x4f, 0xbe, 0x71, 0x86, 0x9a, 0x3e, 0x7d, 0xcc, 0xb6, 0xbd,
  0xa9, 0x2e, 0x14, 0xbe, 0xa2, 0xd9, 0x0b, 0x3d, 0x8d, 0x7c, 0x16, 0x3e,
  0x03, 0x2c, 0x2c, 0x3f, 0xb4, 0xf4, 0xef, 0xbe, 0x46, 0xcf, 0xf0, 0x3d,
  0xba, 0xba, 0xc6, 0x3e, 0x2e, 0xa2, 0xd5, 0xbd, 0x75, 0xb5, 0x9e, 0xbe,
  0x3a, 0xe2, 0x2d, 0x3d, 0x16, 0x77, 0x45, 0x3d, 0x98, 0xfd, 0xff, 0xbd,
  0xf5, 0x34, 0x83, 0x3f, 0xd9, 0x0e, 0x1d, 0x3e, 0x1e, 0x8b, 0x93, 0xbf,
  0x7b, 0x3c, 0xb2, 0x3d, 0x21, 0x3d, 0x0a, 0x3f, 0x6c, 0x6f, 0x2f, 0x3f,
  0x7b, 0xed, 0xc1, 0xbc, 0xc1, 0xc7, 0xef, 0xbe, 0x40, 0xc0, 0x08, 0x3e,
  0xb6, 0x7f, 0x0a, 0xbf, 0x85, 0xff, 0x1b, 0xbf, 0x2f, 0x69, 0xa3, 0x3e,
  0xe6, 0x85, 0x7c, 0xbe, 0x0e, 0x2e, 0x37, 0x3e, 0xff, 0xdf, 0xdf, 0x3e,
  0x03, 0x43, 0x5a, 0xbd, 0xf3, 0x82, 0x29, 0x3e, 0x00, 0x68, 0x08, 0xbd,
  0xc5, 0x57, 0xf7, 0xbe, 0x3b, 0xde, 0x9a, 0x3e, 0x97, 0x77, 0xed, 0xbd,
  0x9c, 0xb5, 0xeb, 0xbd, 0x86, 0xf5, 0x8a, 0x3e, 0xaa, 0x5f, 0x51, 0x3e,
  0xe8, 0xe3, 0x01, 0x3f, 0xca, 0xf2, 0x38, 0x3e, 0xf9, 0x71, 0x9d, 0x3e,
  0x61, 0x32, 0x79, 0x3d, 0x2b, 0x23, 0xef, 0xbd, 0x5e, 0x6f, 0x35, 0x3b,
  0x40, 0x83, 0x33, 0x3d, 0xc4, 0x51, 0x95, 0xbb, 0x27, 0x42, 0xd3, 0x3e,
  0x55, 0x88, 0x71, 0x3d, 0x6d, 0x01, 0xa5, 0xbe, 0xb2, 0x0f, 0x31, 0x3c,
  0xb2, 0x04, 0x99, 0x3e, 0xe9, 0xcc, 0x8a, 0x3d, 0x6d, 0x11, 0x3f, 0x3e,
  0x81, 0xf7, 0xd9, 0xba, 0x93, 0x8d, 0x0d, 0x3e, 0x16, 0x2d, 0x16, 0x3d,
  0xea, 0x7a, 0x9e, 0x3d, 0x40, 0x96, 0xb9, 0xbe, 0xe2, 0x0c, 0x3d, 0xbe,
  0xa5, 0x0c, 0x0d, 0x3e, 0x80, 0xfb, 0x69, 0x3e, 0xf2, 0x10, 0xbc, 0xbe,
  0xae, 0xb6, 0x4e, 0x3e, 0xcd, 0x3a, 0xb6, 0x3d, 0xb8, 0xc6, 0x4c, 0xbf,
  0x0e, 0x86, 0x1b, 0xbf, 0xc8, 0xb9, 0x1d, 0x3e, 0x17, 0x6a, 0x2b, 0xbe,
  0x06, 0x3e, 0xab, 0x3e, 0x12, 0xb1, 0xa7, 0xbe, 0x07, 0x89, 0xb0, 0xbe,
  0x1e, 0xe5, 0xcf, 0x3e, 0x18, 0xa0, 0x63, 0xbe, 0xd5, 0x0d, 0xe3, 0x3d,
  0xab, 0x8e, 0xcd, 0x3e, 0xae, 0x29, 0x1d, 0xbe, 0x46, 0xa4, 0x9d, 0x3e,
  0xc6, 0x77, 0xfb, 0x3c, 0xda, 0x6b, 0xe7, 0xbe, 0x6c, 0x11, 0x68, 0x3d,
  0x00, 0xf5, 0xe0, 0x3e, 0xce, 0x51, 0xe3, 0xbe, 0xfe, 0x1f, 0x68, 0x3e,
  0x44, 0x51, 0x37, 0xbd, 0xe1, 0xba, 0xae, 0x3e, 0x98, 0x09, 0x89, 0x3e,
  0x18, 0x41, 0x2a, 0xbe, 0x1d, 0x83, 0x7c, 0x3e, 0xf0, 0xb5, 0x16, 0x3e,
  0xe7, 0x3e, 0xdd, 0xbd, 0xb1, 0x53, 0x0a, 0xbe, 0xc0, 0x35, 0x2a, 0xbe,
  0x24, 0x86, 0xcd, 0x3d, 0x40, 0xbb, 0xba, 0x3e, 0xa6, 0x84, 0xb2, 0x3e,
  0x3b, 0x7e, 0xe2, 0x3c, 0x5f, 0xcd, 0x1b, 0xbd, 0x7c, 0x5f, 0xec, 0x3e,
  0xd2, 0x30, 0x12, 0x3e, 0xa8, 0x0f, 0x7a, 0xbd, 0x2c, 0x33, 0x0b, 0x3e,
  0x9b, 0x18, 0xe0, 0x3e, 0x3b, 0xed, 0xa1, 0x3e, 0xba, 0x4b, 0xf3, 0xbd,
  0x43, 0x2c, 0x59, 0x3e, 0xb7, 0x8d, 0xf5, 0xbd, 0x1c, 0x9d, 0x89, 0xbe,
  0x3b, 0x07, 0xde, 0x3c, 0xe4, 0x42, 0x8a, 0x3d, 0x57, 0x01, 0x34, 0x3e,
  0x12, 0xc9, 0xf3, 0x3e, 0x19, 0x78, 0x82, 0x3e, 0xfd, 0x1a, 0xde, 0xbe,
  0x50, 0xad, 0xa4, 0x3c, 0x67, 0x4f, 0x27, 0x3d, 0x50, 0xa9, 0x83, 0x3d,
  0xb5, 0x85, 0xb0, 0xbb, 0x10, 0xd3, 0x36, 0xbe, 0xfc, 0xa3, 0x26, 0xbe,
  0xe3, 0xa5, 0x11, 0xbe, 0xc7, 0x2f, 0x0e, 0x3e, 0x32, 0xac, 0x72, 0xbe,
  0x00, 0x25, 0x84, 0xbe, 0xfb, 0x28, 0x83, 0x3e, 0x00, 0xbc, 0xaf, 0x3e,
  0xe4, 0x9b, 0x9a, 0xbe, 0x47, 0xfc, 0xdd, 0x3d, 0x97, 0x96, 0x9f, 0x3e,
  0xac, 0x19, 0x6f, 0xbf, 0x2d, 0xd0, 0x2e, 0xbf, 0x3f, 0x0f, 0xc6, 0x3d,
  0xf2, 0xb8, 0x1d, 0xbe, 0xf7, 0xfd, 0x39, 0x3e, 0x07, 0x86, 0x0d, 0xbe,
  0x67, 0x2a, 0x82, 0xbe, 0x55, 0x81, 0xa3, 0x3e, 0x66, 0x89, 0x6e, 0xbe,
  0x26, 0xd6, 0x1f, 0xbb, 0xd8, 0xff, 0x88, 0x3e, 0xa1, 0xb6, 0x31, 0x3d,
  0xad, 0x86, 0x95, 0x3e, 0x50, 0xf1, 0x14, 0x3e, 0x43, 0xd5, 0x45, 0xbf,
  0x19, 0x20, 0xd3, 0x3d, 0x54, 0xa3, 0x95, 0x3e, 0x63, 0x88, 0xf6, 0xbe,
  0x53, 0xc6, 0x59, 0x3e, 0x0b, 0xef, 0xbd, 0xbe, 0xa8, 0xe4, 0x9e, 0x3e,
  0x70, 0x93, 0x87, 0x3e, 0xa8, 0x1f, 0xc3, 0xbd, 0x7e, 0x19, 0xb4, 0x3e,
  0xea, 0x0a, 0xa4, 0x3d, 0x42, 0x8b, 0x9a, 0xbe, 0x94, 0x56, 0xa1, 0x3d,
  0x76, 0x5a, 0x41, 0xbe, 0xce, 0x07, 0x86, 0x3b, 0xd1, 0x78, 0x97, 0x3e,
  0x07, 0xa3, 0x98, 0x3e, 0x0b, 0x4f, 0xa9, 0x3e, 0x99, 0x83, 0x01, 0xbf,
  0x76, 0xf2, 0x2f, 0x3e, 0x76, 0xda, 0xec, 0xbd, 0x6e, 0xf9, 0x1d, 0x3e,
  0x08, 0xda, 0x89, 0x3e, 0x11, 0x68, 0x33, 0x3e, 0xb8, 0xa7, 0xcc, 0x3e,
  0xc8, 0x94, 0xf1, 0xbc, 0xbc, 0x35, 0x4f, 0x3e, 0xa3, 0x40, 0x2e, 0x3e,
  0x4f, 0x4b, 0x7a, 0xbe, 0x6f, 0x4a, 0x11, 0xbc, 0x82, 0x45, 0x0b, 0xbc,
  0xed, 0xf1, 0xca, 0xbd, 0x84, 0x36, 0x9d, 0x3e, 0x25, 0x57, 0x4a, 0xbe,
  0x31, 0x25, 0xab, 0xbe, 0x43, 0xd0, 0x38, 0x3e, 0x5d, 0xdb, 0x1d, 0x3e,
  0x94, 0x10, 0x66, 0x3e, 0x7e, 0x8e, 0x96, 0x3d, 0xe9, 0xac, 0x7b, 0xbe,
  0x7b, 0xfd, 0x8a, 0x3d, 0x23, 0x3e, 0x39, 0x3e, 0xe9, 0x65, 0x57, 0x3e,
  0x30, 0x2e, 0xbc, 0xbe, 0x2e, 0xbb, 0x9f, 0xbe, 0xf4, 0xb3, 0xd1, 0x3d,
  0x92, 0x86, 0xa8, 0x3d, 0x56, 0x97, 0x90, 0xbe, 0x1e, 0x4d, 0x6a, 0x3e,
  0xa6, 0xfb, 0xd9, 0xbe, 0x33, 0x08, 0x22, 0x3f, 0xf1, 0xd9, 0xad, 0x3e,
  0x4c, 0xa9, 0x25, 0xbe, 0xef, 0xeb, 0xac, 0xbd, 0x80, 0xc6, 0xf6, 0x3d,
  0x45, 0x1c, 0x84, 0x3d, 0x43, 0xaf, 0x1e, 0x3f, 0xc7, 0x20, 0x02, 0xbf,
  0x0f, 0xf0, 0xad, 0x3e, 0x04, 0x61, 0xca, 0xbd, 0x69, 0x56, 0x1c, 0xbe,
  0x5e, 0xe0, 0x3a, 0x3c, 0x95, 0xa7, 0x97, 0xbe, 0x73, 0x8b, 0x11, 0x3e,
  0x52, 0x52, 0x4a, 0xbe, 0xcf, 0x12, 0x6d, 0x3d, 0x4b, 0x55, 0x10, 0xbf,
  0xef, 0x0b, 0xe4, 0x3e, 0xdb, 0xe8, 0x0c, 0xbf, 0xbb, 0x24, 0x48, 0x3e,
  0xab, 0x0d, 0xc1, 0xbc, 0xe5, 0xbc, 0xda, 0xbd, 0xf9, 0xc2, 0x85, 0x3d,
  0xd7, 0x3e, 0x6f, 0x3e, 0xce, 0x6d, 0xb6, 0x3e, 0x98, 0x68, 0xa2, 0x3e,
  0xab, 0x3e, 0xb2, 0x3e, 0x2f, 0xc6, 0xa3, 0x3c, 0xb6, 0xef, 0xcd, 0xbe,
  0xa7, 0x3a, 0xd5, 0xbc, 0xbb, 0xce, 0xba, 0x3e, 0x83, 0x13, 0xe4, 0x3d,
  0x5b, 0x7c, 0xbd, 0x3e, 0xc9, 0xeb, 0xb0, 0x3d, 0xdb, 0x44, 0xe0, 0xbc,
  0xd9, 0x99, 0x1a, 0xbd, 0xb7, 0xa6, 0xa3, 0xbe, 0x12, 0x9e, 0x45, 0xbd,
  0x21, 0x0a, 0x92, 0xbe, 0xbc, 0x46, 0x95, 0x3e, 0x99, 0x83, 0xec, 0xbe,
  0x38, 0xe1, 0x5e, 0x3d, 0x64, 0x31, 0x5d, 0x3d, 0x03, 0x45, 0x25, 0x3e,
  0x97, 0xee, 0x3b, 0xbf, 0x99, 0x1b, 0x47, 0xbd, 0x34, 0xf5, 0x6d, 0xbf,
  0x89, 0x97, 0xf4, 0x3d, 0xbd, 0x11, 0x1d, 0x3f, 0xf1, 0x66, 0x3d, 0x3f,
  0xbb, 0x4c, 0xd8, 0xbe, 0xc4, 0xfb, 0x53, 0xbd, 0x64, 0x85, 0x1a, 0x3b,
  0x65, 0x52, 0xac, 0x3e, 0xca, 0x1d, 0x11, 0x3e, 0x52, 0xd9, 0xe1, 0x3e,
  0xcd, 0x43, 0xb6, 0xbe, 0x6e, 0xc7, 0x10, 0x3f, 0x61, 0xdd, 0x9e, 0x3e,
  0x5d, 0xaf, 0xa0, 0xbe, 0x7d, 0xd0, 0xf2, 0xbe, 0x66, 0x79, 0xca, 0x3d,
  0x2e, 0x4e, 0x24, 0x3e, 0x7e, 0x22, 0x1b, 0xbd, 0x66, 0xd4, 0xf4, 0x3e,
  0x81, 0x15, 0xae, 0x3e, 0x1e, 0x45, 0x1d, 0xbe, 0xcc, 0x4f, 0x45, 0x3d,
  0xe5, 0x64, 0x06, 0x3e, 0xe0, 0xb2, 0xaf, 0x3e, 0x78, 0x67, 0x08, 0x3f,
  0x54, 0xca, 0xbc, 0xbe, 0x2e, 0x05, 0xbb, 0x3e, 0x77, 0xcf, 0x17, 0x3e,
  0x0d, 0x8c, 0x45, 0xbe, 0xd3, 0x71, 0x25, 0xbe, 0x5b, 0x3c, 0x83, 0x3d,
  0x13, 0xd8, 0x51, 0xbd, 0xb7, 0x3b, 0x91, 0x3e, 0x31, 0x18, 0x38, 0x3e,
  0xf3, 0xdc, 0xa5, 0xbe, 0xe2, 0x58, 0x85, 0x3e, 0xca, 0x1b, 0x98, 0x3e,
  0xf0, 0xad, 0x39, 0x3e, 0x48, 0x9b, 0x37, 0x3e, 0x2e, 0x4d, 0x77, 0xbe,
  0xa4, 0x97, 0x2f, 0xbe, 0x95, 0x0c, 0x27, 0xbd, 0x15, 0x26, 0xb6, 0x3e,
  0x19, 0x69, 0x73, 0xbe, 0x6b, 0x85, 0x17, 0xbe, 0x25, 0x64, 0x7a, 0x3e,
  0x55, 0x17, 0x98, 0x3e, 0x26, 0xfe, 0x4f, 0xbd, 0x41, 0x7a, 0x16, 0xbc,
  0xa4, 0x95, 0x74, 0xbe, 0x07, 0xdb, 0x4f, 0x3f, 0x2c, 0x6b, 0xd9, 0x3e,
  0x2e, 0x9f, 0xd8, 0x3d, 0x41, 0xdb, 0xe2, 0x3c, 0x42, 0xc5, 0x6a, 0x3e,
  0x27, 0x9b, 0xa5, 0x3e, 0xe6, 0x35, 0xda, 0x3e, 0xa3, 0x3b, 0xd6, 0xbe,
  0x22, 0x8b, 0x9b, 0x3e, 0xa1, 0xb8, 0xf7, 0xbd, 0x80, 0x4b, 0x9a, 0xbe,
  0x7b, 0x24, 0x04, 0x3e, 0x76, 0xdf, 0x0e, 0xbd, 0x7e, 0xed, 0x69, 0x3d,
  0x76, 0x4a, 0xa5, 0x3d, 0xf9, 0x18, 0xf0, 0x3d, 0x20, 0xea, 0x97, 0xbe,
  0x8f, 0x5d, 0x19, 0x3e, 0xa7, 0xa9, 0x17, 0xbe, 0xdc, 0x5c, 0x87, 0x3e,
  0x46, 0x2d, 0x09, 0xbc, 0xf3, 0x4a, 0x35, 0x3c, 0xdb, 0xe0, 0xb4, 0xbd,
  0x85, 0x2d, 0xe4, 0x3d, 0x7e, 0x7c, 0x99, 0x3d, 0xe4, 0xb5, 0x10, 0x3e,
  0x80, 0x86, 0x92, 0xbc, 0x15, 0x77, 0x52, 0x3e, 0x4d, 0xc8, 0x05, 0x3e,
  0x3a, 0x54, 0xd0, 0xbe, 0x22, 0xa9, 0xfa, 0xbd, 0x86, 0x19, 0x2a, 0x3e,
  0x45, 0x62, 0x8a, 0x3d, 0x1d, 0x44, 0x91, 0x3d, 0x67, 0x9b, 0xd8, 0xbd,
  0x62, 0xb7, 0x9e, 0xbd, 0x4c, 0xd4, 0x10, 0xbd, 0x51, 0x6b, 0x04, 0xbd,
  0x1f, 0x16, 0xf8, 0xbd, 0x61, 0x59, 0xcf, 0x3b, 0x5a, 0xdc, 0x1b, 0x3c,
  0xe7, 0x5d, 0xb7, 0xbc, 0x27, 0x1f, 0x81, 0x3c, 0x87, 0x7e, 0x8f, 0xbd,
  0xb8, 0xf4, 0x18, 0x3d, 0x17, 0x8a, 0x88, 0x3d, 0x93, 0x7d, 0xc9, 0xbd,
  0x34, 0x27, 0x3b, 0xbe, 0x7b, 0x42, 0xac, 0x3d, 0x12, 0xb8, 0x2c, 0x3d,
  0x1d, 0x75, 0xc9, 0xbd, 0xdd, 0x72, 0x2e, 0x3e, 0xd8, 0x56, 0xb5, 0xbd,
  0xe6, 0xda, 0xe2, 0x3d, 0x2b, 0xac, 0xb7, 0x3d, 0x61, 0xb3, 0x20, 0xbe,
  0x75, 0xd7, 0xd7, 0x3d, 0x40, 0x71, 0x26, 0xbe, 0xf8, 0x7e, 0xd9, 0xbd,
  0x1a, 0x18, 0x1b, 0xbd, 0xbf, 0xe1, 0x02, 0xbe, 0xdc, 0xf1, 0x28, 0x3e,
  0x41, 0x39, 0x8c, 0x3d, 0x25, 0x1e, 0x87, 0x3e, 0xf3, 0x79, 0xe2, 0xbf,
  0xcd, 0x6b, 0xe8, 0x3e, 0x47, 0x49, 0x89, 0xbd, 0x3a, 0xb2, 0x09, 0xbe,
  0xc7, 0x6a, 0x63, 0xbd, 0x2a, 0x5e, 0x21, 0x3f, 0x99, 0x8c, 0x18, 0x3b,
  0xdf, 0x0f, 0x06, 0xbe, 0x7f, 0x38, 0x28, 0x3f, 0x94, 0x36, 0x0b, 0x3d,
  0xbf, 0xed, 0x86, 0x3e, 0x9e, 0x31, 0x8b, 0x3d, 0xcc, 0xda, 0x66, 0x3e,
  0x49, 0x46, 0x44, 0xbd, 0x2c, 0x17, 0x6a, 0x3f, 0xc4, 0xad, 0x2f, 0x3e,
  0xe6, 0xe6, 0xb2, 0x3d, 0x4e, 0x7e, 0x3c, 0xbf, 0xc8, 0x60, 0xba, 0x3e,
  0xb9, 0xee, 0x46, 0x3e, 0x8e, 0x98, 0x16, 0xbf, 0x36, 0xe6, 0xda, 0x3e,
  0xe3, 0x5b, 0x51, 0xbd, 0x4f, 0x6f, 0xdd, 0x3d, 0x14, 0xc4, 0x3b, 0x3f,
  0xe3, 0xbe, 0x49, 0xbf, 0xff, 0xab, 0xd7, 0x3d, 0x43, 0x8d, 0x8f, 0x3d,
  0xe3, 0xca, 0x0c, 0x3f, 0x4c, 0x54, 0x0f, 0x3d, 0xb4, 0xcd, 0x22, 0xbe,
  0xd5, 0x35, 0xc7, 0xbd, 0x5b, 0x03, 0x03, 0xbe, 0x50, 0xdf, 0xa2, 0x3d,
  0xae, 0xc3, 0xf2, 0xbd, 0xbd, 0x50, 0x71, 0xbc, 0x0d, 0x87, 0xc5, 0x3c,
  0xe9, 0xc9, 0xc1, 0xbd, 0xa5, 0xe4, 0x34, 0x3d, 0x63, 0xc0, 0x30, 0xbe,
  0x9c, 0xab, 0x0a, 0xbe, 0x9e, 0x06, 0x24, 0xbe, 0x5a, 0x04, 0x5b, 0xbd,
  0xc6, 0xe3, 0x83, 0xbd, 0xbb, 0x5d, 0xcf, 0x3c, 0x73, 0xe4, 0x05, 0xbd,
  0x43, 0xae, 0x9f, 0x3d, 0xf6, 0xde, 0x25, 0x3e, 0x71, 0xe5, 0x81, 0x3d,
  0x16, 0xee, 0x8a, 0xbd, 0x00, 0x81, 0x29, 0xbe, 0x0e, 0x2c, 0x73, 0x3d,
  0x87, 0xad, 0xca, 0xbd, 0xa0, 0x3b, 0xb8, 0x3d, 0x74, 0x04, 0xf2, 0x3d,
  0xa3, 0x42, 0x8b, 0x3d, 0x24, 0x23, 0x1e, 0x3e, 0x31, 0x6e, 0x27, 0x3e,
  0x06, 0xc4, 0x1e, 0x3d, 0x04, 0xc6, 0x0b, 0xbe, 0x14, 0x54, 0x18, 0x3e,
  0x2b, 0xc9, 0xab, 0xbd, 0x1b, 0x90, 0xa7, 0xbd, 0x1e, 0xa7, 0xf1, 0x3e,
  0x85, 0xa0, 0x68, 0xbf, 0x63, 0xf4, 0x94, 0x3e, 0xd8, 0xf9, 0x95, 0xba,
  0x6d, 0x44, 0x18, 0xbe, 0x22, 0x8e, 0x17, 0x3e, 0xbc, 0x3e, 0x91, 0x3e,
  0x14, 0x79, 0xa0, 0x3e, 0xb6, 0x6d, 0x55, 0x3e, 0x1c, 0x54, 0x6e, 0x3e,
  0x9d, 0x8b, 0x7c, 0xbd, 0xd0, 0xb5, 0x96, 0x3e, 0x71, 0x9c, 0x32, 0x3c,
  0x8a, 0x0e, 0xfa, 0x3e, 0x6f, 0x33, 0x21, 0xbd, 0x72, 0xd0, 0x02, 0x3f,
  0x07, 0x5e, 0xc5, 0xbd, 0xd4, 0x93, 0x99, 0x3e, 0x35, 0x39, 0xcb, 0xbe,
  0x2b, 0x44, 0xd2, 0x3e, 0x8e, 0x2f, 0x9f, 0x3e, 0xbe, 0x95, 0x8d, 0x3e,
  0xef, 0x9d, 0x20, 0xbe, 0x2f, 0x41, 0x19, 0xbe, 0x10, 0x72, 0xa3, 0xbd,
  0x6e, 0x51, 0x62, 0x3e, 0xc4, 0xa8, 0xd2, 0xbe, 0x5a, 0x79, 0x4f, 0xbe,
  0x63, 0x8e, 0x2d, 0x3e, 0x95, 0x08, 0xb9, 0x3e, 0xb2, 0xc8, 0x15, 0xbe,
  0x96, 0x43, 0x38, 0x3e, 0x6c, 0xf3, 0x2a, 0x3c, 0x10, 0xdb, 0x4a, 0xbf,
  0x3c, 0x8a, 0x58, 0xbe, 0xd7, 0xc6, 0x22, 0x3e, 0x89, 0xc0, 0xbf, 0x3d,
  0x55, 0x04, 0xbb, 0x3e, 0x40, 0x95, 0xa1, 0x3d, 0x33, 0xf1, 0x14, 0xbf,
  0x6b, 0x90, 0x1b, 0x3f, 0x54, 0xe1, 0x5e, 0xbe, 0xb5, 0x50, 0x81, 0x3c,
  0xe9, 0xd7, 0x0b, 0x3f, 0x7b, 0xfa, 0xca, 0xbd, 0xe1, 0xd0, 0x2c, 0xbe,
  0x75, 0x40, 0x20, 0x3e, 0x15, 0x27, 0xc7, 0xbd, 0x6c, 0xb7, 0x9b, 0x3e,
  0x1f, 0x5b, 0x59, 0x3f, 0x54, 0x7d, 0x9b, 0xbe, 0x8e, 0x0a, 0xed, 0xbd,
  0x5f, 0x0b, 0x42, 0x3e, 0x23, 0xb8, 0x37, 0x3e, 0x83, 0x7d, 0x9f, 0x3e,
  0xa4, 0x9f, 0x15, 0xbe, 0x9d, 0x34, 0x8a, 0x3e, 0x72, 0xd5, 0xf3, 0xbe,
  0x84, 0x51, 0xa9, 0x3e, 0x5b, 0xc2, 0xc5, 0x3e, 0x5d, 0x3f, 0xf6, 0xbd,
  0xd5, 0x21, 0xcb, 0x3d, 0x9b, 0x5d, 0x16, 0x3f, 0xb7, 0x71, 0x5e, 0x3d,
  0x65, 0xff, 0x8e, 0x3e, 0x5d, 0x66, 0x4c, 0xbf, 0xd1, 0xbd, 0x00, 0x3e,
  0xca, 0x80, 0x01, 0xbe, 0xd8, 0x9c, 0xca, 0xbd, 0x1a, 0xdd, 0x13, 0x3e,
  0x77, 0x73, 0x19, 0x3e, 0xb6, 0x48, 0x2e, 0x3e, 0x3c, 0x50, 0xb0, 0x3e,
  0x92, 0xbf, 0xad, 0x3e, 0xd4, 0xbf, 0x67, 0xbd, 0x50, 0x99, 0xab, 0x3d,
  0x9f, 0xfb, 0x63, 0xbd, 0xe6, 0x76, 0x80, 0x3e, 0xe4, 0xa0, 0x6b, 0xbd,
  0xe5, 0xaf, 0x8f, 0x3e, 0x21, 0x4f, 0x95, 0xbd, 0x9d, 0xfd, 0x7b, 0x3e,
  0x1a, 0x47, 0x0f, 0xbf, 0x03, 0xdb, 0x1b, 0x3e, 0xe1, 0x22, 0x86, 0x3e,
  0x5c, 0xf1, 0x7f, 0x3d, 0x43, 0x7e, 0xca, 0xbd, 0xec, 0xe3, 0x0d, 0x3e,
  0x6f, 0x4d, 0x2e, 0x3e, 0x5b, 0x9e, 0xad, 0x3e, 0x53, 0x57, 0x04, 0xbf,
  0x4a, 0x5d, 0x97, 0xbe, 0xd1, 0xea, 0xd8, 0x3d, 0xcd, 0xa1, 0xd0, 0x3e,
  0x35, 0x67, 0x47, 0xbe, 0xb0, 0xdb, 0x01, 0xbe, 0x24, 0xec, 0x6c, 0x3e,
  0x00, 0xbb, 0x97, 0xbf, 0xa6, 0x46, 0x2c, 0xbf, 0x7f, 0x68, 0x77, 0xbd,
  0x95, 0xb3, 0x1c, 0x3e, 0x4a, 0xcc, 0x92, 0x3e, 0x23, 0xa7, 0x35, 0xbf,
  0x35, 0x44, 0xff, 0x3b, 0xed, 0xae, 0xae, 0x3e, 0xcb, 0x57, 0x88, 0xbb,
  0x9c, 0x35, 0x8f, 0x3d, 0x3b, 0x48, 0xc3, 0x3e, 0x44, 0x1d, 0x8d, 0xbd,
  0xa2, 0x15, 0xa0, 0x3e, 0xa6, 0x99, 0x03, 0xbd, 0xef, 0xcb, 0x7d, 0xbf,
  0x80, 0xbd, 0x31, 0xbe, 0x0e, 0x22, 0x1f, 0x3f, 0x88, 0x4f, 0x6a, 0xbe,
  0xe8, 0x5c, 0x72, 0x3e, 0x13, 0xbd, 0xb4, 0xbe, 0x45, 0xc5, 0xbc, 0x3e,
  0xbf, 0x83, 0xc0, 0x3e, 0xc9, 0x8c, 0x31, 0xbe, 0x61, 0x56, 0x76, 0x3e,
  0xba, 0xba, 0xbd, 0x3e, 0x47, 0x61, 0x85, 0xbe, 0xc2, 0x22, 0xb4, 0xbd,
  0xdd, 0x11, 0xde, 0xbd, 0x00, 0xf9, 0x3e, 0xbc, 0xf9, 0x82, 0xab, 0x3e,
  0x15, 0x64, 0xf3, 0xbc, 0x2e, 0x04, 0x18, 0xbe, 0x0f, 0xd7, 0x10, 0x3e,
  0x25, 0x38, 0xb6, 0xbd, 0x95, 0x17, 0x9f, 0xbc, 0x64, 0x99, 0x88, 0x3c,
  0x21, 0x0f, 0x2e, 0xbc, 0x48, 0x48, 0x2a, 0xbe, 0x73, 0x1a, 0xa6, 0x3d,
  0x0a, 0x73, 0xa4, 0xbd, 0x5b, 0xc6, 0xbb, 0xbd, 0x46, 0xfe, 0x2c, 0x3d,
  0x2a, 0xef, 0xbc, 0xbd, 0xd5, 0x51, 0xa7, 0xbd, 0x52, 0xfa, 0x73, 0xbd,
  0x83, 0x02, 0x88, 0xbd, 0x6f, 0x33, 0x97, 0xbd, 0xff, 0x45, 0x43, 0xbd,
  0x8f, 0x2b, 0x3c, 0x3d, 0xed, 0x7b, 0x12, 0xbe, 0x87, 0x22, 0xdb, 0xbd,
  0xa4, 0x0b, 0x29, 0x3b, 0x64, 0x64, 0xc9, 0x3c, 0x84, 0xf3, 0xc7, 0x3d,
  0xd7, 0x4f, 0xfe, 0xbd, 0x8f, 0x1f, 0x67, 0x3d, 0x71, 0xc7, 0xcd, 0x3d,
  0x91, 0x06, 0xc9, 0x3d, 0xf5, 0x9a, 0x28, 0xbe, 0xcd, 0x27, 0x8a, 0xbd,
  0x16, 0x99, 0x1b, 0xbe, 0x2a, 0x1a, 0xe5, 0xbd, 0x25, 0xb5, 0xae, 0x3d,
  0xbd, 0xb5, 0x1b, 0xbd, 0x61, 0xe2, 0x92, 0x3d, 0xd5, 0x31, 0xbd, 0xbd,
  0xba, 0x0f, 0xdc, 0x3c, 0x61, 0xfb, 0xda, 0xbd, 0x87, 0x80, 0x9a, 0x3d,
  0xa5, 0xc7, 0x88, 0xbd, 0x92, 0x0e, 0x76, 0xbd, 0x2d, 0xdd, 0x28, 0xbe,
  0xac, 0x00, 0x5d, 0x3c, 0xd0, 0xdf, 0x2b, 0x3e, 0xc3, 0xea, 0xa3, 0x3d,
  0x97, 0x29, 0xc1, 0xbd, 0x28, 0x43, 0x6d, 0xbb, 0xb6, 0xc9, 0x9e, 0xbc,
  0x19, 0x1a, 0x0c, 0xbe, 0x7c, 0x52, 0x01, 0x3e, 0x06, 0xc3, 0x3a, 0x3b,
  0x52, 0xfd, 0xc5, 0x3c, 0x1e, 0xc1, 0xaa, 0xbd, 0x46, 0x4d, 0xbd, 0xbd,
  0xf9, 0x76, 0x82, 0x3c, 0x48, 0x6e, 0x95, 0x3d, 0xbb, 0x68, 0x22, 0x3d,
  0xda, 0xc4, 0xc9, 0xbd, 0xed, 0x25, 0x22, 0x3e, 0x93, 0x47, 0x03, 0xbd,
  0x22, 0x8d, 0xf8, 0xbd, 0x51, 0x90, 0xc2, 0xbd, 0xac, 0x90, 0x32, 0x3e,
  0xe8, 0xd5, 0x0e, 0x37, 0x7c, 0x69, 0x0c, 0x3e, 0xfd, 0xd0, 0x55, 0xbe,
  0x4e, 0xe1, 0x7c, 0x3f, 0x5d, 0xa9, 0xac, 0x3d, 0x63, 0xda, 0x0f, 0xbe,
  0xbd, 0xe5, 0xd3, 0x3d, 0x7c, 0xb0, 0xb0, 0x3e, 0xda, 0xb4, 0x6f, 0x3e,
  0x8d, 0x8d, 0x05, 0x3f, 0x0a, 0xe9, 0xb2, 0xbe, 0x12, 0xca, 0xf7, 0xbb,
  0x56, 0xfa, 0xd7, 0x3d, 0x9b, 0x2b, 0x08, 0xbe, 0xea, 0x15, 0x0c, 0x3e,
  0xb1, 0xef, 0x68, 0x3d, 0x52, 0x7b, 0xe2, 0x3d, 0xcb, 0x47, 0xa3, 0x3d,
  0x52, 0x68, 0x63, 0x3e, 0xc8, 0xee, 0x2a, 0xbf, 0xda, 0xeb, 0xde, 0x3e,
  0xf6, 0x52, 0x55, 0xbe, 0x23, 0x40, 0x12, 0x3e, 0x84, 0x13, 0x81, 0xbc,
  0xe1, 0xa2, 0x87, 0xbe, 0xe7, 0x62, 0xbe, 0xbd, 0xea, 0xd0, 0x5d, 0x3d,
  0xaf, 0xfb, 0xbc, 0x3d, 0xd4, 0xe2, 0x24, 0x3e, 0x87, 0x7e, 0x8a, 0x3e,
  0xd8, 0x6f, 0x88, 0x3e, 0xb0, 0x9f, 0x0a, 0x3e, 0xed, 0xa9, 0x02, 0xbe,
  0xf9, 0x69, 0xcc, 0x3d, 0xf0, 0xba, 0xf3, 0xbe, 0xda, 0xe6, 0x12, 0x3e,
  0x16, 0x8d, 0xa7, 0x3e, 0xb9, 0x5c, 0x0f, 0xbe, 0x70, 0xd2, 0x81, 0x3d,
  0xb4, 0xaf, 0x19, 0x3e, 0x0b, 0x4c, 0xc5, 0x3d, 0x01, 0x32, 0x2d, 0x3f,
  0x28, 0x99, 0x80, 0xbe, 0x2e, 0x3a, 0x90, 0x3e, 0x10, 0xbe, 0xef, 0x3d,
  0x53, 0xd7, 0xcb, 0xbe, 0xd1, 0xaf, 0xd2, 0x3d, 0x8a, 0xf8, 0xf6, 0xbe,
  0xb9, 0xe7, 0x39, 0x3e, 0x11, 0xec, 0x96, 0xbe, 0xf2, 0x6b, 0xa3, 0x3e,
  0x8f, 0xdd, 0x0b, 0xbf, 0x07, 0x25, 0xc0, 0x3e, 0xea, 0x64, 0xf3, 0xbe,
  0x5b, 0x3b, 0x83, 0x3e, 0x39, 0x2d, 0xb0, 0xbd, 0xdc, 0x45, 0xc7, 0xbe,
  0xac, 0x18, 0x8b, 0xbd, 0x0d, 0xb9, 0x04, 0x3f, 0x17, 0xc9, 0x7e, 0x3e,
  0x73, 0xd2, 0xca, 0x3e, 0x4f, 0xa8, 0x72, 0x3e, 0x77, 0x0a, 0x91, 0x3e,
  0x36, 0x2f, 0xac, 0xbe, 0x5d, 0xeb, 0x1b, 0x3b, 0x6e, 0x56, 0x9f, 0x3d,
  0x13, 0x0b, 0xbf, 0xbe, 0xbe, 0x2d, 0x82, 0x3e, 0x87, 0xf2, 0x11, 0x3e,
  0x90, 0x6b, 0x21, 0x3e, 0x87, 0xf4, 0x2d, 0xbe, 0x38, 0xc8, 0x71, 0xbd,
  0x85, 0x91, 0xa4, 0x3e, 0xf1, 0x2f, 0x4e, 0x3e, 0xba, 0xab, 0x50, 0xbe,
  0x71, 0x3c, 0x1a, 0xbc, 0x0b, 0x1f, 0x2e, 0x3e, 0x88, 0xd7, 0x82, 0xbe,
  0x60, 0x25, 0x29, 0xbe, 0xb4, 0x7c, 0x0f, 0xbe, 0x11, 0xab, 0x81, 0xbd,
  0xa1, 0x32, 0xa0, 0xbe, 0xea, 0x1b, 0xb3, 0x3e, 0x0e, 0x67, 0x05, 0xbf,
  0x96, 0xcf, 0x1c, 0x3e, 0xa8, 0xe1, 0x88, 0xbe, 0xd6, 0xcc, 0xf3, 0x3d,
  0xe7, 0xc4, 0x59, 0xbd, 0xf3, 0x3f, 0x1c, 0xbe, 0xda, 0x3c, 0xad, 0x3b,
  0x49, 0x29, 0x49, 0x3e, 0x49, 0x27, 0x3e, 0xbd, 0x0a, 0x46, 0xd9, 0x3d,
  0x39, 0x4d, 0x99, 0x3e, 0x2c, 0x15, 0xe9, 0x3d, 0xee, 0x4f, 0x19, 0xbf,
  0xb1, 0x1f, 0xea, 0x3e, 0x0c, 0xcc, 0xc5, 0x3d, 0x5d, 0xc4, 0xad, 0x3e,
  0xc2, 0xcd, 0x79, 0xbf, 0x46, 0x6b, 0x9a, 0x3e, 0x1a, 0xea, 0x21, 0x3e,
  0x13, 0x51, 0xf8, 0x3d, 0x21, 0x22, 0x13, 0x3d, 0xc3, 0x7b, 0xa1, 0x3e,
  0x36, 0x85, 0xa3, 0x3e, 0x5e, 0x18, 0x80, 0x3e, 0x53, 0xa8, 0xd8, 0x3e,
  0x15, 0x52, 0x1a, 0x3e, 0xc8, 0x00, 0x15, 0x3d, 0x18, 0x83, 0x1e, 0x3e,
  0x38, 0xa7, 0x8d, 0x3e, 0xf0, 0xc1, 0xa3, 0x3b, 0x02, 0x11, 0x80, 0x3e,
  0xe9, 0xe9, 0x42, 0xbe, 0xf5, 0x85, 0x3c, 0xbd, 0xac, 0x34, 0x4d, 0xbe,
  0xb2, 0xa7, 0x8a, 0x3e, 0x6f, 0xb5, 0x28, 0x3e, 0x9b, 0xc6, 0xa7, 0x3e,
  0x92, 0xb9, 0x0c, 0xbc, 0xbc, 0x8c, 0xca, 0x3d, 0xff, 0xf3, 0xfb, 0xba,
  0xde, 0x98, 0xb7, 0x3e, 0xbd, 0xcd, 0xba, 0xbe, 0xf5, 0x25, 0x15, 0xbe,
  0xc4, 0x81, 0x4c, 0x3e, 0x9d, 0xbc, 0x8c, 0x3d, 0xd4, 0xfc, 0xae, 0xbe,
  0xa9, 0x3c, 0x37, 0x3e, 0xbd, 0x47, 0x8f, 0xbc, 0x28, 0x8c, 0x85, 0x3f,
  0x30, 0xae, 0x02, 0xbf, 0x3c, 0x07, 0x1f, 0x3d, 0x49, 0x8c, 0xeb, 0x3d,
  0xcd, 0x37, 0x5b, 0xbe, 0x9f, 0x1a, 0x5b, 0x3c, 0x96, 0x04, 0x23, 0xbe,
  0x5b, 0x08, 0xdf, 0x3d, 0x4c, 0x09, 0x1b, 0xbf, 0x4c, 0x75, 0x12, 0xbe,
  0x89, 0x56, 0x80, 0x3c, 0xdd, 0xee, 0x8c, 0xbd, 0xb2, 0xa1, 0xa7, 0xbe,
  0x92, 0x94, 0x1a, 0xbd, 0x5f, 0x5c, 0x3d, 0xbf, 0x50, 0x79, 0x02, 0x3e,
  0xd7, 0x20, 0xe3, 0x3e, 0x7f, 0xf7, 0xe0, 0x3e, 0xec, 0xc6, 0xce, 0xbe,
  0xa2, 0x8f, 0xc0, 0xbe, 0x1b, 0xc7, 0xea, 0x3c, 0x88, 0x2e, 0x86, 0x3e,
  0xf6, 0x94, 0x0a, 0x3e, 0x1b, 0x34, 0xeb, 0x3e, 0xf3, 0x09, 0x95, 0xbd,
  0x60, 0x9f, 0x6d, 0x3e, 0xa9, 0xde, 0xa5, 0x3e, 0x12, 0x7f, 0xf9, 0xbd,
  0xa6, 0x42, 0xc5, 0xbe, 0x45, 0xf2, 0xdd, 0x3e, 0x9f, 0xc0, 0xa7, 0x3e,
  0xc7, 0xdd, 0x85, 0xbe, 0x51, 0x82, 0x36, 0x3f, 0x5d, 0x12, 0x58, 0x3e,
  0x31, 0x51, 0x11, 0xbe, 0x46, 0x08, 0x37, 0x3d, 0x07, 0x6b, 0x91, 0xbd,
  0x13, 0x27, 0xdc, 0x3c, 0xc7, 0x88, 0xec, 0x3e, 0xea, 0x5c, 0x01, 0xbf,
  0xc9, 0x50, 0xb1, 0x3e, 0x21, 0x4c, 0x2f, 0x3e, 0x41, 0xeb, 0x7e, 0xbe,
  0x4a, 0x27, 0xe3, 0xbd, 0xe9, 0xca, 0x85, 0xbe, 0xb2, 0x73, 0x1d, 0x3d,
  0x5a, 0x65, 0x0d, 0xbe, 0x49, 0x52, 0x7f, 0x3e, 0x26, 0x67, 0xba, 0xbe,
  0x26, 0x49, 0x66, 0x3e, 0xd0, 0xe4, 0xc0, 0xbe, 0x2d, 0x58, 0x60, 0x3e,
  0xf5, 0xe5, 0x86, 0xbd, 0x40, 0x19, 0xa9, 0xbd, 0x1a, 0x28, 0xbe, 0xbd,
  0xca, 0xe3, 0x95, 0x3e, 0x6b, 0x0b, 0xa7, 0x3e, 0x36, 0x49, 0x71, 0x3e,
  0xb4, 0x05, 0xaf, 0x3e, 0x6d, 0xb8, 0x15, 0x3e, 0x79, 0xe6, 0x2f, 0xbf,
  0xb5, 0x07, 0x6f, 0x3e, 0x73, 0xfc, 0xfe, 0x3d, 0x22, 0xbe, 0xd0, 0xbd,
  0x24, 0xcb, 0x19, 0x3f, 0xe9, 0x34, 0x84, 0x3d, 0xfb, 0xf1, 0x03, 0xbd,
  0x08, 0xb4, 0x8a, 0xbc, 0xfb, 0x0b, 0x00, 0xbe, 0x6d, 0xb3, 0x93, 0x3e,
  0x9d, 0xc2, 0xed, 0x3e, 0x4a, 0x57, 0xf9, 0xbd, 0x5b, 0xbc, 0x53, 0x3e,
  0xee, 0xcd, 0x18, 0xbe, 0xe1, 0x35, 0x63, 0xbe, 0x65, 0x04, 0x16, 0x3e,
  0xb9, 0x46, 0x98, 0xbe, 0x28, 0x34, 0xe4, 0xbd, 0xe6, 0xf7, 0x86, 0xbd,
  0x54, 0x70, 0xaf, 0x3e, 0xa8, 0xf8, 0xda, 0xbe, 0x24, 0xf3, 0xd4, 0x3e,
  0x6e, 0xb2, 0x87, 0xbe, 0xf4, 0x4b, 0x08, 0xbd, 0x9b, 0x37, 0x4b, 0x3d,
  0x95, 0xf4, 0x09, 0xbd, 0xe2, 0x31, 0x59, 0xbd, 0x07, 0x26, 0x9b, 0x3e,
  0xa6, 0x70, 0x3d, 0x3d, 0x24, 0x0f, 0xd6, 0x3e, 0x98, 0x7f, 0xbd, 0x3e,
  0xcd, 0x34, 0x52, 0x3e, 0x4f, 0x4f, 0xbf, 0xbe, 0xff, 0xc3, 0xc0, 0x3e,
  0x3f, 0x21, 0x21, 0xbc, 0xbd, 0x7d, 0x0f, 0x3e, 0xd0, 0xd1, 0xd1, 0xbf,
  0xc8, 0x7f, 0x1c, 0xbf, 0x89, 0xa0, 0x0c, 0xbe, 0x79, 0x83, 0xf3, 0x3d,
  0x1d, 0x95, 0x98, 0x3e, 0x05, 0xea, 0x26, 0xbf, 0x4c, 0x01, 0x82, 0x3e,
  0xf8, 0x18, 0x88, 0x3e, 0xd3, 0x2f, 0x64, 0x3e, 0x74, 0x75, 0xd1, 0x3d,
  0x66, 0x90, 0xe3, 0x3e, 0x33, 0x0e, 0x6d, 0xbd, 0xef, 0x61, 0x5f, 0x3e,
  0xca, 0x3d, 0x13, 0x3e, 0x20, 0x94, 0x50, 0xbf, 0xe9, 0xa1, 0xa3, 0xbe,
  0xc6, 0xd7, 0xac, 0x3e, 0xe5, 0xb7, 0x81, 0xbe, 0x36, 0xc5, 0x9c, 0x3c,
  0xe0, 0xd9, 0xf9, 0xbc, 0xdd, 0x4f, 0x26, 0x3e, 0x22, 0x91, 0x3a, 0x3e,
  0x94, 0x8a, 0xc2, 0xbd, 0xaa, 0x73, 0x0a, 0x3f, 0x4d, 0x1c, 0xdc, 0x3e,
  0xad, 0xaa, 0xad, 0xbe, 0x97, 0x46, 0xb9, 0xbd, 0x89, 0x19, 0xd7, 0x3d,
  0x8c, 0xb1, 0xdc, 0x3d, 0x73, 0x87, 0x1d, 0x3e, 0x77, 0xab, 0x76, 0x3e,
  0x8a, 0x6d, 0x02, 0xbe, 0x8f, 0x62, 0x43, 0x3f, 0x07, 0x1f, 0x20, 0x3d,
  0x65, 0xe2, 0x20, 0xbd, 0x19, 0xbf, 0x45, 0x3c, 0x12, 0x1b, 0x8d, 0xbe,
  0x57, 0x6a, 0x33, 0x3e, 0xea, 0xad, 0x43, 0xbf, 0xc7, 0x1f, 0x84, 0xbd,
  0xcc, 0x9c, 0xa0, 0xbe, 0x60, 0x74, 0xc8, 0x3c, 0xeb, 0xaf, 0x71, 0xbe,
  0xe8, 0xed, 0x2b, 0xbe, 0xd6, 0x9e, 0xda, 0xbe, 0x2c, 0xb4, 0x22, 0x3e,
  0xad, 0xb9, 0x47, 0xbf, 0xa7, 0xbe, 0x9d, 0x3e, 0xdb, 0x27, 0x9f, 0xbe,
  0x94, 0xc0, 0xdd, 0x3e, 0x5e, 0xa1, 0x72, 0xbe, 0x22, 0x2a, 0xeb, 0x3d,
  0xf2, 0x3a, 0xde, 0xbd, 0xd6, 0x6b, 0xb6, 0x3e, 0x59, 0x19, 0xbd, 0x3d,
  0x3b, 0x20, 0x8a, 0x3e, 0x89, 0x96, 0x55, 0xbe, 0x60, 0xe5, 0xad, 0x3e,
  0x00, 0x01, 0x40, 0x3e, 0x60, 0x4a, 0x31, 0xbe, 0x90, 0x72, 0xa1, 0xbe,
  0x8c, 0x71, 0xa7, 0x3e, 0x62, 0xfc, 0xff, 0xff, 0x00, 0x00, 0x00, 0x01,
  0x8c, 0x00, 0x00, 0x00, 0x04, 0x00, 0x00, 0x00, 0x08, 0x00, 0x00, 0x00,
  0x8c, 0x00, 0x00, 0x00, 0x75, 0x00, 0x00, 0x00, 0x76, 0x6c, 0x70, 0x5f,
  0x68, 0x61, 0x63, 0x6b, 0x61, 0x74, 0x68, 0x6f, 0x6e, 0x2e, 0x62, 0x61,
  0x73, 0x65, 0x6c, 0x69, 0x6e, 0x65, 0x5f, 0x6d, 0x6f, 0x64, 0x65, 0x6c,
  0x2e, 0x42, 0x61, 0x73, 0x65, 0x6c, 0x69, 0x6e, 0x65, 0x4d, 0x4c, 0x50,
  0x2f, 0x74, 0x6f, 0x72, 0x63, 0x68, 0x2e, 0x6e, 0x6e, 0x2e, 0x6d, 0x6f,
  0x64, 0x75, 0x6c, 0x65, 0x73, 0x2e, 0x63, 0x6f, 0x6e, 0x74, 0x61, 0x69,
  0x6e, 0x65, 0x72, 0x2e, 0x53, 0x65, 0x71, 0x75, 0x65, 0x6e, 0x74, 0x69,
  0x61, 0x6c, 0x5f, 0x6e, 0x65, 0x74, 0x2f, 0x74, 0x6f, 0x72, 0x63, 0x68,
  0x2e, 0x6e, 0x6e, 0x2e, 0x6d, 0x6f, 0x64, 0x75, 0x6c, 0x65, 0x73, 0x2e,
  0x6c, 0x69, 0x6e, 0x65, 0x61, 0x72, 0x2e, 0x4c, 0x69, 0x6e, 0x65, 0x61,
  0x72, 0x5f, 0x34, 0x3b, 0x31, 0x00, 0x00, 0x00, 0x02, 0x00, 0x00, 0x00,
  0x02, 0x00, 0x00, 0x00, 0x20, 0x00, 0x00, 0x00, 0xa8, 0xfc, 0xff, 0xff,
  0x22, 0xfd, 0xff, 0xff, 0x04, 0x00, 0x00, 0x00, 0x00, 0x01, 0x00, 0x00,
  0xd9, 0x77, 0x31, 0x3e, 0xcd, 0x89, 0x9e, 0x3e, 0x28, 0xbc, 0xe1, 0x3d,
  0xcd, 0x23, 0xbc, 0x3e, 0x53, 0x74, 0xae, 0x3f, 0x1e, 0x7e, 0xbb, 0xbe,
  0x23, 0xb2, 0xf1, 0x3e, 0x5d, 0x1e, 0xd6, 0xbe, 0xbf, 0xcd, 0xde, 0x3e,
  0x36, 0xe7, 0x8c, 0xbe, 0x2a, 0x8a, 0xc5, 0xbe, 0xa5, 0x0b, 0xad, 0x3e,
  0x92, 0xef, 0x95, 0xbe, 0x7e, 0xcf, 0xd9, 0xbe, 0x5e, 0x35, 0x6a, 0xbd,
  0x2d, 0x43, 0x9a, 0x3e, 0x5d, 0xe0, 0x1a, 0x3e, 0x31, 0x0c, 0xec, 0xbd,
  0x00, 0x7b, 0x2a, 0x3f, 0x12, 0xc5, 0x44, 0xbd, 0xb3, 0xd6, 0xab, 0x3e,
  0x6e, 0x8c, 0x0a, 0x3d, 0x4b, 0xd4, 0x02, 0xbe, 0xb6, 0xdb, 0x02, 0xbf,
  0xd0, 0x9b, 0x9a, 0xbe, 0xc9, 0xbc, 0x62, 0xbe, 0xa4, 0x16, 0x89, 0xbe,
  0x42, 0xbe, 0x78, 0x3e, 0x7d, 0xc9, 0xcc, 0xbe, 0x7e, 0x9a, 0xc3, 0xbe,
  0xd0, 0x53, 0xb3, 0x3e, 0x69, 0x3b, 0x81, 0x3e, 0xc3, 0xd9, 0xc7, 0xbd,
  0x86, 0x58, 0x7c, 0x3e, 0x77, 0xd9, 0x1f, 0xbb, 0xc7, 0x56, 0x7f, 0x3e,
  0x8b, 0xab, 0x6e, 0xbd, 0xb6, 0xcb, 0xbe, 0xbe, 0x40, 0xcc, 0xa4, 0xbe,
  0x0f, 0xc2, 0xa5, 0xbe, 0x55, 0x9a, 0xeb, 0xbe, 0x10, 0x2a, 0x7f, 0xbe,
  0x2a, 0xdc, 0xc0, 0x3e, 0xe7, 0x9f, 0xb6, 0x3e, 0x63, 0x93, 0xef, 0xbd,
  0x19, 0x8d, 0x86, 0x3e, 0x7f, 0x2b, 0x55, 0xbc, 0x89, 0x8d, 0xa5, 0xbf,
  0x25, 0x50, 0x67, 0x3d, 0xe6, 0x82, 0xcb, 0xbe, 0x54, 0xfa, 0xe0, 0x3d,
  0x99, 0x7a, 0xba, 0xbe, 0x7d, 0x40, 0xb9, 0xbe, 0xd0, 0xf2, 0x85, 0xbd,
  0xcb, 0x71, 0x1a, 0x3e, 0x65, 0x2e, 0xd9, 0x3e, 0xe7, 0x0b, 0xcd, 0x3e,
  0xf0, 0xc6, 0xe5, 0x3e, 0xdb, 0x82, 0xea, 0xbe, 0x91, 0x18, 0x9e, 0x3e,
  0x59, 0x59, 0xd0, 0x3e, 0x96, 0x6e, 0xcd, 0x3e, 0x74, 0xea, 0xec, 0xbe,
  0xc8, 0x3d, 0xb6, 0x3e, 0x12, 0xfe, 0xff, 0xff, 0x00, 0x00, 0x00, 0x01,
  0x8c, 0x00, 0x00, 0x00, 0x03, 0x00, 0x00, 0x00, 0x08, 0x00, 0x00, 0x00,
  0x88, 0x00, 0x00, 0x00, 0x74, 0x00, 0x00, 0x00, 0x76, 0x6c, 0x70, 0x5f,
  0x68, 0x61, 0x63, 0x6b, 0x61, 0x74, 0x68, 0x6f, 0x6e, 0x2e, 0x62, 0x61,
  0x73, 0x65, 0x6c, 0x69, 0x6e, 0x65, 0x5f, 0x6d, 0x6f, 0x64, 0x65, 0x6c,
  0x2e, 0x42, 0x61, 0x73, 0x65, 0x6c, 0x69, 0x6e, 0x65, 0x4d, 0x4c, 0x50,
  0x2f, 0x74, 0x6f, 0x72, 0x63, 0x68, 0x2e, 0x6e, 0x6e, 0x2e, 0x6d, 0x6f,
  0x64, 0x75, 0x6c, 0x65, 0x73, 0x2e, 0x63, 0x6f, 0x6e, 0x74, 0x61, 0x69,
  0x6e, 0x65, 0x72, 0x2e, 0x53, 0x65, 0x71, 0x75, 0x65, 0x6e, 0x74, 0x69,
  0x61, 0x6c, 0x5f, 0x6e, 0x65, 0x74, 0x2f, 0x74, 0x6f, 0x72, 0x63, 0x68,
  0x2e, 0x6e, 0x6e, 0x2e, 0x6d, 0x6f, 0x64, 0x75, 0x6c, 0x65, 0x73, 0x2e,
  0x6c, 0x69, 0x6e, 0x65, 0x61, 0x72, 0x2e, 0x4c, 0x69, 0x6e, 0x65, 0x61,
  0x72, 0x5f, 0x32, 0x3b, 0x00, 0x00, 0x00, 0x00, 0x01, 0x00, 0x00, 0x00,
  0x20, 0x00, 0x00, 0x00, 0x54, 0xfe, 0xff, 0xff, 0xce, 0xfe, 0xff, 0xff,
  0x04, 0x00, 0x00, 0x00, 0x80, 0x00, 0x00, 0x00, 0x4d, 0xc7, 0x66, 0x3c,
  0xae, 0xc3, 0xfe, 0x3d, 0x0d, 0xf4, 0xdd, 0xbd, 0xa9, 0x53, 0x80, 0x3e,
  0x1b, 0x9c, 0xca, 0xbe, 0xa4, 0x46, 0x13, 0xbb, 0x6e, 0xf6, 0x33, 0x3e,
  0xb1, 0x37, 0x31, 0x3d, 0x65, 0xd2, 0x68, 0x3e, 0x85, 0xac, 0x34, 0x3e,
  0xb5, 0x3b, 0x85, 0x3e, 0x51, 0xf5, 0x3d, 0x3e, 0x18, 0x08, 0xc0, 0xbc,
  0x46, 0x07, 0x63, 0x3e, 0xb5, 0x1b, 0x82, 0x3c, 0x5e, 0x5c, 0x2a, 0xbe,
  0x5b, 0x84, 0xfa, 0xbd, 0x23, 0x11, 0x1e, 0x3d, 0xa1, 0xa6, 0x47, 0x3d,
  0x0b, 0xc8, 0x38, 0x3e, 0x29, 0x67, 0x8d, 0x3e, 0x4e, 0xca, 0x1e, 0xbe,
  0xd9, 0xb7, 0x03, 0xbe, 0x01, 0x5b, 0x15, 0x3d, 0x5c, 0x2c, 0xa0, 0x3e,
  0xd9, 0xd8, 0x83, 0x3e, 0xe9, 0xcb, 0x18, 0x3d, 0xef, 0x48, 0xc1, 0x3e,
  0xfa, 0x8a, 0xd5, 0x3d, 0x0d, 0x37, 0x13, 0xbc, 0x3c, 0x06, 0x6f, 0x3e,
  0xdb, 0xde, 0x83, 0x3e, 0x3e, 0xff, 0xff, 0xff, 0x00, 0x00, 0x00, 0x01,
  0x8c, 0x00, 0x00, 0x00, 0x02, 0x00, 0x00, 0x00, 0x08, 0x00, 0x00, 0x00,
  0x8c, 0x00, 0x00, 0x00, 0x74, 0x00, 0x00, 0x00, 0x76, 0x6c, 0x70, 0x5f,
  0x68, 0x61, 0x63, 0x6b, 0x61, 0x74, 0x68, 0x6f, 0x6e, 0x2e, 0x62, 0x61,
  0x73, 0x65, 0x6c, 0x69, 0x6e, 0x65, 0x5f, 0x6d, 0x6f, 0x64, 0x65, 0x6c,
  0x2e, 0x42, 0x61, 0x73, 0x65, 0x6c, 0x69, 0x6e, 0x65, 0x4d, 0x4c, 0x50,
  0x2f, 0x74, 0x6f, 0x72, 0x63, 0x68, 0x2e, 0x6e, 0x6e, 0x2e, 0x6d, 0x6f,
  0x64, 0x75, 0x6c, 0x65, 0x73, 0x2e, 0x63, 0x6f, 0x6e, 0x74, 0x61, 0x69,
  0x6e, 0x65, 0x72, 0x2e, 0x53, 0x65, 0x71, 0x75, 0x65, 0x6e, 0x74, 0x69,
  0x61, 0x6c, 0x5f, 0x6e, 0x65, 0x74, 0x2f, 0x74, 0x6f, 0x72, 0x63, 0x68,
  0x2e, 0x6e, 0x6e, 0x2e, 0x6d, 0x6f, 0x64, 0x75, 0x6c, 0x65, 0x73, 0x2e,
  0x6c, 0x69, 0x6e, 0x65, 0x61, 0x72, 0x2e, 0x4c, 0x69, 0x6e, 0x65, 0x61,
  0x72, 0x5f, 0x34, 0x3b, 0x00, 0x00, 0x00, 0x00, 0x01, 0x00, 0x00, 0x00,
  0x02, 0x00, 0x00, 0x00, 0x04, 0x00, 0x06, 0x00, 0x04, 0x00, 0x00, 0x00,
  0x00, 0x00, 0x06, 0x00, 0x08, 0x00, 0x04, 0x00, 0x06, 0x00, 0x00, 0x00,
  0x04, 0x00, 0x00, 0x00, 0x08, 0x00, 0x00, 0x00, 0xa3, 0x04, 0xec, 0x3c,
  0xe2, 0x78, 0x40, 0x3c, 0x00, 0x00, 0x16, 0x00, 0x18, 0x00, 0x08, 0x00,
  0x00, 0x00, 0x0c, 0x00, 0x10, 0x00, 0x14, 0x00, 0x00, 0x00, 0x00, 0x00,
  0x00, 0x00, 0x07, 0x00, 0x16, 0x00, 0x00, 0x00, 0x00, 0x00, 0x00, 0x01,
  0x2c, 0x00, 0x00, 0x00, 0x01, 0x00, 0x00, 0x00, 0x08, 0x00, 0x00, 0x00,
  0x2c, 0x00, 0x00, 0x00, 0x16, 0x00, 0x00, 0x00, 0x73, 0x65, 0x72, 0x76,
  0x69, 0x6e, 0x67, 0x5f, 0x64, 0x65, 0x66, 0x61, 0x75, 0x6c, 0x74, 0x5f,
  0x61, 0x72, 0x67, 0x73, 0x5f, 0x30, 0x00, 0x00, 0x02, 0x00, 0x00, 0x00,
  0x01, 0x00, 0x00, 0x00, 0x09, 0x00, 0x00, 0x00, 0xfc, 0xff, 0xff, 0xff,
  0x04, 0x00, 0x04, 0x00, 0x04, 0x00, 0x00, 0x00,
};
const unsigned int g_vlp_model_data_len = 8708u;
