#include "model_data.h"

alignas(16) const unsigned char g_vlp_model_data[] = {
  0x1c, 0x00, 0x00, 0x00, 0x54, 0x46, 0x4c, 0x33, 0x14, 0x00, 0x20, 0x00,
  0x04, 0x00, 0x08, 0x00, 0x0c, 0x00, 0x10, 0x00, 0x14, 0x00, 0x00, 0x00,
  0x18, 0x00, 0x1c, 0x00, 0x14, 0x00, 0x00, 0x00, 0x03, 0x00, 0x00, 0x00,
  0x74, 0x00, 0x00, 0x00, 0x68, 0x00, 0x00, 0x00, 0x88, 0x01, 0x00, 0x00,
  0x0c, 0x00, 0x00, 0x00, 0xf4, 0x00, 0x00, 0x00, 0x70, 0x00, 0x00, 0x00,
  0x14, 0x00, 0x00, 0x00, 0xf8, 0x13, 0x00, 0x00, 0xf4, 0x13, 0x00, 0x00,
  0x7c, 0x13, 0x00, 0x00, 0x98, 0x12, 0x00, 0x00, 0xc0, 0x11, 0x00, 0x00,
  0xc0, 0x10, 0x00, 0x00, 0x7c, 0x0e, 0x00, 0x00, 0x38, 0x0c, 0x00, 0x00,
  0x1c, 0x0a, 0x00, 0x00, 0x40, 0x09, 0x00, 0x00, 0xd0, 0x13, 0x00, 0x00,
  0xcc, 0x13, 0x00, 0x00, 0xc8, 0x13, 0x00, 0x00, 0xc4, 0x13, 0x00, 0x00,
  0xc0, 0x13, 0x00, 0x00, 0xbc, 0x13, 0x00, 0x00, 0xb8, 0x13, 0x00, 0x00,
  0xb4, 0x13, 0x00, 0x00, 0x10, 0x01, 0x00, 0x00, 0xd0, 0x00, 0x00, 0x00,
  0x01, 0x00, 0x00, 0x00, 0x44, 0x01, 0x00, 0x00, 0x03, 0x00, 0x00, 0x00,
  0xb4, 0x07, 0x00, 0x00, 0xa0, 0x06, 0x00, 0x00, 0xf4, 0x01, 0x00, 0x00,
  0x01, 0x00, 0x00, 0x00, 0x10, 0x00, 0x00, 0x00, 0x00, 0x00, 0x0a, 0x00,
  0x10, 0x00, 0x0c, 0x00, 0x08, 0x00, 0x04, 0x00, 0x0a, 0x00, 0x00, 0x00,
  0x0c, 0x00, 0x00, 0x00, 0x1c, 0x00, 0x00, 0x00, 0x20, 0x00, 0x00, 0x00,
  0x0f, 0x00, 0x00, 0x00, 0x73, 0x65, 0x72, 0x76, 0x69, 0x6e, 0x67, 0x5f,
  0x64, 0x65, 0x66, 0x61, 0x75, 0x6c, 0x74, 0x00, 0x01, 0x00, 0x00, 0x00,
  0x14, 0x00, 0x00, 0x00, 0x01, 0x00, 0x00, 0x00, 0x28, 0x00, 0x00, 0x00,
  0x08, 0x00, 0x0c, 0x00, 0x08, 0x00, 0x04, 0x00, 0x08, 0x00, 0x00, 0x00,
  0x10, 0x00, 0x00, 0x00, 0x04, 0x00, 0x00, 0x00, 0x08, 0x00, 0x00, 0x00,
  0x6f, 0x75, 0x74, 0x70, 0x75, 0x74, 0x5f, 0x30, 0x00, 0x00, 0x00, 0x00,
  0x56, 0xed, 0xff, 0xff, 0x04, 0x00, 0x00, 0x00, 0x06, 0x00, 0x00, 0x00,
  0x61, 0x72, 0x67, 0x73, 0x5f, 0x30, 0x00, 0x00, 0x02, 0x00, 0x00, 0x00,
  0x48, 0x00, 0x00, 0x00, 0x04, 0x00, 0x00, 0x00, 0xc8, 0xff, 0xff, 0xff,
  0x08, 0x00, 0x00, 0x00, 0x13, 0x00, 0x00, 0x00, 0x17, 0x00, 0x00, 0x00,
  0x6b, 0x65, 0x65, 0x70, 0x5f, 0x73, 0x74, 0x61, 0x62, 0x6c, 0x65, 0x68,
  0x6c, 0x6f, 0x5f, 0x63, 0x6f, 0x6e, 0x73, 0x74, 0x61, 0x6e, 0x74, 0x00,
  0x9e, 0xed, 0xff, 0xff, 0x04, 0x00, 0x00, 0x00, 0x04, 0x00, 0x00, 0x00,
  0x74, 0x72, 0x75, 0x65, 0x08, 0x00, 0x0c, 0x00, 0x04, 0x00, 0x08, 0x00,
  0x08, 0x00, 0x00, 0x00, 0x08, 0x00, 0x00, 0x00, 0x12, 0x00, 0x00, 0x00,
  0x13, 0x00, 0x00, 0x00, 0x6d, 0x69, 0x6e, 0x5f, 0x72, 0x75, 0x6e, 0x74,
  0x69, 0x6d, 0x65, 0x5f, 0x76, 0x65, 0x72, 0x73, 0x69, 0x6f, 0x6e, 0x00,
  0xda, 0xed, 0xff, 0xff, 0x04, 0x00, 0x00, 0x00, 0x10, 0x00, 0x00, 0x00,
  0x32, 0x2e, 0x30, 0x2e, 0x30, 0x00, 0x00, 0x00, 0x00, 0x00, 0x00, 0x00,
  0x00, 0x00, 0x00, 0x00, 0x0f, 0x00, 0x00, 0x00, 0x4d, 0x4c, 0x49, 0x52,
  0x20, 0x43, 0x6f, 0x6e, 0x76, 0x65, 0x72, 0x74, 0x65, 0x64, 0x2e, 0x00,
  0x00, 0x00, 0x0e, 0x00, 0x18, 0x00, 0x04, 0x00, 0x08, 0x00, 0x0c, 0x00,
  0x10, 0x00, 0x14, 0x00, 0x0e, 0x00, 0x00, 0x00, 0x54, 0x00, 0x00, 0x00,
  0x48, 0x00, 0x00, 0x00, 0x3c, 0x00, 0x00, 0x00, 0x14, 0x00, 0x00, 0x00,
  0x04, 0x00, 0x00, 0x00, 0x04, 0x00, 0x00, 0x00, 0x6d, 0x61, 0x69, 0x6e,
  0x00, 0x00, 0x00, 0x00, 0x08, 0x00, 0x00, 0x00, 0x04, 0x06, 0x00, 0x00,
  0x1c, 0x05, 0x00, 0x00, 0x34, 0x04, 0x00, 0x00, 0x5c, 0x03, 0x00, 0x00,
  0x80, 0x02, 0x00, 0x00, 0xb8, 0x01, 0x00, 0x00, 0xdc, 0x00, 0x00, 0x00,
  0x5c, 0x00, 0x00, 0x00, 0x01, 0x00, 0x00, 0x00, 0x10, 0x00, 0x00, 0x00,
  0x01, 0x00, 0x00, 0x00, 0x00, 0x00, 0x00, 0x00, 0x11, 0x00, 0x00, 0x00,
  0xbc, 0x11, 0x00, 0x00, 0xe0, 0x10, 0x00, 0x00, 0x08, 0x10, 0x00, 0x00,
  0x30, 0x0f, 0x00, 0x00, 0x2c, 0x0e, 0x00, 0x00, 0xe8, 0x0b, 0x00, 0x00,
  0xa4, 0x09, 0x00, 0x00, 0x88, 0x07, 0x00, 0x00, 0xb0, 0x06, 0x00, 0x00,
  0x08, 0x06, 0x00, 0x00, 0xf4, 0x04, 0x00, 0x00, 0x10, 0x04, 0x00, 0x00,
  0x24, 0x03, 0x00, 0x00, 0x5c, 0x02, 0x00, 0x00, 0x80, 0x01, 0x00, 0x00,
  0xb8, 0x00, 0x00, 0x00, 0x34, 0x00, 0x00, 0x00, 0x62, 0xfb, 0xff, 0xff,
  0x02, 0x00, 0x00, 0x00, 0x10, 0x00, 0x00, 0x00, 0x04, 0x00, 0x00, 0x00,
  0x01, 0x00, 0x00, 0x00, 0x10, 0x00, 0x00, 0x00, 0x01, 0x00, 0x00, 0x00,
  0x0f, 0x00, 0x00, 0x00, 0x54, 0xfa, 0xff, 0xff, 0x0e, 0x00, 0x00, 0x00,
  0x00, 0x00, 0x00, 0x0e, 0x01, 0x00, 0x00, 0x00, 0xce, 0xee, 0xff, 0xff,
  0x00, 0x00, 0x00, 0x01, 0x34, 0x00, 0x00, 0x00, 0x11, 0x00, 0x00, 0x00,
  0x08, 0x00, 0x00, 0x00, 0x34, 0x00, 0x00, 0x00, 0x1f, 0x00, 0x00, 0x00,
  0x73, 0x65, 0x72, 0x76, 0x69, 0x6e, 0x67, 0x5f, 0x64, 0x65, 0x66, 0x61,
  0x75, 0x6c, 0x74, 0x5f, 0x6f, 0x75, 0x74, 0x70, 0x75, 0x74, 0x5f, 0x30,
  0x5f, 0x6f, 0x75, 0x74, 0x70, 0x75, 0x74, 0x00, 0x02, 0x00, 0x00, 0x00,
  0x01, 0x00, 0x00, 0x00, 0x02, 0x00, 0x00, 0x00, 0xbc, 0xee, 0xff, 0xff,
  0xc6, 0xfc, 0xff, 0xff, 0x00, 0x00, 0x00, 0x08, 0x1c, 0x00, 0x00, 0x00,
  0x10, 0x00, 0x00, 0x00, 0x04, 0x00, 0x00, 0x00, 0xee, 0xfa, 0xff, 0xff,
  0x00, 0x00, 0x00, 0x01, 0x01, 0x00, 0x00, 0x00, 0x0f, 0x00, 0x00, 0x00,
  0x03, 0x00, 0x00, 0x00, 0x0e, 0x00, 0x00, 0x00, 0x04, 0x00, 0x00, 0x00,
  0x01, 0x00, 0x00, 0x00, 0x4e, 0xef, 0xff, 0xff, 0x00, 0x00, 0x00, 0x01,
  0x8c, 0x00, 0x00, 0x00, 0x10, 0x00, 0x00, 0x00, 0x08, 0x00, 0x00, 0x00,
  0x8c, 0x00, 0x00, 0x00, 0x75, 0x00, 0x00, 0x00, 0x76, 0x6c, 0x70, 0x5f,
  0x68, 0x61, 0x63, 0x6b, 0x61, 0x74, 0x68, 0x6f, 0x6e, 0x2e, 0x69, 0x6d,
  0x70, 0x72, 0x6f, 0x76, 0x65, 0x64, 0x5f, 0x6d, 0x6f, 0x64, 0x65, 0x6c,
  0x2e, 0x49, 0x6d, 0x70, 0x72, 0x6f, 0x76, 0x65, 0x64, 0x4d, 0x4c, 0x50,
  0x2f, 0x74, 0x6f, 0x72, 0x63, 0x68, 0x2e, 0x6e, 0x6e, 0x2e, 0x6d, 0x6f,
  0x64, 0x75, 0x6c, 0x65, 0x73, 0x2e, 0x63, 0x6f, 0x6e, 0x74, 0x61, 0x69,
  0x6e, 0x65, 0x72, 0x2e, 0x53, 0x65, 0x71, 0x75, 0x65, 0x6e, 0x74, 0x69,
  0x61, 0x6c, 0x5f, 0x6e, 0x65, 0x74, 0x2f, 0x74, 0x6f, 0x72, 0x63, 0x68,
  0x2e, 0x6e, 0x6e, 0x2e, 0x6d, 0x6f, 0x64, 0x75, 0x6c, 0x65, 0x73, 0x2e,
  0x6c, 0x69, 0x6e, 0x65, 0x61, 0x72, 0x2e, 0x4c, 0x69, 0x6e, 0x65, 0x61,
  0x72, 0x5f, 0x36, 0x3b, 0x32, 0x00, 0x00, 0x00, 0x02, 0x00, 0x00, 0x00,
  0x01, 0x00, 0x00, 0x00, 0x02, 0x00, 0x00, 0x00, 0x94, 0xef, 0xff, 0xff,
  0xb6, 0xfc, 0xff, 0xff, 0x01, 0x00, 0x00, 0x00, 0x10, 0x00, 0x00, 0x00,
  0x04, 0x00, 0x00, 0x00, 0x01, 0x00, 0x00, 0x00, 0x0e, 0x00, 0x00, 0x00,
  0x01, 0x00, 0x00, 0x00, 0x0d, 0x00, 0x00, 0x00, 0x12, 0xf0, 0xff, 0xff,
  0x00, 0x00, 0x00, 0x01, 0x8c, 0x00, 0x00, 0x00, 0x0f, 0x00, 0x00, 0x00,
  0x08, 0x00, 0x00, 0x00, 0x8c, 0x00, 0x00, 0x00, 0x76, 0x00, 0x00, 0x00,
  0x76, 0x6c, 0x70, 0x5f, 0x68, 0x61, 0x63, 0x6b, 0x61, 0x74, 0x68, 0x6f,
  0x6e, 0x2e, 0x69, 0x6d, 0x70, 0x72, 0x6f, 0x76, 0x65, 0x64, 0x5f, 0x6d,
  0x6f, 0x64, 0x65, 0x6c, 0x2e, 0x49, 0x6d, 0x70, 0x72, 0x6f, 0x76, 0x65,
  0x64, 0x4d, 0x4c, 0x50, 0x2f, 0x74, 0x6f, 0x72, 0x63, 0x68, 0x2e, 0x6e,
  0x6e, 0x2e, 0x6d, 0x6f, 0x64, 0x75, 0x6c, 0x65, 0x73, 0x2e, 0x63, 0x6f,
  0x6e, 0x74, 0x61, 0x69, 0x6e, 0x65, 0x72, 0x2e, 0x53, 0x65, 0x71, 0x75,
  0x65, 0x6e, 0x74, 0x69, 0x61, 0x6c, 0x5f, 0x6e, 0x65, 0x74, 0x2f, 0x74,
  0x6f, 0x72, 0x63, 0x68, 0x2e, 0x6e, 0x6e, 0x2e, 0x6d, 0x6f, 0x64, 0x75,
  0x6c, 0x65, 0x73, 0x2e, 0x61, 0x63, 0x74, 0x69, 0x76, 0x61, 0x74, 0x69,
  0x6f, 0x6e, 0x2e, 0x54, 0x61, 0x6e, 0x68, 0x5f, 0x35, 0x3b, 0x00, 0x00,
  0x02, 0x00, 0x00, 0x00, 0x01, 0x00, 0x00, 0x00, 0x0a, 0x00, 0x00, 0x00,
  0x58, 0xf0, 0xff, 0xff, 0x62, 0xfe, 0xff, 0xff, 0x00, 0x00, 0x00, 0x08,
  0x1c, 0x00, 0x00, 0x00, 0x10, 0x00, 0x00, 0x00, 0x04, 0x00, 0x00, 0x00,
  0x8a, 0xfc, 0xff, 0xff, 0x00, 0x00, 0x00, 0x01, 0x01, 0x00, 0x00, 0x00,
  0x0d, 0x00, 0x00, 0x00, 0x03, 0x00, 0x00, 0x00, 0x0c, 0x00, 0x00, 0x00,
  0x05, 0x00, 0x00, 0x00, 0x02, 0x00, 0x00, 0x00, 0xea, 0xf0, 0xff, 0xff,
  0x00, 0x00, 0x00, 0x01, 0x8c, 0x00, 0x00, 0x00, 0x0e, 0x00, 0x00, 0x00,
  0x08, 0x00, 0x00, 0x00, 0x8c, 0x00, 0x00, 0x00, 0x75, 0x00, 0x00, 0x00,
  0x76, 0x6c, 0x70, 0x5f, 0x68, 0x61, 0x63, 0x6b, 0x61, 0x74, 0x68, 0x6f,
  0x6e, 0x2e, 0x69, 0x6d, 0x70, 0x72, 0x6f, 0x76, 0x65, 0x64, 0x5f, 0x6d,
  0x6f, 0x64, 0x65, 0x6c, 0x2e, 0x49, 0x6d, 0x70, 0x72, 0x6f, 0x76, 0x65,
  0x64, 0x4d, 0x4c, 0x50, 0x2f, 0x74, 0x6f, 0x72, 0x63, 0x68, 0x2e, 0x6e,
  0x6e, 0x2e, 0x6d, 0x6f, 0x64, 0x75, 0x6c, 0x65, 0x73, 0x2e, 0x63, 0x6f,
  0x6e, 0x74, 0x61, 0x69, 0x6e, 0x65, 0x72, 0x2e, 0x53, 0x65, 0x71, 0x75,
  0x65, 0x6e, 0x74, 0x69, 0x61, 0x6c, 0x5f, 0x6e, 0x65, 0x74, 0x2f, 0x74,
  0x6f, 0x72, 0x63, 0x68, 0x2e, 0x6e, 0x6e, 0x2e, 0x6d, 0x6f, 0x64, 0x75,
  0x6c, 0x65, 0x73, 0x2e, 0x6c, 0x69, 0x6e, 0x65, 0x61, 0x72, 0x2e, 0x4c,
  0x69, 0x6e, 0x65, 0x61, 0x72, 0x5f, 0x34, 0x3b, 0x32, 0x00, 0x00, 0x00,
  0x02, 0x00, 0x00, 0x00, 0x01, 0x00, 0x00, 0x00, 0x0a, 0x00, 0x00, 0x00,
  0x30, 0xf1, 0xff, 0xff, 0x52, 0xfe, 0xff, 0xff, 0x01, 0x00, 0x00, 0x00,
  0x10, 0x00, 0x00, 0x00, 0x04, 0x00, 0x00, 0x00, 0x01, 0x00, 0x00, 0x00,
  0x0c, 0x00, 0x00, 0x00, 0x01, 0x00, 0x00, 0x00, 0x0b, 0x00, 0x00, 0x00,
  0xae, 0xf1, 0xff, 0xff, 0x00, 0x00, 0x00, 0x01, 0x8c, 0x00, 0x00, 0x00,
  0x0d, 0x00, 0x00, 0x00, 0x08, 0x00, 0x00, 0x00, 0x8c, 0x00, 0x00, 0x00,
  0x76, 0x00, 0x00, 0x00, 0x76, 0x6c, 0x70, 0x5f, 0x68, 0x61, 0x63, 0x6b,
  0x61, 0x74, 0x68, 0x6f, 0x6e, 0x2e, 0x69, 0x6d, 0x70, 0x72, 0x6f, 0x76,
  0x65, 0x64, 0x5f, 0x6d, 0x6f, 0x64, 0x65, 0x6c, 0x2e, 0x49, 0x6d, 0x70,
  0x72, 0x6f, 0x76, 0x65, 0x64, 0x4d, 0x4c, 0x50, 0x2f, 0x74, 0x6f, 0x72,
  0x63, 0x68, 0x2e, 0x6e, 0x6e, 0x2e, 0x6d, 0x6f, 0x64, 0x75, 0x6c, 0x65,
  0x73, 0x2e, 0x63, 0x6f, 0x6e, 0x74, 0x61, 0x69, 0x6e, 0x65, 0x72, 0x2e,
  0x53, 0x65, 0x71, 0x75, 0x65, 0x6e, 0x74, 0x69, 0x61, 0x6c, 0x5f, 0x6e,
  0x65, 0x74, 0x2f, 0x74, 0x6f, 0x72, 0x63, 0x68, 0x2e, 0x6e, 0x6e, 0x2e,
  0x6d, 0x6f, 0x64, 0x75, 0x6c, 0x65, 0x73, 0x2e, 0x61, 0x63, 0x74, 0x69,
  0x76, 0x61, 0x74, 0x69, 0x6f, 0x6e, 0x2e, 0x54, 0x61, 0x6e, 0x68, 0x5f,
  0x33, 0x3b, 0x00, 0x00, 0x02, 0x00, 0x00, 0x00, 0x01, 0x00, 0x00, 0x00,
  0x0a, 0x00, 0x00, 0x00, 0x74, 0xf2, 0xff, 0xff, 0x00, 0x00, 0x0e, 0x00,
  0x14, 0x00, 0x00, 0x00, 0x08, 0x00, 0x0c, 0x00, 0x07, 0x00, 0x10, 0x00,
  0x0e, 0x00, 0x00, 0x00, 0x00, 0x00, 0x00, 0x08, 0x1c, 0x00, 0x00, 0x00,
  0x10, 0x00, 0x00, 0x00, 0x04, 0x00, 0x00, 0x00, 0x36, 0xfe, 0xff, 0xff,
  0x00, 0x00, 0x00, 0x01, 0x01, 0x00, 0x00, 0x00, 0x0b, 0x00, 0x00, 0x00,
  0x03, 0x00, 0x00, 0x00, 0x0a, 0x00, 0x00, 0x00, 0x06, 0x00, 0x00, 0x00,
  0x03, 0x00, 0x00, 0x00, 0x96, 0xf2, 0xff, 0xff, 0x00, 0x00, 0x00, 0x01,
  0x8c, 0x00, 0x00, 0x00, 0x0c, 0x00, 0x00, 0x00, 0x08, 0x00, 0x00, 0x00,
  0x8c, 0x00, 0x00, 0x00, 0x75, 0x00, 0x00, 0x00, 0x76, 0x6c, 0x70, 0x5f,
  0x68, 0x61, 0x63, 0x6b, 0x61, 0x74, 0x68, 0x6f, 0x6e, 0x2e, 0x69, 0x6d,
  0x70, 0x72, 0x6f, 0x76, 0x65, 0x64, 0x5f, 0x6d, 0x6f, 0x64, 0x65, 0x6c,
  0x2e, 0x49, 0x6d, 0x70, 0x72, 0x6f, 0x76, 0x65, 0x64, 0x4d, 0x4c, 0x50,
  0x2f, 0x74, 0x6f, 0x72, 0x63, 0x68, 0x2e, 0x6e, 0x6e, 0x2e, 0x6d, 0x6f,
  0x64, 0x75, 0x6c, 0x65, 0x73, 0x2e, 0x63, 0x6f, 0x6e, 0x74, 0x61, 0x69,
  0x6e, 0x65, 0x72, 0x2e, 0x53, 0x65, 0x71, 0x75, 0x65, 0x6e, 0x74, 0x69,
  0x61, 0x6c, 0x5f, 0x6e, 0x65, 0x74, 0x2f, 0x74, 0x6f, 0x72, 0x63, 0x68,
  0x2e, 0x6e, 0x6e, 0x2e, 0x6d, 0x6f, 0x64, 0x75, 0x6c, 0x65, 0x73, 0x2e,
  0x6c, 0x69, 0x6e, 0x65, 0x61, 0x72, 0x2e, 0x4c, 0x69, 0x6e, 0x65, 0x61,
  0x72, 0x5f, 0x32, 0x3b, 0x32, 0x00, 0x00, 0x00, 0x02, 0x00, 0x00, 0x00,
  0x01, 0x00, 0x00, 0x00, 0x0a, 0x00, 0x00, 0x00, 0x5c, 0xf3, 0xff, 0xff,
  0x00, 0x00, 0x0a, 0x00, 0x10, 0x00, 0x04, 0x00, 0x08, 0x00, 0x0c, 0x00,
  0x0a, 0x00, 0x00, 0x00, 0x01, 0x00, 0x00, 0x00, 0x10, 0x00, 0x00, 0x00,
  0x04, 0x00, 0x00, 0x00, 0x01, 0x00, 0x00, 0x00, 0x0a, 0x00, 0x00, 0x00,
  0x01, 0x00, 0x00, 0x00, 0x09, 0x00, 0x00, 0x00, 0xfc, 0xfe, 0xff, 0xff,
  0x1c, 0x00, 0x00, 0x00, 0x00, 0x00, 0x00, 0x1c, 0x01, 0x00, 0x00, 0x00,
  0x76, 0xf3, 0xff, 0xff, 0x00, 0x00, 0x00, 0x01, 0x8c, 0x00, 0x00, 0x00,
  0x0b, 0x00, 0x00, 0x00, 0x08, 0x00, 0x00, 0x00, 0x8c, 0x00, 0x00, 0x00,
  0x76, 0x00, 0x00, 0x00, 0x76, 0x6c, 0x70, 0x5f, 0x68, 0x61, 0x63, 0x6b,
  0x61, 0x74, 0x68, 0x6f, 0x6e, 0x2e, 0x69, 0x6d, 0x70, 0x72, 0x6f, 0x76,
  0x65, 0x64, 0x5f, 0x6d, 0x6f, 0x64, 0x65, 0x6c, 0x2e, 0x49, 0x6d, 0x70,
  0x72, 0x6f, 0x76, 0x65, 0x64, 0x4d, 0x4c, 0x50, 0x2f, 0x74, 0x6f, 0x72,
  0x63, 0x68, 0x2e, 0x6e, 0x6e, 0x2e, 0x6d, 0x6f, 0x64, 0x75, 0x6c, 0x65,
  0x73, 0x2e, 0x63, 0x6f, 0x6e, 0x74, 0x61, 0x69, 0x6e, 0x65, 0x72, 0x2e,
  0x53, 0x65, 0x71, 0x75, 0x65, 0x6e, 0x74, 0x69, 0x61, 0x6c, 0x5f, 0x6e,
  0x65, 0x74, 0x2f, 0x74, 0x6f, 0x72, 0x63, 0x68, 0x2e, 0x6e, 0x6e, 0x2e,
  0x6d, 0x6f, 0x64, 0x75, 0x6c, 0x65, 0x73, 0x2e, 0x61, 0x63, 0x74, 0x69,
  0x76, 0x61, 0x74, 0x69, 0x6f, 0x6e, 0x2e, 0x54, 0x61, 0x6e, 0x68, 0x5f,
  0x31, 0x3b, 0x00, 0x00, 0x02, 0x00, 0x00, 0x00, 0x01, 0x00, 0x00, 0x00,
  0x0a, 0x00, 0x00, 0x00, 0x3c, 0xf4, 0xff, 0xff, 0x00, 0x00, 0x0e, 0x00,
  0x16, 0x00, 0x00, 0x00, 0x08, 0x00, 0x0c, 0x00, 0x07, 0x00, 0x10, 0x00,
  0x0e, 0x00, 0x00, 0x00, 0x00, 0x00, 0x00, 0x08, 0x28, 0x00, 0x00, 0x00,
  0x1c, 0x00, 0x00, 0x00, 0x10, 0x00, 0x00, 0x00, 0x00, 0x00, 0x0a, 0x00,
  0x08, 0x00, 0x00, 0x00, 0x00, 0x00, 0x07, 0x00, 0x0a, 0x00, 0x00, 0x00,
  0x00, 0x00, 0x00, 0x01, 0x01, 0x00, 0x00, 0x00, 0x09, 0x00, 0x00, 0x00,
  0x03, 0x00, 0x00, 0x00, 0x00, 0x00, 0x00, 0x00, 0x07, 0x00, 0x00, 0x00,
  0x08, 0x00, 0x00, 0x00, 0x0c, 0x00, 0x10, 0x00, 0x0b, 0x00, 0x00, 0x00,
  0x0c, 0x00, 0x04, 0x00, 0x0c, 0x00, 0x00, 0x00, 0x09, 0x00, 0x00, 0x00,
  0x00, 0x00, 0x00, 0x09, 0x05, 0x00, 0x00, 0x00, 0x86, 0xf4, 0xff, 0xff,
  0x00, 0x00, 0x00, 0x01, 0x8c, 0x00, 0x00, 0x00, 0x0a, 0x00, 0x00, 0x00,
  0x08, 0x00, 0x00, 0x00, 0x8c, 0x00, 0x00, 0x00, 0x75, 0x00, 0x00, 0x00,
  0x76, 0x6c, 0x70, 0x5f, 0x68, 0x61, 0x63, 0x6b, 0x61, 0x74, 0x68, 0x6f,
  0x6e, 0x2e, 0x69, 0x6d, 0x70, 0x72, 0x6f, 0x76, 0x65, 0x64, 0x5f, 0x6d,
  0x6f, 0x64, 0x65, 0x6c, 0x2e, 0x49, 0x6d, 0x70, 0x72, 0x6f, 0x76, 0x65,
  0x64, 0x4d, 0x4c, 0x50, 0x2f, 0x74, 0x6f, 0x72, 0x63, 0x68, 0x2e, 0x6e,
  0x6e, 0x2e, 0x6d, 0x6f, 0x64, 0x75, 0x6c, 0x65, 0x73, 0x2e, 0x63, 0x6f,
  0x6e, 0x74, 0x61, 0x69, 0x6e, 0x65, 0x72, 0x2e, 0x53, 0x65, 0x71, 0x75,
  0x65, 0x6e, 0x74, 0x69, 0x61, 0x6c, 0x5f, 0x6e, 0x65, 0x74, 0x2f, 0x74,
  0x6f, 0x72, 0x63, 0x68, 0x2e, 0x6e, 0x6e, 0x2e, 0x6d, 0x6f, 0x64, 0x75,
  0x6c, 0x65, 0x73, 0x2e, 0x6c, 0x69, 0x6e, 0x65, 0x61, 0x72, 0x2e, 0x4c,
  0x69, 0x6e, 0x65, 0x61, 0x72, 0x5f, 0x30, 0x3b, 0x32, 0x00, 0x00, 0x00,
  0x02, 0x00, 0x00, 0x00, 0x01, 0x00, 0x00, 0x00, 0x0a, 0x00, 0x00, 0x00,
  0xcc, 0xf4, 0xff, 0xff, 0x2a, 0xf5, 0xff, 0xff, 0x00, 0x00, 0x00, 0x01,
  0x8c, 0x00, 0x00, 0x00, 0x09, 0x00, 0x00, 0x00, 0x08, 0x00, 0x00, 0x00,
  0x88, 0x00, 0x00, 0x00, 0x75, 0x00, 0x00, 0x00, 0x76, 0x6c, 0x70, 0x5f,
  0x68, 0x61, 0x63, 0x6b, 0x61, 0x74, 0x68, 0x6f, 0x6e, 0x2e, 0x69, 0x6d,
  0x70, 0x72, 0x6f, 0x76, 0x65, 0x64, 0x5f, 0x6d, 0x6f, 0x64, 0x65, 0x6c,
  0x2e, 0x49, 0x6d, 0x70, 0x72, 0x6f, 0x76, 0x65, 0x64, 0x4d, 0x4c, 0x50,
  0x2f, 0x74, 0x6f, 0x72, 0x63, 0x68, 0x2e, 0x6e, 0x6e, 0x2e, 0x6d, 0x6f,
  0x64, 0x75, 0x6c, 0x65, 0x73, 0x2e, 0x63, 0x6f, 0x6e, 0x74, 0x61, 0x69,
  0x6e, 0x65, 0x72, 0x2e, 0x53, 0x65, 0x71, 0x75, 0x65, 0x6e, 0x74, 0x69,
  0x61, 0x6c, 0x5f, 0x6e, 0x65, 0x74, 0x2f, 0x74, 0x6f, 0x72, 0x63, 0x68,
  0x2e, 0x6e, 0x6e, 0x2e, 0x6d, 0x6f, 0x64, 0x75, 0x6c, 0x65, 0x73, 0x2e,
  0x6c, 0x69, 0x6e, 0x65, 0x61, 0x72, 0x2e, 0x4c, 0x69, 0x6e, 0x65, 0x61,
  0x72, 0x5f, 0x30, 0x3b, 0x31, 0x00, 0x00, 0x00, 0x01, 0x00, 0x00, 0x00,
  0x0a, 0x00, 0x00, 0x00, 0x6c, 0xf5, 0xff, 0xff, 0xe6, 0xf5, 0xff, 0xff,
  0x04, 0x00, 0x00, 0x00, 0x28, 0x00, 0x00, 0x00, 0x50, 0x0e, 0x8c, 0xbd,
  0xa9, 0x0d, 0x2c, 0x3d, 0x97, 0x46, 0xf2, 0xbd, 0x9f, 0x56, 0x90, 0x3d,
  0x6a, 0xc4, 0xc1, 0x3c, 0xe5, 0x3f, 0xbf, 0xbd, 0x17, 0x28, 0x8f, 0xbe,
  0xf3, 0xcd, 0x92, 0x3b, 0x21, 0x2d, 0x39, 0x3e, 0xde, 0x85, 0x49, 0xbe,
  0xfe, 0xf5, 0xff, 0xff, 0x00, 0x00, 0x00, 0x01, 0x8c, 0x00, 0x00, 0x00,
  0x08, 0x00, 0x00, 0x00, 0x08, 0x00, 0x00, 0x00, 0x8c, 0x00, 0x00, 0x00,
  0x74, 0x00, 0x00, 0x00, 0x76, 0x6c, 0x70, 0x5f, 0x68, 0x61, 0x63, 0x6b,
  0x61, 0x74, 0x68, 0x6f, 0x6e, 0x2e, 0x69, 0x6d, 0x70, 0x72, 0x6f, 0x76,
  0x65, 0x64, 0x5f, 0x6d, 0x6f, 0x64, 0x65, 0x6c, 0x2e, 0x49, 0x6d, 0x70,
  0x72, 0x6f, 0x76, 0x65, 0x64, 0x4d, 0x4c, 0x50, 0x2f, 0x74, 0x6f, 0x72,
  0x63, 0x68, 0x2e, 0x6e, 0x6e, 0x2e, 0x6d, 0x6f, 0x64, 0x75, 0x6c, 0x65,
  0x73, 0x2e, 0x63, 0x6f, 0x6e, 0x74, 0x61, 0x69, 0x6e, 0x65, 0x72, 0x2e,
  0x53, 0x65, 0x71, 0x75, 0x65, 0x6e, 0x74, 0x69, 0x61, 0x6c, 0x5f, 0x6e,
  0x65, 0x74, 0x2f, 0x74, 0x6f, 0x72, 0x63, 0x68, 0x2e, 0x6e, 0x6e, 0x2e,
  0x6d, 0x6f, 0x64, 0x75, 0x6c, 0x65, 0x73, 0x2e, 0x6c, 0x69, 0x6e, 0x65,
  0x61, 0x72, 0x2e, 0x4c, 0x69, 0x6e, 0x65, 0x61, 0x72, 0x5f, 0x30, 0x3b,
  0x00, 0x00, 0x00, 0x00, 0x02, 0x00, 0x00, 0x00, 0x0a, 0x00, 0x00, 0x00,
  0x09, 0x00, 0x00, 0x00, 0x44, 0xf6, 0xff, 0xff, 0xbe, 0xf6, 0xff, 0xff,
  0x04, 0x00, 0x00, 0x00, 0x68, 0x01, 0x00, 0x00, 0xe3, 0xf4, 0xa8, 0x3e,
  0x29, 0x3d, 0x77, 0x3e, 0x9d, 0x7c, 0x84, 0x3e, 0x6d, 0x27, 0xe8, 0xbe,
  0xfe, 0xe4, 0xf9, 0xbf, 0xe7, 0xb0, 0xf3, 0xbf, 0x28, 0x57, 0x8a, 0x3e,
  0xb1, 0x53, 0xbb, 0xc0, 0x43, 0x34, 0x96, 0xbf, 0x65, 0x3e, 0x05, 0x3f,
  0xeb, 0xce, 0xe3, 0x3f, 0xef, 0x12, 0x30, 0xbe, 0x6c, 0xd2, 0x29, 0xbd,
  0x27, 0xad, 0x87, 0xbe, 0xc3, 0x58, 0x13, 0x3f, 0x2b, 0x15, 0x80, 0xbf,
  0x05, 0x74, 0x86, 0xbf, 0xce, 0x1a, 0x00, 0xbf, 0x99, 0xcf, 0xb8, 0x3e,
  0x21, 0x1c, 0x5a, 0xbe, 0x27, 0xfd, 0x5e, 0xbf, 0xef, 0x99, 0x18, 0x3f,
  0x95, 0xa5, 0xd0, 0xbe, 0xaf, 0xd5, 0xee, 0xbf, 0x19, 0x1f, 0xf6, 0x3e,
  0x63, 0x04, 0xd8, 0xbd, 0x23, 0x38, 0xd4, 0x3d, 0xb0, 0x44, 0xb2, 0xbf,
  0x31, 0xad, 0x14, 0xbf, 0x02, 0xb6, 0x8c, 0xbe, 0xd3, 0xda, 0x94, 0xbf,
  0x38, 0xa1, 0x9d, 0x3d, 0xbc, 0x99, 0x25, 0x3f, 0x10, 0x0b, 0x04, 0xbf,
  0xed, 0xbd, 0x52, 0x3e, 0x18, 0x54, 0x08, 0x3f, 0x99, 0x14, 0xdc, 0xbe,
  0x0a, 0xd3, 0xa6, 0x3f, 0xed, 0x1b, 0xbe, 0x3e, 0xc3, 0x70, 0x92, 0x3f,
  0xd4, 0xff, 0x82, 0x3f, 0x08, 0x2a, 0x18, 0x40, 0x54, 0xfe, 0x1c, 0x3e,
  0xbb, 0xc0, 0xe3, 0xbc, 0x43, 0xba, 0xad, 0xbd, 0xc1, 0x68, 0x05, 0x3f,
  0xd3, 0x88, 0x06, 0x3f, 0xcf, 0xc3, 0x5c, 0xbe, 0x7e, 0x8d, 0x30, 0x3f,
  0xbd, 0x63, 0xa3, 0xbc, 0x53, 0xf6, 0x28, 0x3f, 0x2b, 0x15, 0xa8, 0x3f,
  0x87, 0x98, 0xf5, 0xbb, 0xef, 0xcc, 0xc1, 0x3d, 0x33, 0xe7, 0x10, 0x3f,
  0xb9, 0xec, 0xd5, 0x3d, 0xee, 0x57, 0xea, 0x3c, 0xfe, 0xd1, 0x29, 0xbc,
  0xe5, 0x02, 0x2c, 0x40, 0x07, 0x8c, 0x68, 0x3f, 0x18, 0x6f, 0xe4, 0x3e,
  0x2d, 0x09, 0x79, 0x3f, 0x47, 0x70, 0x8d, 0x3f, 0xf7, 0x3a, 0xbc, 0xbe,
  0x68, 0xe3, 0x10, 0x3f, 0x59, 0xa6, 0x05, 0xc0, 0x7f, 0x4e, 0xc3, 0x3c,
  0x9e, 0xbd, 0xc3, 0xbf, 0xc6, 0x38, 0xc0, 0x3e, 0x5f, 0xc8, 0x0a, 0x3f,
  0x6b, 0xa5, 0xab, 0xbe, 0xc7, 0xbf, 0xf4, 0x3e, 0x9c, 0x0d, 0xd9, 0xbe,
  0xe9, 0xe6, 0x4f, 0xbf, 0x0f, 0x35, 0x17, 0xbf, 0xa4, 0x8e, 0x4a, 0x3f,
  0xee, 0xcc, 0x57, 0x3f, 0x66, 0xc2, 0x3c, 0xbf, 0xfd, 0x97, 0xb4, 0x3f,
  0x83, 0x53, 0x42, 0x3f, 0x29, 0x2e, 0xad, 0xbe, 0xb7, 0x14, 0x43, 0x3e,
  0x73, 0x40, 0x44, 0x3f, 0x45, 0x88, 0x6c, 0x3e, 0x86, 0x45, 0xe7, 0x3f,
  0x8c, 0x80, 0xd1, 0x3f, 0x91, 0x76, 0xc9, 0x3e, 0x5c, 0x02, 0x24, 0x3f,
  0x2a, 0x47, 0x11, 0x3f, 0x56, 0x04, 0x90, 0xbb, 0x16, 0xf8, 0xff, 0xff,
  0x00, 0x00, 0x00, 0x01, 0x8c, 0x00, 0x00, 0x00, 0x07, 0x00, 0x00, 0x00,
  0x08, 0x00, 0x00, 0x00, 0x8c, 0x00, 0x00, 0x00, 0x75, 0x00, 0x00, 0x00,
  0x76, 0x6c, 0x70, 0x5f, 0x68, 0x61, 0x63, 0x6b, 0x61, 0x74, 0x68, 0x6f,
  0x6e, 0x2e, 0x69, 0x6d, 0x70, 0x72, 0x6f, 0x76, 0x65, 0x64, 0x5f, 0x6d,
  0x6f, 0x64, 0x65, 0x6c, 0x2e, 0x49, 0x6d, 0x70, 0x72, 0x6f, 0x76, 0x65,
  0x64, 0x4d, 0x4c, 0x50, 0x2f, 0x74, 0x6f, 0x72, 0x63, 0x68, 0x2e, 0x6e,
  0x6e, 0x2e, 0x6d, 0x6f, 0x64, 0x75, 0x6c, 0x65, 0x73, 0x2e, 0x63, 0x6f,
  0x6e, 0x74, 0x61, 0x69, 0x6e, 0x65, 0x72, 0x2e, 0x53, 0x65, 0x71, 0x75,
  0x65, 0x6e, 0x74, 0x69, 0x61, 0x6c, 0x5f, 0x6e, 0x65, 0x74, 0x2f, 0x74,
  0x6f, 0x72, 0x63, 0x68, 0x2e, 0x6e, 0x6e, 0x2e, 0x6d, 0x6f, 0x64, 0x75,
  0x6c, 0x65, 0x73, 0x2e, 0x6c, 0x69, 0x6e, 0x65, 0x61, 0x72, 0x2e, 0x4c,
  0x69, 0x6e, 0x65, 0x61, 0x72, 0x5f, 0x32, 0x3b, 0x31, 0x00, 0x00, 0x00,
  0x02, 0x00, 0x00, 0x00, 0x0a, 0x00, 0x00, 0x00, 0x0a, 0x00, 0x00, 0x00,
  0x5c, 0xf8, 0xff, 0xff, 0xd6, 0xf8, 0xff, 0xff, 0x04, 0x00, 0x00, 0x00,
  0x90, 0x01, 0x00, 0x00, 0x7f, 0xff, 0x0c, 0x3f, 0xcb, 0x02, 0xf4, 0x3e,
  0x3b, 0x9f, 0x99, 0xbe, 0x23, 0xd2, 0x27, 0xbf, 0x2f, 0xfa, 0x05, 0x3f,
  0x96, 0x4a, 0x8b, 0xbe, 0xa4, 0xe4, 0xa7, 0x3e, 0xed, 0x14, 0x4b, 0xbf,
  0x26, 0x1f, 0x60, 0xbf, 0xc2, 0x34, 0x93, 0xbd, 0x0c, 0x31, 0x0d, 0x3e,
  0x35, 0xa2, 0x21, 0xbe, 0x0d, 0xcd, 0x22, 0xbf, 0x1e, 0xca, 0x2e, 0x3e,
  0x9e, 0x30, 0xbe, 0x3f, 0xb1, 0x06, 0x17, 0x3f, 0xf8, 0xc7, 0x95, 0x3f,
  0x90, 0x6b, 0x3e, 0xbe, 0x5c, 0xf7, 0x3d, 0xbf, 0x29, 0x71, 0xbe, 0x3e,
  0xde, 0xbd, 0x44, 0x40, 0x1b, 0x4d, 0x8a, 0xbd, 0x52, 0x5d, 0x26, 0x3f,
  0xa4, 0x73, 0x36, 0xbf, 0xbf, 0x5a, 0x51, 0xbe, 0x11, 0x12, 0x95, 0xbd,
  0x1b, 0x0d, 0x28, 0xc0, 0xb1, 0x82, 0xdc, 0x3e, 0x17, 0x2b, 0x5f, 0x3f,
  0x1d, 0x34, 0x6a, 0xbe, 0x5f, 0xf0, 0x8e, 0x3c, 0x77, 0xbb, 0x25, 0x3f,
  0xf5, 0x4f, 0x4b, 0xbf, 0x54, 0x27, 0x0a, 0x3c, 0xfa, 0x09, 0x5b, 0x40,
  0x72, 0x94, 0x1e, 0x3f, 0x4d, 0x13, 0xc4, 0x3e, 0xf6, 0x96, 0x4f, 0xbe,
  0xc8, 0x18, 0xf9, 0xbe, 0x04, 0x5d, 0x24, 0x3f, 0x17, 0xfb, 0xf2, 0x3e,
  0xd0, 0x64, 0xeb, 0x3c, 0x47, 0x0d, 0xb7, 0x3e, 0x21, 0x9f, 0x78, 0xbf,
  0x8e, 0x09, 0xb6, 0x3e, 0x99, 0x98, 0xbe, 0x3e, 0x08, 0xe5, 0x90, 0xbd,
  0x07, 0xf7, 0x0e, 0xbf, 0x8e, 0x90, 0xe7, 0xbe, 0x39, 0x8f, 0xc7, 0x3e,
  0x63, 0xd9, 0x98, 0xbf, 0x67, 0x54, 0x95, 0xbf, 0x21, 0xa2, 0x36, 0x3f,
  0x01, 0x11, 0x5c, 0xbf, 0x18, 0xd7, 0xf7, 0x3e, 0xd4, 0x44, 0x1e, 0x3f,
  0x06, 0x36, 0x8d, 0x3f, 0x0b, 0x73, 0x0c, 0xbf, 0x31, 0x5d, 0x8a, 0x3f,
  0x08, 0x20, 0xa3, 0x3f, 0xa5, 0x35, 0x16, 0x3f, 0x76, 0xa6, 0x66, 0x3f,
  0x3e, 0x13, 0x87, 0xbf, 0xdd, 0x5b, 0x71, 0xbc, 0xfe, 0x2a, 0x3c, 0x3f,
  0x94, 0x2b, 0x6f, 0xbf, 0x96, 0x2d, 0x06, 0xbf, 0x20, 0xa0, 0x8b, 0xbf,
  0xf3, 0x9d, 0xef, 0xbe, 0xbc, 0xf1, 0xe6, 0xbe, 0x5d, 0xf8, 0x52, 0xbf,
  0x04, 0xbd, 0x1d, 0xbe, 0xe3, 0x30, 0x0c, 0xbf, 0xbd, 0xe2, 0xaf, 0x3e,
  0xf5, 0xd2, 0x53, 0x3e, 0x5d, 0x1d, 0x12, 0x3f, 0x80, 0x85, 0xd5, 0x3f,
  0x4f, 0x74, 0xd8, 0xbe, 0xd4, 0x58, 0x36, 0x3c, 0x6e, 0x6b, 0x85, 0x3d,
  0x5e, 0x40, 0xae, 0xbf, 0xd9, 0x59, 0xf3, 0xbe, 0x7a, 0xd8, 0xf1, 0xbe,
  0x58, 0xa0, 0x84, 0x3f, 0x15, 0x5a, 0xf1, 0xbd, 0x81, 0xb0, 0xea, 0x3e,
  0x34, 0xbf, 0xcc, 0x3e, 0x6d, 0xaa, 0x0a, 0x3f, 0x25, 0x05, 0x3a, 0xbe,
  0x74, 0xc4, 0x7e, 0xbe, 0xfd, 0x96, 0x71, 0x3d, 0xf7, 0xb9, 0x28, 0x3f,
  0x6e, 0x11, 0xcb, 0xbd, 0x6c, 0x8c, 0xac, 0xbe, 0xbb, 0x1b, 0x78, 0x3f,
  0x0f, 0xf0, 0xb9, 0x3f, 0x9d, 0x92, 0xe7, 0x3e, 0x91, 0x39, 0x16, 0xbe,
  0x59, 0xd3, 0x72, 0x3e, 0x8a, 0x10, 0x85, 0x3f, 0x56, 0xfa, 0xff, 0xff,
  0x00, 0x00, 0x00, 0x01, 0x8c, 0x00, 0x00, 0x00, 0x06, 0x00, 0x00, 0x00,
  0x08, 0x00, 0x00, 0x00, 0x8c, 0x00, 0x00, 0x00, 0x75, 0x00, 0x00, 0x00,
  0x76, 0x6c, 0x70, 0x5f, 0x68, 0x61, 0x63, 0x6b, 0x61, 0x74, 0x68, 0x6f,
  0x6e, 0x2e, 0x69, 0x6d, 0x70, 0x72, 0x6f, 0x76, 0x65, 0x64, 0x5f, 0x6d,
  0x6f, 0x64, 0x65, 0x6c, 0x2e, 0x49, 0x6d, 0x70, 0x72, 0x6f, 0x76, 0x65,
  0x64, 0x4d, 0x4c, 0x50, 0x2f, 0x74, 0x6f, 0x72, 0x63, 0x68, 0x2e, 0x6e,
  0x6e, 0x2e, 0x6d, 0x6f, 0x64, 0x75, 0x6c, 0x65, 0x73, 0x2e, 0x63, 0x6f,
  0x6e, 0x74, 0x61, 0x69, 0x6e, 0x65, 0x72, 0x2e, 0x53, 0x65, 0x71, 0x75,
  0x65, 0x6e, 0x74, 0x69, 0x61, 0x6c, 0x5f, 0x6e, 0x65, 0x74, 0x2f, 0x74,
  0x6f, 0x72, 0x63, 0x68, 0x2e, 0x6e, 0x6e, 0x2e, 0x6d, 0x6f, 0x64, 0x75,
  0x6c, 0x65, 0x73, 0x2e, 0x6c, 0x69, 0x6e, 0x65, 0x61, 0x72, 0x2e, 0x4c,
  0x69, 0x6e, 0x65, 0x61, 0x72, 0x5f, 0x34, 0x3b, 0x31, 0x00, 0x00, 0x00,
  0x02, 0x00, 0x00, 0x00, 0x0a, 0x00, 0x00, 0x00, 0x0a, 0x00, 0x00, 0x00,
  0x9c, 0xfa, 0xff, 0xff, 0x16, 0xfb, 0xff, 0xff, 0x04, 0x00, 0x00, 0x00,
  0x90, 0x01, 0x00, 0x00, 0xaf, 0x08, 0xf2, 0xbe, 0x6c, 0x8a, 0xba, 0x3e,
  0xff, 0x5e, 0xe5, 0xbf, 0xc1, 0xc1, 0xb4, 0x3e, 0xfd, 0xaf, 0x76, 0xbf,
  0x2b, 0xca, 0x14, 0x40, 0x7e, 0xae, 0xb1, 0xbe, 0x42, 0x9d, 0x15, 0x3f,
  0xeb, 0x0b, 0xdd, 0x3f, 0x57, 0x70, 0xcb, 0x3d, 0xb7, 0x58, 0x5c, 0xbe,
  0xf6, 0x3c, 0x78, 0xbe, 0x01, 0x07, 0x22, 0xbe, 0x1b, 0xf8, 0x4f, 0xbe,
  0x7c, 0xa4, 0x19, 0xbf, 0xad, 0x2c, 0x86, 0xbf, 0x14, 0x94, 0x34, 0x3f,
  0x8d, 0x1d, 0xb0, 0x3e, 0x6b, 0x6f, 0x2d, 0x3e, 0x88, 0x44, 0x72, 0xbf,
  0x7f, 0xa1, 0x3d, 0xbf, 0x02, 0xdf, 0x1f, 0xc0, 0x47, 0x00, 0x90, 0x3e,
  0x46, 0xdc, 0x45, 0xc0, 0xf4, 0x91, 0xae, 0xbe, 0xfe, 0x20, 0x22, 0x3f,
  0x16, 0xfa, 0x31, 0xbf, 0x60, 0x37, 0xd2, 0xbe, 0x79, 0x3a, 0x71, 0xbd,
  0x34, 0xb8, 0xc2, 0xbf, 0x57, 0xff, 0x5b, 0xbe, 0xa2, 0xf3, 0x38, 0xbe,
  0x3e, 0xb2, 0x4a, 0xbf, 0xa3, 0xf3, 0x4c, 0xbe, 0x95, 0x5d, 0xb6, 0xbd,
  0x61, 0xf6, 0xca, 0xbd, 0x4f, 0xbe, 0x66, 0x3d, 0x24, 0xd9, 0x00, 0x3f,
  0x68, 0xf1, 0x61, 0x3e, 0x15, 0xcb, 0xdc, 0xbe, 0x2b, 0xb4, 0x18, 0xbf,
  0x7a, 0x51, 0x91, 0xbf, 0x04, 0xda, 0x34, 0x3e, 0x89, 0xa7, 0x8d, 0xbf,
  0xe3, 0x8d, 0x0a, 0x3d, 0xc8, 0x7c, 0x55, 0x3f, 0xcb, 0xd4, 0x5d, 0xbf,
  0xbf, 0x6c, 0x47, 0xbf, 0xa0, 0x0a, 0x07, 0xbf, 0x8d, 0x93, 0x9f, 0xbd,
  0x50, 0x1f, 0xb4, 0xbf, 0xe9, 0xeb, 0x28, 0xbf, 0xb1, 0x41, 0xc4, 0xbe,
  0x8d, 0xdc, 0xab, 0xbe, 0xca, 0xb3, 0xa8, 0xbf, 0x4f, 0x82, 0x69, 0x3f,
  0x49, 0xb4, 0x75, 0xbf, 0xdf, 0x01, 0xc6, 0x3e, 0x2e, 0x62, 0x72, 0x3f,
  0x2b, 0xc4, 0x02, 0xbf, 0x1a, 0x04, 0x51, 0xbf, 0x2f, 0xe3, 0xfb, 0xbe,
  0x03, 0xab, 0x81, 0xbe, 0xf4, 0xc4, 0xde, 0xbe, 0xcf, 0x75, 0x7e, 0xbf,
  0x4f, 0xe7, 0x6c, 0xbf, 0xc3, 0x59, 0xfc, 0x3d, 0x8c, 0xaf, 0x6b, 0x3e,
  0xb2, 0xc3, 0x37, 0x3f, 0x68, 0x08, 0x29, 0xbf, 0xb1, 0x60, 0x31, 0xbf,
  0xe4, 0x05, 0x68, 0xbf, 0x16, 0xe7, 0x29, 0x3f, 0xc8, 0x30, 0x91, 0xbf,
  0x40, 0xff, 0xde, 0xbe, 0x68, 0x3f, 0x50, 0x3f, 0xde, 0x2a, 0xb5, 0xbf,
  0xd7, 0xd0, 0xd5, 0xbe, 0xbb, 0xad, 0xaf, 0xbe, 0x12, 0x8f, 0x47, 0x3e,
  0xdb, 0x98, 0x31, 0xbe, 0x96, 0xf9, 0x8f, 0xbd, 0xd0, 0xfe, 0xf4, 0xbd,
  0x8d, 0xcd, 0x16, 0xbe, 0x12, 0x34, 0xe6, 0xbd, 0xff, 0x8b, 0x05, 0x3f,
  0x1c, 0xb8, 0x39, 0xbf, 0xf7, 0x2a, 0xab, 0x3d, 0x11, 0x64, 0xd9, 0x3d,
  0xf0, 0xf7, 0x8b, 0x3e, 0x78, 0x09, 0x47, 0xbd, 0xc9, 0x1e, 0x58, 0xbe,
  0x07, 0x7d, 0x0b, 0xbf, 0x80, 0x4c, 0x51, 0xbf, 0xaa, 0x36, 0xb4, 0xbd,
  0x18, 0xba, 0x0b, 0xbf, 0xad, 0xcc, 0xf0, 0x3e, 0x49, 0x84, 0x87, 0x3e,
  0x25, 0xd2, 0x22, 0x3f, 0x15, 0x46, 0xa8, 0xbe, 0x96, 0xfc, 0xff, 0xff,
  0x00, 0x00, 0x00, 0x01, 0x8c, 0x00, 0x00, 0x00, 0x05, 0x00, 0x00, 0x00,
  0x08, 0x00, 0x00, 0x00, 0x8c, 0x00, 0x00, 0x00, 0x75, 0x00, 0x00, 0x00,
  0x76, 0x6c, 0x70, 0x5f, 0x68, 0x61, 0x63, 0x6b, 0x61, 0x74, 0x68, 0x6f,
  0x6e, 0x2e, 0x69, 0x6d, 0x70, 0x72, 0x6f, 0x76, 0x65, 0x64, 0x5f, 0x6d,
  0x6f, 0x64, 0x65, 0x6c, 0x2e, 0x49, 0x6d, 0x70, 0x72, 0x6f, 0x76, 0x65,
  0x64, 0x4d, 0x4c, 0x50, 0x2f, 0x74, 0x6f, 0x72, 0x63, 0x68, 0x2e, 0x6e,
  0x6e, 0x2e, 0x6d, 0x6f, 0x64, 0x75, 0x6c, 0x65, 0x73, 0x2e, 0x63, 0x6f,
  0x6e, 0x74, 0x61, 0x69, 0x6e, 0x65, 0x72, 0x2e, 0x53, 0x65, 0x71, 0x75,
  0x65, 0x6e, 0x74, 0x69, 0x61, 0x6c, 0x5f, 0x6e, 0x65, 0x74, 0x2f, 0x74,
  0x6f, 0x72, 0x63, 0x68, 0x2e, 0x6e, 0x6e, 0x2e, 0x6d, 0x6f, 0x64, 0x75,
  0x6c, 0x65, 0x73, 0x2e, 0x6c, 0x69, 0x6e, 0x65, 0x61, 0x72, 0x2e, 0x4c,
  0x69, 0x6e, 0x65, 0x61, 0x72, 0x5f, 0x36, 0x3b, 0x31, 0x00, 0x00, 0x00,
  0x02, 0x00, 0x00, 0x00, 0x02, 0x00, 0x00, 0x00, 0x0a, 0x00, 0x00, 0x00,
  0xdc, 0xfc, 0xff, 0xff, 0x56, 0xfd, 0xff, 0xff, 0x04, 0x00, 0x00, 0x00,
  0x50, 0x00, 0x00, 0x00, 0x07, 0x6c, 0xe0, 0xbc, 0x68, 0x64, 0x85, 0x3f,
  0xb8, 0x4a, 0xf9, 0xbd, 0x5a, 0x53, 0x78, 0x3f, 0x3a, 0x77, 0x6b, 0xbf,
  0x02, 0xb1, 0xd9, 0x3d, 0xae, 0x9c, 0x93, 0x3f, 0xbd, 0xe5, 0xa4, 0xbf,
  0x69, 0x58, 0x47, 0xbf, 0x01, 0x80, 0x82, 0x3f, 0x24, 0x68, 0xb4, 0x3f,
  0xa7, 0xde, 0x77, 0xbe, 0x79, 0x3a, 0xa6, 0x3f, 0xdf, 0xeb, 0x09, 0x3f,
  0x42, 0x44, 0x32, 0x3f, 0xaf, 0x96, 0xbc, 0x3e, 0xe9, 0x75, 0x85, 0x3e,
  0x0d, 0x9e, 0x1b, 0x3e, 0x78, 0x3c, 0x7b, 0x3f, 0xc0, 0xd9, 0x36, 0x3f,
  0x96, 0xfd, 0xff, 0xff, 0x00, 0x00, 0x00, 0x01, 0x8c, 0x00, 0x00, 0x00,
  0x04, 0x00, 0x00, 0x00, 0x08, 0x00, 0x00, 0x00, 0x88, 0x00, 0x00, 0x00,
  0x74, 0x00, 0x00, 0x00, 0x76, 0x6c, 0x70, 0x5f, 0x68, 0x61, 0x63, 0x6b,
  0x61, 0x74, 0x68, 0x6f, 0x6e, 0x2e, 0x69, 0x6d, 0x70, 0x72, 0x6f, 0x76,
  0x65, 0x64, 0x5f, 0x6d, 0x6f, 0x64, 0x65, 0x6c, 0x2e, 0x49, 0x6d, 0x70,
  0x72, 0x6f, 0x76, 0x65, 0x64, 0x4d, 0x4c, 0x50, 0x2f, 0x74, 0x6f, 0x72,
  0x63, 0x68, 0x2e, 0x6e, 0x6e, 0x2e, 0x6d, 0x6f, 0x64, 0x75, 0x6c, 0x65,
  0x73, 0x2e, 0x63, 0x6f, 0x6e, 0x74, 0x61, 0x69, 0x6e, 0x65, 0x72, 0x2e,
  0x53, 0x65, 0x71, 0x75, 0x65, 0x6e, 0x74, 0x69, 0x61, 0x6c, 0x5f, 0x6e,
  0x65, 0x74, 0x2f, 0x74, 0x6f, 0x72, 0x63, 0x68, 0x2e, 0x6e, 0x6e, 0x2e,
  0x6d, 0x6f, 0x64, 0x75, 0x6c, 0x65, 0x73, 0x2e, 0x6c, 0x69, 0x6e, 0x65,
  0x61, 0x72, 0x2e, 0x4c, 0x69, 0x6e, 0x65, 0x61, 0x72, 0x5f, 0x32, 0x3b,
  0x00, 0x00, 0x00, 0x00, 0x01, 0x00, 0x00, 0x00, 0x0a, 0x00, 0x00, 0x00,
  0xd8, 0xfd, 0xff, 0xff, 0x52, 0xfe, 0xff, 0xff, 0x04, 0x00, 0x00, 0x00,
  0x28, 0x00, 0x00, 0x00, 0xc8, 0xde, 0x17, 0x3e, 0x97, 0xc7, 0x26, 0x3d,
  0xbc, 0xcc, 0x44, 0xbe, 0x6c, 0xc8, 0xd0, 0xbd, 0x27, 0x27, 0xe9, 0xbd,
  0x4c, 0x28, 0x4a, 0xbc, 0xd1, 0xf4, 0x0a, 0xbe, 0xc5, 0xcc, 0x69, 0x3c,
  0xca, 0x00, 0x8f, 0x3e, 0x58, 0xe2, 0x73, 0xbd, 0x6a, 0xfe, 0xff, 0xff,
  0x00, 0x00, 0x00, 0x01, 0x8c, 0x00, 0x00, 0x00, 0x03, 0x00, 0x00, 0x00,
  0x08, 0x00, 0x00, 0x00, 0x88, 0x00, 0x00, 0x00, 0x74, 0x00, 0x00, 0x00,
  0x76, 0x6c, 0x70, 0x5f, 0x68, 0x61, 0x63, 0x6b, 0x61, 0x74, 0x68, 0x6f,
  0x6e, 0x2e, 0x69, 0x6d, 0x70, 0x72, 0x6f, 0x76, 0x65, 0x64, 0x5f, 0x6d,
  0x6f, 0x64, 0x65, 0x6c, 0x2e, 0x49, 0x6d, 0x70, 0x72, 0x6f, 0x76, 0x65,
  0x64, 0x4d, 0x4c, 0x50, 0x2f, 0x74, 0x6f, 0x72, 0x63, 0x68, 0x2e, 0x6e,
  0x6e, 0x2e, 0x6d, 0x6f, 0x64, 0x75, 0x6c, 0x65, 0x73, 0x2e, 0x63, 0x6f,
  0x6e, 0x74, 0x61, 0x69, 0x6e, 0x65, 0x72, 0x2e, 0x53, 0x65, 0x71, 0x75,
  0x65, 0x6e, 0x74, 0x69, 0x61, 0x6c, 0x5f, 0x6e, 0x65, 0x74, 0x2f, 0x74,
  0x6f, 0x72, 0x63, 0x68, 0x2e, 0x6e, 0x6e, 0x2e, 0x6d, 0x6f, 0x64, 0x75,
  0x6c, 0x65, 0x73, 0x2e, 0x6c, 0x69, 0x6e, 0x65, 0x61, 0x72, 0x2e, 0x4c,
  0x69, 0x6e, 0x65, 0x61, 0x72, 0x5f, 0x34, 0x3b, 0x00, 0x00, 0x00, 0x00,
  0x01, 0x00, 0x00, 0x00, 0x0a, 0x00, 0x00, 0x00, 0xac, 0xfe, 0xff, 0xff,
  0x26, 0xff, 0xff, 0xff, 0x04, 0x00, 0x00, 0x00, 0x28, 0x00, 0x00, 0x00,
  0x4b, 0x5b, 0x79, 0x3e, 0x8c, 0x93, 0x01, 0xbd, 0x23, 0x5d, 0x3b, 0xbf,
  0xc9, 0x82, 0xad, 0x3b, 0x9f, 0x9c, 0xbf, 0x3d, 0x1d, 0x07, 0x99, 0xbe,
  0x9f, 0x7c, 0xbc, 0x3e, 0x3f, 0xdf, 0x95, 0x3e, 0x82, 0x58, 0x5f, 0x3c,
  0x43, 0x4f, 0xe2, 0xbc, 0x3e, 0xff, 0xff, 0xff, 0x00, 0x00, 0x00, 0x01,
  0x8c, 0x00, 0x00, 0x00, 0x02, 0x00, 0x00, 0x00, 0x08, 0x00, 0x00, 0x00,
  0x8c, 0x00, 0x00, 0x00, 0x74, 0x00, 0x00, 0x00, 0x76, 0x6c, 0x70, 0x5f,
  0x68, 0x61, 0x63, 0x6b, 0x61, 0x74, 0x68, 0x6f, 0x6e, 0x2e, 0x69, 0x6d,
  0x70, 0x72, 0x6f, 0x76, 0x65, 0x64, 0x5f, 0x6d, 0x6f, 0x64, 0x65, 0x6c,
  0x2e, 0x49, 0x6d, 0x70, 0x72, 0x6f, 0x76, 0x65, 0x64, 0x4d, 0x4c, 0x50,
  0x2f, 0x74, 0x6f, 0x72, 0x63, 0x68, 0x2e, 0x6e, 0x6e, 0x2e, 0x6d, 0x6f,
  0x64, 0x75, 0x6c, 0x65, 0x73, 0x2e, 0x63, 0x6f, 0x6e, 0x74, 0x61, 0x69,
  0x6e, 0x65, 0x72, 0x2e, 0x53, 0x65, 0x71, 0x75, 0x65, 0x6e, 0x74, 0x69,
  0x61, 0x6c, 0x5f, 0x6e, 0x65, 0x74, 0x2f, 0x74, 0x6f, 0x72, 0x63, 0x68,
  0x2e, 0x6e, 0x6e, 0x2e, 0x6d, 0x6f, 0x64, 0x75, 0x6c, 0x65, 0x73, 0x2e,
  0x6c, 0x69, 0x6e, 0x65, 0x61, 0x72, 0x2e, 0x4c, 0x69, 0x6e, 0x65, 0x61,
  0x72, 0x5f, 0x36, 0x3b, 0x00, 0x00, 0x00, 0x00, 0x01, 0x00, 0x00, 0x00,
  0x02, 0x00, 0x00, 0x00, 0x04, 0x00, 0x06, 0x00, 0x04, 0x00, 0x00, 0x00,
  0x00, 0x00, 0x06, 0x00, 0x08, 0x00, 0x04, 0x00, 0x06, 0x00, 0x00, 0x00,
  0x04, 0x00, 0x00, 0x00, 0x08, 0x00, 0x00, 0x00, 0xf2, 0x84, 0x88, 0x3d,
  0x98, 0xd8, 0xaa, 0xbd, 0x00, 0x00, 0x16, 0x00, 0x18, 0x00, 0x08, 0x00,
  0x00, 0x00, 0x0c, 0x00, 0x10, 0x00, 0x14, 0x00, 0x00, 0x00, 0x00, 0x00,
  0x00, 0x00, 0x07, 0x00, 0x16, 0x00, 0x00, 0x00, 0x00, 0x00, 0x00, 0x01,
  0x2c, 0x00, 0x00, 0x00, 0x01, 0x00, 0x00, 0x00, 0x08, 0x00, 0x00, 0x00,
  0x2c, 0x00, 0x00, 0x00, 0x16, 0x00, 0x00, 0x00, 0x73, 0x65, 0x72, 0x76,
  0x69, 0x6e, 0x67, 0x5f, 0x64, 0x65, 0x66, 0x61, 0x75, 0x6c, 0x74, 0x5f,
  0x61, 0x72, 0x67, 0x73, 0x5f, 0x30, 0x00, 0x00, 0x02, 0x00, 0x00, 0x00,
  0x01, 0x00, 0x00, 0x00, 0x09, 0x00, 0x00, 0x00, 0xfc, 0xff, 0xff, 0xff,
  0x04, 0x00, 0x04, 0x00, 0x04, 0x00, 0x00, 0x00,
};
const unsigned int g_vlp_model_data_len = 5180u;
