#include "model_data.h"

alignas(16) const unsigned char g_vlp_model_data[] = {
  0x1c, 0x00, 0x00, 0x00, 0x54, 0x46, 0x4c, 0x33, 0x14, 0x00, 0x20, 0x00,
  0x04, 0x00, 0x08, 0x00, 0x0c, 0x00, 0x10, 0x00, 0x14, 0x00, 0x00, 0x00,
  0x18, 0x00, 0x1c, 0x00, 0x14, 0x00, 0x00, 0x00, 0x03, 0x00, 0x00, 0x00,
  0x4c, 0x01, 0x00, 0x00, 0x40, 0x01, 0x00, 0x00, 0x7c, 0x02, 0x00, 0x00,
  0x0c, 0x00, 0x00, 0x00, 0xe8, 0x01, 0x00, 0x00, 0x64, 0x01, 0x00, 0x00,
  0x4a, 0x00, 0x00, 0x00, 0xf4, 0x44, 0x00, 0x00, 0xf0, 0x44, 0x00, 0x00,
  0x78, 0x44, 0x00, 0x00, 0x94, 0x43, 0x00, 0x00, 0xbc, 0x42, 0x00, 0x00,
  0xbc, 0x41, 0x00, 0x00, 0x78, 0x3f, 0x00, 0x00, 0x34, 0x3d, 0x00, 0x00,
  0x74, 0x3c, 0x00, 0x00, 0x08, 0x3c, 0x00, 0x00, 0xbc, 0x3b, 0x00, 0x00,
  0x6c, 0x3b, 0x00, 0x00, 0x20, 0x3b, 0x00, 0x00, 0xb0, 0x3a, 0x00, 0x00,
  0xcc, 0x39, 0x00, 0x00, 0xe8, 0x38, 0x00, 0x00, 0x04, 0x38, 0x00, 0x00,
  0x20, 0x37, 0x00, 0x00, 0x3c, 0x36, 0x00, 0x00, 0x18, 0x34, 0x00, 0x00,
  0x3c, 0x33, 0x00, 0x00, 0xa0, 0x44, 0x00, 0x00, 0x9c, 0x44, 0x00, 0x00,
  0x98, 0x44, 0x00, 0x00, 0x94, 0x44, 0x00, 0x00, 0x90, 0x44, 0x00, 0x00,
  0x8c, 0x44, 0x00, 0x00, 0x88, 0x44, 0x00, 0x00, 0x84, 0x44, 0x00, 0x00,
  0x80, 0x44, 0x00, 0x00, 0x7c, 0x44, 0x00, 0x00, 0x78, 0x44, 0x00, 0x00,
  0x74, 0x44, 0x00, 0x00, 0x70, 0x44, 0x00, 0x00, 0x6c, 0x44, 0x00, 0x00,
  0x68, 0x44, 0x00, 0x00, 0x64, 0x44, 0x00, 0x00, 0x60, 0x44, 0x00, 0x00,
  0x5c, 0x44, 0x00, 0x00, 0x58, 0x44, 0x00, 0x00, 0x54, 0x44, 0x00, 0x00,
  0x50, 0x44, 0x00, 0x00, 0x4c, 0x44, 0x00, 0x00, 0x48, 0x44, 0x00, 0x00,
  0x44, 0x44, 0x00, 0x00, 0x40, 0x44, 0x00, 0x00, 0x3c, 0x44, 0x00, 0x00,
  0x38, 0x44, 0x00, 0x00, 0x34, 0x44, 0x00, 0x00, 0x30, 0x44, 0x00, 0x00,
  0x2c, 0x44, 0x00, 0x00, 0x28, 0x44, 0x00, 0x00, 0x24, 0x44, 0x00, 0x00,
  0x20, 0x44, 0x00, 0x00, 0x1c, 0x44, 0x00, 0x00, 0x18, 0x44, 0x00, 0x00,
  0x14, 0x44, 0x00, 0x00, 0x10, 0x44, 0x00, 0x00, 0x0c, 0x44, 0x00, 0x00,
  0x08, 0x44, 0x00, 0x00, 0x04, 0x44, 0x00, 0x00, 0x00, 0x44, 0x00, 0x00,
  0xfc, 0x43, 0x00, 0x00, 0xf8, 0x43, 0x00, 0x00, 0xf4, 0x43, 0x00, 0x00,
  0xf0, 0x43, 0x00, 0x00, 0xec, 0x43, 0x00, 0x00, 0xe8, 0x43, 0x00, 0x00,
  0xe4, 0x43, 0x00, 0x00, 0xe0, 0x43, 0x00, 0x00, 0xdc, 0x43, 0x00, 0x00,
  0xd8, 0x43, 0x00, 0x00, 0x2c, 0x01, 0x00, 0x00, 0xec, 0x00, 0x00, 0x00,
  0x01, 0x00, 0x00, 0x00, 0x60, 0x01, 0x00, 0x00, 0x0a, 0x00, 0x00, 0x00,
  0x04, 0x31, 0x00, 0x00, 0xe4, 0x2f, 0x00, 0x00, 0xf8, 0x2e, 0x00, 0x00,
  0x20, 0x2d, 0x00, 0x00, 0x70, 0x2b, 0x00, 0x00, 0x78, 0x2a, 0x00, 0x00,
  0x9c, 0x29, 0x00, 0x00, 0xac, 0x28, 0x00, 0x00, 0x00, 0x22, 0x00, 0x00,
  0x78, 0x03, 0x00, 0x00, 0x01, 0x00, 0x00, 0x00, 0x10, 0x00, 0x00, 0x00,
  0x00, 0x00, 0x0a, 0x00, 0x10, 0x00, 0x0c, 0x00, 0x08, 0x00, 0x04, 0x00,
  0x0a, 0x00, 0x00, 0x00, 0x0c, 0x00, 0x00, 0x00, 0x1c, 0x00, 0x00, 0x00,
  0x20, 0x00, 0x00, 0x00, 0x0f, 0x00, 0x00, 0x00, 0x73, 0x65, 0x72, 0x76,
  0x69, 0x6e, 0x67, 0x5f, 0x64, 0x65, 0x66, 0x61, 0x75, 0x6c, 0x74, 0x00,
  0x01, 0x00, 0x00, 0x00, 0x14, 0x00, 0x00, 0x00, 0x01, 0x00, 0x00, 0x00,
  0x28, 0x00, 0x00, 0x00, 0x08, 0x00, 0x0c, 0x00, 0x08, 0x00, 0x04, 0x00,
  0x08, 0x00, 0x00, 0x00, 0x46, 0x00, 0x00, 0x00, 0x04, 0x00, 0x00, 0x00,
  0x08, 0x00, 0x00, 0x00, 0x6f, 0x75, 0x74, 0x70, 0x75, 0x74, 0x5f, 0x30,
  0x00, 0x00, 0x00, 0x00, 0x4e, 0xbd, 0xff, 0xff, 0x04, 0x00, 0x00, 0x00,
  0x06, 0x00, 0x00, 0x00, 0x61, 0x72, 0x67, 0x73, 0x5f, 0x30, 0x00, 0x00,
  0x02, 0x00, 0x00, 0x00, 0x48, 0x00, 0x00, 0x00, 0x04, 0x00, 0x00, 0x00,
  0xc8, 0xff, 0xff, 0xff, 0x08, 0x00, 0x00, 0x00, 0x49, 0x00, 0x00, 0x00,
  0x17, 0x00, 0x00, 0x00, 0x6b, 0x65, 0x65, 0x70, 0x5f, 0x73, 0x74, 0x61,
  0x62, 0x6c, 0x65, 0x68, 0x6c, 0x6f, 0x5f, 0x63, 0x6f, 0x6e, 0x73, 0x74,
  0x61, 0x6e, 0x74, 0x00, 0x96, 0xbd, 0xff, 0xff, 0x04, 0x00, 0x00, 0x00,
  0x04, 0x00, 0x00, 0x00, 0x74, 0x72, 0x75, 0x65, 0x08, 0x00, 0x0c, 0x00,
  0x04, 0x00, 0x08, 0x00, 0x08, 0x00, 0x00, 0x00, 0x08, 0x00, 0x00, 0x00,
  0x48, 0x00, 0x00, 0x00, 0x13, 0x00, 0x00, 0x00, 0x6d, 0x69, 0x6e, 0x5f,
  0x72, 0x75, 0x6e, 0x74, 0x69, 0x6d, 0x65, 0x5f, 0x76, 0x65, 0x72, 0x73,
  0x69, 0x6f, 0x6e, 0x00, 0xd2, 0xbd, 0xff, 0xff, 0x04, 0x00, 0x00, 0x00,
  0x10, 0x00, 0x00, 0x00, 0x32, 0x2e, 0x30, 0x2e, 0x30, 0x00, 0x00, 0x00,
  0x00, 0x00, 0x00, 0x00, 0x00, 0x00, 0x00, 0x00, 0x0f, 0x00, 0x00, 0x00,
  0x4d, 0x4c, 0x49, 0x52, 0x20, 0x43, 0x6f, 0x6e, 0x76, 0x65, 0x72, 0x74,
  0x65, 0x64, 0x2e, 0x00, 0x00, 0x00, 0x0e, 0x00, 0x18, 0x00, 0x04, 0x00,
  0x08, 0x00, 0x0c, 0x00, 0x10, 0x00, 0x14, 0x00, 0x0e, 0x00, 0x00, 0x00,
  0x00, 0x01, 0x00, 0x00, 0xf4, 0x00, 0x00, 0x00, 0xe8, 0x00, 0x00, 0x00,
  0x14, 0x00, 0x00, 0x00, 0x04, 0x00, 0x00, 0x00, 0x04, 0x00, 0x00, 0x00,
  0x6d, 0x61, 0x69, 0x6e, 0x00, 0x00, 0x00, 0x00, 0x33, 0x00, 0x00, 0x00,
  0x38, 0x2f, 0x00, 0x00, 0x40, 0x2e, 0x00, 0x00, 0x48, 0x2d, 0x00, 0x00,
  0x60, 0x2c, 0x00, 0x00, 0x78, 0x2b, 0x00, 0x00, 0x9c, 0x2a, 0x00, 0x00,
  0xac, 0x29, 0x00, 0x00, 0xd0, 0x28, 0x00, 0x00, 0xe4, 0x27, 0x00, 0x00,
  0xf4, 0x26, 0x00, 0x00, 0x18, 0x26, 0x00, 0x00, 0x30, 0x25, 0x00, 0x00,
  0x54, 0x24, 0x00, 0x00, 0x6c, 0x23, 0x00, 0x00, 0x84, 0x22, 0x00, 0x00,
  0x9c, 0x21, 0x00, 0x00, 0x40, 0x20, 0x00, 0x00, 0x58, 0x1f, 0x00, 0x00,
  0x6c, 0x1e, 0x00, 0x00, 0x94, 0x1d, 0x00, 0x00, 0xbc, 0x1c, 0x00, 0x00,
  0xe0, 0x1b, 0x00, 0x00, 0x04, 0x1b, 0x00, 0x00, 0x38, 0x1a, 0x00, 0x00,
  0x5c, 0x19, 0x00, 0x00, 0x7c, 0x18, 0x00, 0x00, 0xa0, 0x17, 0x00, 0x00,
  0xb8, 0x16, 0x00, 0x00, 0xdc, 0x15, 0x00, 0x00, 0xf4, 0x14, 0x00, 0x00,
  0x0c, 0x14, 0x00, 0x00, 0x24, 0x13, 0x00, 0x00, 0xd8, 0x11, 0x00, 0x00,
  0xf0, 0x10, 0x00, 0x00, 0x14, 0x10, 0x00, 0x00, 0x3c, 0x0f, 0x00, 0x00,
  0x64, 0x0e, 0x00, 0x00, 0x88, 0x0d, 0x00, 0x00, 0xac, 0x0c, 0x00, 0x00,
  0xe0, 0x0b, 0x00, 0x00, 0x04, 0x0b, 0x00, 0x00, 0x24, 0x0a, 0x00, 0x00,
  0x48, 0x09, 0x00, 0x00, 0x60, 0x08, 0x00, 0x00, 0x84, 0x07, 0x00, 0x00,
  0x9c, 0x06, 0x00, 0x00, 0xb4, 0x05, 0x00, 0x00, 0xcc, 0x04, 0x00, 0x00,
  0x80, 0x03, 0x00, 0x00, 0xb4, 0x01, 0x00, 0x00, 0x34, 0x01, 0x00, 0x00,
  0x01, 0x00, 0x00, 0x00, 0x46, 0x00, 0x00, 0x00, 0x01, 0x00, 0x00, 0x00,
  0x00, 0x00, 0x00, 0x00, 0x47, 0x00, 0x00, 0x00, 0x18, 0x41, 0x00, 0x00,
  0x3c, 0x40, 0x00, 0x00, 0x64, 0x3f, 0x00, 0x00, 0x8c, 0x3e, 0x00, 0x00,
  0x88, 0x3d, 0x00, 0x00, 0x44, 0x3b, 0x00, 0x00, 0x00, 0x39, 0x00, 0x00,
  0xac, 0x38, 0x00, 0x00, 0x40, 0x38, 0x00, 0x00, 0xf4, 0x37, 0x00, 0x00,
  0xa4, 0x37, 0x00, 0x00, 0x58, 0x37, 0x00, 0x00, 0x74, 0x36, 0x00, 0x00,
  0x90, 0x35, 0x00, 0x00, 0xac, 0x34, 0x00, 0x00, 0xc8, 0x33, 0x00, 0x00,
  0xe4, 0x32, 0x00, 0x00, 0x00, 0x32, 0x00, 0x00, 0xe4, 0x2f, 0x00, 0x00,
  0x0c, 0x2f, 0x00, 0x00, 0x64, 0x2e, 0x00, 0x00, 0x44, 0x2d, 0x00, 0x00,
  0x58, 0x2c, 0x00, 0x00, 0x54, 0x2b, 0x00, 0x00, 0x7c, 0x2a, 0x00, 0x00,
  0x9c, 0x29, 0x00, 0x00, 0xc0, 0x28, 0x00, 0x00, 0xd0, 0x27, 0x00, 0x00,
  0xf4, 0x26, 0x00, 0x00, 0x04, 0x26, 0x00, 0x00, 0x0c, 0x25, 0x00, 0x00,
  0x30, 0x24, 0x00, 0x00, 0x48, 0x23, 0x00, 0x00, 0x6c, 0x22, 0x00, 0x00,
  0x84, 0x21, 0x00, 0x00, 0x9c, 0x20, 0x00, 0x00, 0x40, 0x1f, 0x00, 0x00,
  0x5c, 0x1e, 0x00, 0x00, 0x6c, 0x1d, 0x00, 0x00, 0x88, 0x1c, 0x00, 0x00,
  0xb0, 0x1b, 0x00, 0x00, 0xe0, 0x1a, 0x00, 0x00, 0x04, 0x1a, 0x00, 0x00,
  0x28, 0x19, 0x00, 0x00, 0x5c, 0x18, 0x00, 0x00, 0x7c, 0x17, 0x00, 0x00,
  0x94, 0x16, 0x00, 0x00, 0xb8, 0x15, 0x00, 0x00, 0xd0, 0x14, 0x00, 0x00,
  0xf4, 0x13, 0x00, 0x00, 0x0c, 0x13, 0x00, 0x00, 0x24, 0x12, 0x00, 0x00,
  0xc8, 0x10, 0x00, 0x00, 0xf4, 0x0f, 0x00, 0x00, 0x14, 0x0f, 0x00, 0x00,
  0x30, 0x0e, 0x00, 0x00, 0x58, 0x0d, 0x00, 0x00, 0x88, 0x0c, 0x00, 0x00,
  0xac, 0x0b, 0x00, 0x00, 0xd0, 0x0a, 0x00, 0x00, 0x04, 0x0a, 0x00, 0x00,
  0x24, 0x09, 0x00, 0x00, 0x3c, 0x08, 0x00, 0x00, 0x60, 0x07, 0x00, 0x00,
  0x78, 0x06, 0x00, 0x00, 0x9c, 0x05, 0x00, 0x00, 0xb4, 0x04, 0x00, 0x00,
  0xcc, 0x03, 0x00, 0x00, 0x70, 0x02, 0x00, 0x00, 0xb4, 0x00, 0x00, 0x00,
  0x34, 0x00, 0x00, 0x00, 0xc2, 0xd3, 0xff, 0xff, 0x09, 0x00, 0x00, 0x00,
  0x10, 0x00, 0x00, 0x00, 0x04, 0x00, 0x00, 0x00, 0x01, 0x00, 0x00, 0x00,
  0x46, 0x00, 0x00, 0x00, 0x01, 0x00, 0x00, 0x00, 0x45, 0x00, 0x00, 0x00,
  0xa4, 0xd2, 0xff, 0xff, 0x0e, 0x00, 0x00, 0x00, 0x00, 0x00, 0x00, 0x0e,
  0x01, 0x00, 0x00, 0x00, 0x4a, 0xc0, 0xff, 0xff, 0x00, 0x00, 0x00, 0x01,
  0x34, 0x00, 0x00, 0x00, 0x47, 0x00, 0x00, 0x00, 0x08, 0x00, 0x00, 0x00,
  0x34, 0x00, 0x00, 0x00, 0x1f, 0x00, 0x00, 0x00, 0x73, 0x65, 0x72, 0x76,
  0x69, 0x6e, 0x67, 0x5f, 0x64, 0x65, 0x66, 0x61, 0x75, 0x6c, 0x74, 0x5f,
  0x6f, 0x75, 0x74, 0x70, 0x75, 0x74, 0x5f, 0x30, 0x5f, 0x6f, 0x75, 0x74,
  0x70, 0x75, 0x74, 0x00, 0x02, 0x00, 0x00, 0x00, 0x01, 0x00, 0x00, 0x00,
  0x02, 0x00, 0x00, 0x00, 0x38, 0xc0, 0xff, 0xff, 0xea, 0xe2, 0xff, 0xff,
  0x00, 0x00, 0x00, 0x08, 0x18, 0x00, 0x00, 0x00, 0x0c, 0x00, 0x00, 0x00,
  0x04, 0x00, 0x00, 0x00, 0x50, 0xc0, 0xff, 0xff, 0x01, 0x00, 0x00, 0x00,
  0x45, 0x00, 0x00, 0x00, 0x03, 0x00, 0x00, 0x00, 0x44, 0x00, 0x00, 0x00,
  0x04, 0x00, 0x00, 0x00, 0x01, 0x00, 0x00, 0x00, 0xc6, 0xc0, 0xff, 0xff,
  0x00, 0x00, 0x00, 0x01, 0x80, 0x01, 0x00, 0x00, 0x46, 0x00, 0x00, 0x00,
  0x08, 0x00, 0x00, 0x00, 0x80, 0x01, 0x00, 0x00, 0x6a, 0x01, 0x00, 0x00,
  0x76, 0x6c, 0x70, 0x5f, 0x68, 0x61, 0x63, 0x6b, 0x61, 0x74, 0x68, 0x6f,
  0x6e, 0x2e, 0x69, 0x6d, 0x70, 0x72, 0x6f, 0x76, 0x65, 0x64, 0x5f, 0x6d,
  0x6f, 0x64, 0x65, 0x6c, 0x2e, 0x49, 0x6d, 0x70, 0x72, 0x6f, 0x76, 0x65,
  0x64, 0x4d, 0x4c, 0x50, 0x2f, 0x74, 0x6f, 0x72, 0x63, 0x68, 0x2e, 0x6e,
  0x6e, 0x2e, 0x6d, 0x6f, 0x64, 0x75, 0x6c, 0x65, 0x73, 0x2e, 0x63, 0x6f,
  0x6e, 0x74, 0x61, 0x69, 0x6e, 0x65, 0x72, 0x2e, 0x53, 0x65, 0x71, 0x75,
  0x65, 0x6e, 0x74, 0x69, 0x61, 0x6c, 0x5f, 0x6e, 0x65, 0x74, 0x2f, 0x74,
  0x6f, 0x72, 0x63, 0x68, 0x2e, 0x6e, 0x6e, 0x2e, 0x6d, 0x6f, 0x64, 0x75,
  0x6c, 0x65, 0x73, 0x2e, 0x6c, 0x69, 0x6e, 0x65, 0x61, 0x72, 0x2e, 0x4c,
  0x69, 0x6e, 0x65, 0x61, 0x72, 0x5f, 0x39, 0x3b, 0x3b, 0x76, 0x6c, 0x70,
  0x5f, 0x68, 0x61, 0x63, 0x6b, 0x61, 0x74, 0x68, 0x6f, 0x6e, 0x2e, 0x69,
  0x6d, 0x70, 0x72, 0x6f, 0x76, 0x65, 0x64, 0x5f, 0x6d, 0x6f, 0x64, 0x65,
  0x6c, 0x2e, 0x49, 0x6d, 0x70, 0x72, 0x6f, 0x76, 0x65, 0x64, 0x4d, 0x4c,
  0x50, 0x2f, 0x74, 0x6f, 0x72, 0x63, 0x68, 0x2e, 0x6e, 0x6e, 0x2e, 0x6d,
  0x6f, 0x64, 0x75, 0x6c, 0x65, 0x73, 0x2e, 0x63, 0x6f, 0x6e, 0x74, 0x61,
  0x69, 0x6e, 0x65, 0x72, 0x2e, 0x53, 0x65, 0x71, 0x75, 0x65, 0x6e, 0x74,
  0x69, 0x61, 0x6c, 0x5f, 0x6e, 0x65, 0x74, 0x2f, 0x74, 0x6f, 0x72, 0x63,
  0x68, 0x2e, 0x6e, 0x6e, 0x2e, 0x6d, 0x6f, 0x64, 0x75, 0x6c, 0x65, 0x73,
  0x2e, 0x61, 0x63, 0x74, 0x69, 0x76, 0x61, 0x74, 0x69, 0x6f, 0x6e, 0x2e,
  0x54, 0x61, 0x6e, 0x68, 0x5f, 0x38, 0x3b, 0x3b, 0x76, 0x6c, 0x70, 0x5f,
  0x68, 0x61, 0x63, 0x6b, 0x61, 0x74, 0x68, 0x6f, 0x6e, 0x2e, 0x69, 0x6d,
  0x70, 0x72, 0x6f, 0x76, 0x65, 0x64, 0x5f, 0x6d, 0x6f, 0x64, 0x65, 0x6c,
  0x2e, 0x49, 0x6d, 0x70, 0x72, 0x6f, 0x76, 0x65, 0x64, 0x4d, 0x4c, 0x50,
  0x2f, 0x74, 0x6f, 0x72, 0x63, 0x68, 0x2e, 0x6e, 0x6e, 0x2e, 0x6d, 0x6f,
  0x64, 0x75, 0x6c, 0x65, 0x73, 0x2e, 0x63, 0x6f, 0x6e, 0x74, 0x61, 0x69,
  0x6e, 0x65, 0x72, 0x2e, 0x53, 0x65, 0x71, 0x75, 0x65, 0x6e, 0x74, 0x69,
  0x61, 0x6c, 0x5f, 0x6e, 0x65, 0x74, 0x2f, 0x74, 0x6f, 0x72, 0x63, 0x68,
  0x2e, 0x6e, 0x6e, 0x2e, 0x6d, 0x6f, 0x64, 0x75, 0x6c, 0x65, 0x73, 0x2e,
  0x6e, 0x6f, 0x72, 0x6d, 0x61, 0x6c, 0x69, 0x7a, 0x61, 0x74, 0x69, 0x6f,
  0x6e, 0x2e, 0x4c, 0x61, 0x79, 0x65, 0x72, 0x4e, 0x6f, 0x72, 0x6d, 0x5f,
  0x37, 0x3b, 0x00, 0x00, 0x02, 0x00, 0x00, 0x00, 0x01, 0x00, 0x00, 0x00,
  0x02, 0x00, 0x00, 0x00, 0x00, 0xc2, 0xff, 0xff, 0x06, 0xd6, 0xff, 0xff,
  0x08, 0x00, 0x00, 0x00, 0x10, 0x00, 0x00, 0x00, 0x04, 0x00, 0x00, 0x00,
  0x01, 0x00, 0x00, 0x00, 0x44, 0x00, 0x00, 0x00, 0x01, 0x00, 0x00, 0x00,
  0x43, 0x00, 0x00, 0x00, 0x7e, 0xc2, 0xff, 0xff, 0x00, 0x00, 0x00, 0x01,
  0x0c, 0x01, 0x00, 0x00, 0x45, 0x00, 0x00, 0x00, 0x08, 0x00, 0x00, 0x00,
  0x10, 0x01, 0x00, 0x00, 0xf5, 0x00, 0x00, 0x00, 0x76, 0x6c, 0x70, 0x5f,
  0x68, 0x61, 0x63, 0x6b, 0x61, 0x74, 0x68, 0x6f, 0x6e, 0x2e, 0x69, 0x6d,
  0x70, 0x72, 0x6f, 0x76, 0x65, 0x64, 0x5f, 0x6d, 0x6f, 0x64, 0x65, 0x6c,
  0x2e, 0x49, 0x6d, 0x70, 0x72, 0x6f, 0x76, 0x65, 0x64, 0x4d, 0x4c, 0x50,
  0x2f, 0x74, 0x6f, 0x72, 0x63, 0x68, 0x2e, 0x6e, 0x6e, 0x2e, 0x6d, 0x6f,
  0x64, 0x75, 0x6c, 0x65, 0x73, 0x2e, 0x63, 0x6f, 0x6e, 0x74, 0x61, 0x69,
  0x6e, 0x65, 0x72, 0x2e, 0x53, 0x65, 0x71, 0x75, 0x65, 0x6e, 0x74, 0x69,
  0x61, 0x6c, 0x5f, 0x6e, 0x65, 0x74, 0x2f, 0x74, 0x6f, 0x72, 0x63, 0x68,
  0x2e, 0x6e, 0x6e, 0x2e, 0x6d, 0x6f, 0x64, 0x75, 0x6c, 0x65, 0x73, 0x2e,
  0x61, 0x63, 0x74, 0x69, 0x76, 0x61, 0x74, 0x69, 0x6f, 0x6e, 0x2e, 0x54,
  0x61, 0x6e, 0x68, 0x5f, 0x38, 0x3b, 0x3b, 0x76, 0x6c, 0x70, 0x5f, 0x68,
  0x61, 0x63, 0x6b, 0x61, 0x74, 0x68, 0x6f, 0x6e, 0x2e, 0x69, 0x6d, 0x70,
  0x72, 0x6f, 0x76, 0x65, 0x64, 0x5f, 0x6d, 0x6f, 0x64, 0x65, 0x6c, 0x2e,
  0x49, 0x6d, 0x70, 0x72, 0x6f, 0x76, 0x65, 0x64, 0x4d, 0x4c, 0x50, 0x2f,
  0x74, 0x6f, 0x72, 0x63, 0x68, 0x2e, 0x6e, 0x6e, 0x2e, 0x6d, 0x6f, 0x64,
  0x75, 0x6c, 0x65, 0x73, 0x2e, 0x63, 0x6f, 0x6e, 0x74, 0x61, 0x69, 0x6e,
  0x65, 0x72, 0x2e, 0x53, 0x65, 0x71, 0x75, 0x65, 0x6e, 0x74, 0x69, 0x61,
  0x6c, 0x5f, 0x6e, 0x65, 0x74, 0x2f, 0x74, 0x6f, 0x72, 0x63, 0x68, 0x2e,
  0x6e, 0x6e, 0x2e, 0x6d, 0x6f, 0x64, 0x75, 0x6c, 0x65, 0x73, 0x2e, 0x6e,
  0x6f, 0x72, 0x6d, 0x61, 0x6c, 0x69, 0x7a, 0x61, 0x74, 0x69, 0x6f, 0x6e,
  0x2e, 0x4c, 0x61, 0x79, 0x65, 0x72, 0x4e, 0x6f, 0x72, 0x6d, 0x5f, 0x37,
  0x3b, 0x00, 0x00, 0x00, 0x03, 0x00, 0x00, 0x00, 0x01, 0x00, 0x00, 0x00,
  0x01, 0x00, 0x00, 0x00, 0x0a, 0x00, 0x00, 0x00, 0x48, 0xc3, 0xff, 0xff,
  0x46, 0xd8, 0xff, 0xff, 0x00, 0x00, 0x00, 0x0b, 0x04, 0x00, 0x00, 0x00,
  0x18, 0x00, 0x00, 0x00, 0x0c, 0x00, 0x00, 0x00, 0x04, 0x00, 0x00, 0x00,
  0x64, 0xc3, 0xff, 0xff, 0x01, 0x00, 0x00, 0x00, 0x43, 0x00, 0x00, 0x00,
  0x02, 0x00, 0x00, 0x00, 0x42, 0x00, 0x00, 0x00, 0x0c, 0x00, 0x00, 0x00,
  0xd6, 0xc3, 0xff, 0xff, 0x00, 0x00, 0x00, 0x01, 0x98, 0x00, 0x00, 0x00,
  0x44, 0x00, 0x00, 0x00, 0x08, 0x00, 0x00, 0x00, 0x9c, 0x00, 0x00, 0x00,
  0x80, 0x00, 0x00, 0x00, 0x76, 0x6c, 0x70, 0x5f, 0x68, 0x61, 0x63, 0x6b,
  0x61, 0x74, 0x68, 0x6f, 0x6e, 0x2e, 0x69, 0x6d, 0x70, 0x72, 0x6f, 0x76,
  0x65, 0x64, 0x5f, 0x6d, 0x6f, 0x64, 0x65, 0x6c, 0x2e, 0x49, 0x6d, 0x70,
  0x72, 0x6f, 0x76, 0x65, 0x64, 0x4d, 0x4c, 0x50, 0x2f, 0x74, 0x6f, 0x72,
  0x63, 0x68, 0x2e, 0x6e, 0x6e, 0x2e, 0x6d, 0x6f, 0x64, 0x75, 0x6c, 0x65,
  0x73, 0x2e, 0x63, 0x6f, 0x6e, 0x74, 0x61, 0x69, 0x6e, 0x65, 0x72, 0x2e,
  0x53, 0x65, 0x71, 0x75, 0x65, 0x6e, 0x74, 0x69, 0x61, 0x6c, 0x5f, 0x6e,
  0x65, 0x74, 0x2f, 0x74, 0x6f, 0x72, 0x63, 0x68, 0x2e, 0x6e, 0x6e, 0x2e,
  0x6d, 0x6f, 0x64, 0x75, 0x6c, 0x65, 0x73, 0x2e, 0x6e, 0x6f, 0x72, 0x6d,
  0x61, 0x6c, 0x69, 0x7a, 0x61, 0x74, 0x69, 0x6f, 0x6e, 0x2e, 0x4c, 0x61,
  0x79, 0x65, 0x72, 0x4e, 0x6f, 0x72, 0x6d, 0x5f, 0x37, 0x3b, 0x31, 0x36,
  0x00, 0x00, 0x00, 0x00, 0x03, 0x00, 0x00, 0x00, 0x01, 0x00, 0x00, 0x00,
  0x01, 0x00, 0x00, 0x00, 0x0a, 0x00, 0x00, 0x00, 0x2c, 0xc4, 0xff, 0xff,
  0x2a, 0xd9, 0xff, 0xff, 0x00, 0x00, 0x00, 0x15, 0x06, 0x00, 0x00, 0x00,
  0x18, 0x00, 0x00, 0x00, 0x0c, 0x00, 0x00, 0x00, 0x04, 0x00, 0x00, 0x00,
  0x48, 0xc4, 0xff, 0xff, 0x01, 0x00, 0x00, 0x00, 0x42, 0x00, 0x00, 0x00,
  0x02, 0x00, 0x00, 0x00, 0x41, 0x00, 0x00, 0x00, 0x0d, 0x00, 0x00, 0x00,
  0xba, 0xc4, 0xff, 0xff, 0x00, 0x00, 0x00, 0x01, 0x98, 0x00, 0x00, 0x00,
  0x43, 0x00, 0x00, 0x00, 0x08, 0x00, 0x00, 0x00, 0x9c, 0x00, 0x00, 0x00,
  0x80, 0x00, 0x00, 0x00, 0x76, 0x6c, 0x70, 0x5f, 0x68, 0x61, 0x63, 0x6b,
  0x61, 0x74, 0x68, 0x6f, 0x6e, 0x2e, 0x69, 0x6d, 0x70, 0x72, 0x6f, 0x76,
  0x65, 0x64, 0x5f, 0x6d, 0x6f, 0x64, 0x65, 0x6c, 0x2e, 0x49, 0x6d, 0x70,
  0x72, 0x6f, 0x76, 0x65, 0x64, 0x4d, 0x4c, 0x50, 0x2f, 0x74, 0x6f, 0x72,
  0x63, 0x68, 0x2e, 0x6e, 0x6e, 0x2e, 0x6d, 0x6f, 0x64, 0x75, 0x6c, 0x65,
  0x73, 0x2e, 0x63, 0x6f, 0x6e, 0x74, 0x61, 0x69, 0x6e, 0x65, 0x72, 0x2e,
  0x53, 0x65, 0x71, 0x75, 0x65, 0x6e, 0x74, 0x69, 0x61, 0x6c, 0x5f, 0x6e,
  0x65, 0x74, 0x2f, 0x74, 0x6f, 0x72, 0x63, 0x68, 0x2e, 0x6e, 0x6e, 0x2e,
  0x6d, 0x6f, 0x64, 0x75, 0x6c, 0x65, 0x73, 0x2e, 0x6e, 0x6f, 0x72, 0x6d,
  0x61, 0x6c, 0x69, 0x7a, 0x61, 0x74, 0x69, 0x6f, 0x6e, 0x2e, 0x4c, 0x61,
  0x79, 0x65, 0x72, 0x4e, 0x6f, 0x72, 0x6d, 0x5f, 0x37, 0x3b, 0x31, 0x35,
  0x00, 0x00, 0x00, 0x00, 0x03, 0x00, 0x00, 0x00, 0x01, 0x00, 0x00, 0x00,
  0x01, 0x00, 0x00, 0x00, 0x0a, 0x00, 0x00, 0x00, 0x10, 0xc5, 0xff, 0xff,
  0x0e, 0xda, 0xff, 0xff, 0x00, 0x00, 0x00, 0x0b, 0x04, 0x00, 0x00, 0x00,
  0x18, 0x00, 0x00, 0x00, 0x0c, 0x00, 0x00, 0x00, 0x04, 0x00, 0x00, 0x00,
  0x2c, 0xc5, 0xff, 0xff, 0x01, 0x00, 0x00, 0x00, 0x41, 0x00, 0x00, 0x00,
  0x02, 0x00, 0x00, 0x00, 0x3f, 0x00, 0x00, 0x00, 0x40, 0x00, 0x00, 0x00,
  0x9e, 0xc5, 0xff, 0xff, 0x00, 0x00, 0x00, 0x01, 0x98, 0x00, 0x00, 0x00,
  0x42, 0x00, 0x00, 0x00, 0x08, 0x00, 0x00, 0x00, 0x9c, 0x00, 0x00, 0x00,
  0x80, 0x00, 0x00, 0x00, 0x76, 0x6c, 0x70, 0x5f, 0x68, 0x61, 0x63, 0x6b,
  0x61, 0x74, 0x68, 0x6f, 0x6e, 0x2e, 0x69, 0x6d, 0x70, 0x72, 0x6f, 0x76,
  0x65, 0x64, 0x5f, 0x6d, 0x6f, 0x64, 0x65, 0x6c, 0x2e, 0x49, 0x6d, 0x70,
  0x72, 0x6f, 0x76, 0x65, 0x64, 0x4d, 0x4c, 0x50, 0x2f, 0x74, 0x6f, 0x72,
  0x63, 0x68, 0x2e, 0x6e, 0x6e, 0x2e, 0x6d, 0x6f, 0x64, 0x75, 0x6c, 0x65,
  0x73, 0x2e, 0x63, 0x6f, 0x6e, 0x74, 0x61, 0x69, 0x6e, 0x65, 0x72, 0x2e,
  0x53, 0x65, 0x71, 0x75, 0x65, 0x6e, 0x74, 0x69, 0x61, 0x6c, 0x5f, 0x6e,
  0x65, 0x74, 0x2f, 0x74, 0x6f, 0x72, 0x63, 0x68, 0x2e, 0x6e, 0x6e, 0x2e,
  0x6d, 0x6f, 0x64, 0x75, 0x6c, 0x65, 0x73, 0x2e, 0x6e, 0x6f, 0x72, 0x6d,
  0x61, 0x6c, 0x69, 0x7a, 0x61, 0x74, 0x69, 0x6f, 0x6e, 0x2e, 0x4c, 0x61,
  0x79, 0x65, 0x72, 0x4e, 0x6f, 0x72, 0x6d, 0x5f, 0x37, 0x3b, 0x31, 0x34,
  0x00, 0x00, 0x00, 0x00, 0x03, 0x00, 0x00, 0x00, 0x01, 0x00, 0x00, 0x00,
  0x01, 0x00, 0x00, 0x00, 0x0a, 0x00, 0x00, 0x00, 0xf4, 0xc5, 0xff, 0xff,
  0xfa, 0xd9, 0xff, 0xff, 0x01, 0x00, 0x00, 0x00, 0x10, 0x00, 0x00, 0x00,
  0x04, 0x00, 0x00, 0x00, 0x01, 0x00, 0x00, 0x00, 0x40, 0x00, 0x00, 0x00,
  0x02, 0x00, 0x00, 0x00, 0x3d, 0x00, 0x00, 0x00, 0x08, 0x00, 0x00, 0x00,
  0x76, 0xc6, 0xff, 0xff, 0x00, 0x00, 0x00, 0x01, 0x98, 0x00, 0x00, 0x00,
  0x41, 0x00, 0x00, 0x00, 0x08, 0x00, 0x00, 0x00, 0x9c, 0x00, 0x00, 0x00,
  0x80, 0x00, 0x00, 0x00, 0x76, 0x6c, 0x70, 0x5f, 0x68, 0x61, 0x63, 0x6b,
  0x61, 0x74, 0x68, 0x6f, 0x6e, 0x2e, 0x69, 0x6d, 0x70, 0x72, 0x6f, 0x76,
  0x65, 0x64, 0x5f, 0x6d, 0x6f, 0x64, 0x65, 0x6c, 0x2e, 0x49, 0x6d, 0x70,
  0x72, 0x6f, 0x76, 0x65, 0x64, 0x4d, 0x4c, 0x50, 0x2f, 0x74, 0x6f, 0x72,
  0x63, 0x68, 0x2e, 0x6e, 0x6e, 0x2e, 0x6d, 0x6f, 0x64, 0x75, 0x6c, 0x65,
  0x73, 0x2e, 0x63, 0x6f, 0x6e, 0x74, 0x61, 0x69, 0x6e, 0x65, 0x72, 0x2e,
  0x53, 0x65, 0x71, 0x75, 0x65, 0x6e, 0x74, 0x69, 0x61, 0x6c, 0x5f, 0x6e,
  0x65, 0x74, 0x2f, 0x74, 0x6f, 0x72, 0x63, 0x68, 0x2e, 0x6e, 0x6e, 0x2e,
  0x6d, 0x6f, 0x64, 0x75, 0x6c, 0x65, 0x73, 0x2e, 0x6e, 0x6f, 0x72, 0x6d,
  0x61, 0x6c, 0x69, 0x7a, 0x61, 0x74, 0x69, 0x6f, 0x6e, 0x2e, 0x4c, 0x61,
  0x79, 0x65, 0x72, 0x4e, 0x6f, 0x72, 0x6d, 0x5f, 0x37, 0x3b, 0x31, 0x33,
  0x00, 0x00, 0x00, 0x00, 0x03, 0x00, 0x00, 0x00, 0x01, 0x00, 0x00, 0x00,
  0x01, 0x00, 0x00, 0x00, 0x01, 0x00, 0x00, 0x00, 0xcc, 0xc6, 0xff, 0xff,
  0xca, 0xdb, 0xff, 0xff, 0x00, 0x00, 0x00, 0x15, 0x06, 0x00, 0x00, 0x00,
  0x18, 0x00, 0x00, 0x00, 0x0c, 0x00, 0x00, 0x00, 0x04, 0x00, 0x00, 0x00,
  0xe8, 0xc6, 0xff, 0xff, 0x01, 0x00, 0x00, 0x00, 0x3f, 0x00, 0x00, 0x00,
  0x02, 0x00, 0x00, 0x00, 0x35, 0x00, 0x00, 0x00, 0x3e, 0x00, 0x00, 0x00,
  0x5a, 0xc7, 0xff, 0xff, 0x00, 0x00, 0x00, 0x01, 0x98, 0x00, 0x00, 0x00,
  0x40, 0x00, 0x00, 0x00, 0x08, 0x00, 0x00, 0x00, 0x9c, 0x00, 0x00, 0x00,
  0x80, 0x00, 0x00, 0x00, 0x76, 0x6c, 0x70, 0x5f, 0x68, 0x61, 0x63, 0x6b,
  0x61, 0x74, 0x68, 0x6f, 0x6e, 0x2e, 0x69, 0x6d, 0x70, 0x72, 0x6f, 0x76,
  0x65, 0x64, 0x5f, 0x6d, 0x6f, 0x64, 0x65, 0x6c, 0x2e, 0x49, 0x6d, 0x70,
  0x72, 0x6f, 0x76, 0x65, 0x64, 0x4d, 0x4c, 0x50, 0x2f, 0x74, 0x6f, 0x72,
  0x63, 0x68, 0x2e, 0x6e, 0x6e, 0x2e, 0x6d, 0x6f, 0x64, 0x75, 0x6c, 0x65,
  0x73, 0x2e, 0x63, 0x6f, 0x6e, 0x74, 0x61, 0x69, 0x6e, 0x65, 0x72, 0x2e,
  0x53, 0x65, 0x71, 0x75, 0x65, 0x6e, 0x74, 0x69, 0x61, 0x6c, 0x5f, 0x6e,
  0x65, 0x74, 0x2f, 0x74, 0x6f, 0x72, 0x63, 0x68, 0x2e, 0x6e, 0x6e, 0x2e,
  0x6d, 0x6f, 0x64, 0x75, 0x6c, 0x65, 0x73, 0x2e, 0x6e, 0x6f, 0x72, 0x6d,
  0x61, 0x6c, 0x69, 0x7a, 0x61, 0x74, 0x69, 0x6f, 0x6e, 0x2e, 0x4c, 0x61,
  0x79, 0x65, 0x72, 0x4e, 0x6f, 0x72, 0x6d, 0x5f, 0x37, 0x3b, 0x31, 0x32,
  0x00, 0x00, 0x00, 0x00, 0x03, 0x00, 0x00, 0x00, 0x01, 0x00, 0x00, 0x00,
  0x01, 0x00, 0x00, 0x00, 0x0a, 0x00, 0x00, 0x00, 0xb0, 0xc7, 0xff, 0xff,
  0xb6, 0xdb, 0xff, 0xff, 0x01, 0x00, 0x00, 0x00, 0x10, 0x00, 0x00, 0x00,
  0x04, 0x00, 0x00, 0x00, 0x01, 0x00, 0x00, 0x00, 0x3e, 0x00, 0x00, 0x00,
  0x02, 0x00, 0x00, 0x00, 0x3b, 0x00, 0x00, 0x00, 0x08, 0x00, 0x00, 0x00,
  0x32, 0xc8, 0xff, 0xff, 0x00, 0x00, 0x00, 0x01, 0x98, 0x00, 0x00, 0x00,
  0x3f, 0x00, 0x00, 0x00, 0x08, 0x00, 0x00, 0x00, 0x9c, 0x00, 0x00, 0x00,
  0x80, 0x00, 0x00, 0x00, 0x76, 0x6c, 0x70, 0x5f, 0x68, 0x61, 0x63, 0x6b,
  0x61, 0x74, 0x68, 0x6f, 0x6e, 0x2e, 0x69, 0x6d, 0x70, 0x72, 0x6f, 0x76,
  0x65, 0x64, 0x5f, 0x6d, 0x6f, 0x64, 0x65, 0x6c, 0x2e, 0x49, 0x6d, 0x70,
  0x72, 0x6f, 0x76, 0x65, 0x64, 0x4d, 0x4c, 0x50, 0x2f, 0x74, 0x6f, 0x72,
  0x63, 0x68, 0x2e, 0x6e, 0x6e, 0x2e, 0x6d, 0x6f, 0x64, 0x75, 0x6c, 0x65,
  0x73, 0x2e, 0x63, 0x6f, 0x6e, 0x74, 0x61, 0x69, 0x6e, 0x65, 0x72, 0x2e,
  0x53, 0x65, 0x71, 0x75, 0x65, 0x6e, 0x74, 0x69, 0x61, 0x6c, 0x5f, 0x6e,
  0x65, 0x74, 0x2f, 0x74, 0x6f, 0x72, 0x63, 0x68, 0x2e, 0x6e, 0x6e, 0x2e,
  0x6d, 0x6f, 0x64, 0x75, 0x6c, 0x65, 0x73, 0x2e, 0x6e, 0x6f, 0x72, 0x6d,
  0x61, 0x6c, 0x69, 0x7a, 0x61, 0x74, 0x69, 0x6f, 0x6e, 0x2e, 0x4c, 0x61,
  0x79, 0x65, 0x72, 0x4e, 0x6f, 0x72, 0x6d, 0x5f, 0x37, 0x3b, 0x31, 0x31,
  0x00, 0x00, 0x00, 0x00, 0x03, 0x00, 0x00, 0x00, 0x01, 0x00, 0x00, 0x00,
  0x01, 0x00, 0x00, 0x00, 0x01, 0x00, 0x00, 0x00, 0x88, 0xc8, 0xff, 0xff,
  0x86, 0xdd, 0xff, 0xff, 0x00, 0x00, 0x00, 0x1c, 0x07, 0x00, 0x00, 0x00,
  0x18, 0x00, 0x00, 0x00, 0x0c, 0x00, 0x00, 0x00, 0x04, 0x00, 0x00, 0x00,
  0xa4, 0xc8, 0xff, 0xff, 0x01, 0x00, 0x00, 0x00, 0x3d, 0x00, 0x00, 0x00,
  0x02, 0x00, 0x00, 0x00, 0x09, 0x00, 0x00, 0x00, 0x3c, 0x00, 0x00, 0x00,
  0x16, 0xc9, 0xff, 0xff, 0x00, 0x00, 0x00, 0x01, 0x98, 0x00, 0x00, 0x00,
  0x3e, 0x00, 0x00, 0x00, 0x08, 0x00, 0x00, 0x00, 0x94, 0x00, 0x00, 0x00,
  0x80, 0x00, 0x00, 0x00, 0x76, 0x6c, 0x70, 0x5f, 0x68, 0x61, 0x63, 0x6b,
  0x61, 0x74, 0x68, 0x6f, 0x6e, 0x2e, 0x69, 0x6d, 0x70, 0x72, 0x6f, 0x76,
  0x65, 0x64, 0x5f, 0x6d, 0x6f, 0x64, 0x65, 0x6c, 0x2e, 0x49, 0x6d, 0x70,
  0x72, 0x6f, 0x76, 0x65, 0x64, 0x4d, 0x4c, 0x50, 0x2f, 0x74, 0x6f, 0x72,
  0x63, 0x68, 0x2e, 0x6e, 0x6e, 0x2e, 0x6d, 0x6f, 0x64, 0x75, 0x6c, 0x65,
  0x73, 0x2e, 0x63, 0x6f, 0x6e, 0x74, 0x61, 0x69, 0x6e, 0x65, 0x72, 0x2e,
  0x53, 0x65, 0x71, 0x75, 0x65, 0x6e, 0x74, 0x69, 0x61, 0x6c, 0x5f, 0x6e,
  0x65, 0x74, 0x2f, 0x74, 0x6f, 0x72, 0x63, 0x68, 0x2e, 0x6e, 0x6e, 0x2e,
  0x6d, 0x6f, 0x64, 0x75, 0x6c, 0x65, 0x73, 0x2e, 0x6e, 0x6f, 0x72, 0x6d,
  0x61, 0x6c, 0x69, 0x7a, 0x61, 0x74, 0x69, 0x6f, 0x6e, 0x2e, 0x4c, 0x61,
  0x79, 0x65, 0x72, 0x4e, 0x6f, 0x72, 0x6d, 0x5f, 0x37, 0x3b, 0x31, 0x30,
  0x00, 0x00, 0x00, 0x00, 0x01, 0x00, 0x00, 0x00, 0x01, 0x00, 0x00, 0x00,
  0x64, 0xc9, 0xff, 0xff, 0x62, 0xde, 0xff, 0xff, 0x00, 0x00, 0x00, 0x15,
  0x06, 0x00, 0x00, 0x00, 0x18, 0x00, 0x00, 0x00, 0x0c, 0x00, 0x00, 0x00,
  0x04, 0x00, 0x00, 0x00, 0x80, 0xc9, 0xff, 0xff, 0x01, 0x00, 0x00, 0x00,
  0x3c, 0x00, 0x00, 0x00, 0x02, 0x00, 0x00, 0x00, 0x3b, 0x00, 0x00, 0x00,
  0x36, 0x00, 0x00, 0x00, 0xf2, 0xc9, 0xff, 0xff, 0x00, 0x00, 0x00, 0x01,
  0x94, 0x00, 0x00, 0x00, 0x3d, 0x00, 0x00, 0x00, 0x08, 0x00, 0x00, 0x00,
  0x90, 0x00, 0x00, 0x00, 0x7f, 0x00, 0x00, 0x00, 0x76, 0x6c, 0x70, 0x5f,
  0x68, 0x61, 0x63, 0x6b, 0x61, 0x74, 0x68, 0x6f, 0x6e, 0x2e, 0x69, 0x6d,
  0x70, 0x72, 0x6f, 0x76, 0x65, 0x64, 0x5f, 0x6d, 0x6f, 0x64, 0x65, 0x6c,
  0x2e, 0x49, 0x6d, 0x70, 0x72, 0x6f, 0x76, 0x65, 0x64, 0x4d, 0x4c, 0x50,
  0x2f, 0x74, 0x6f, 0x72, 0x63, 0x68, 0x2e, 0x6e, 0x6e, 0x2e, 0x6d, 0x6f,
  0x64, 0x75, 0x6c, 0x65, 0x73, 0x2e, 0x63, 0x6f, 0x6e, 0x74, 0x61, 0x69,
  0x6e, 0x65, 0x72, 0x2e, 0x53, 0x65, 0x71, 0x75, 0x65, 0x6e, 0x74, 0x69,
  0x61, 0x6c, 0x5f, 0x6e, 0x65, 0x74, 0x2f, 0x74, 0x6f, 0x72, 0x63, 0x68,
  0x2e, 0x6e, 0x6e, 0x2e, 0x6d, 0x6f, 0x64, 0x75, 0x6c, 0x65, 0x73, 0x2e,
  0x6e, 0x6f, 0x72, 0x6d, 0x61, 0x6c, 0x69, 0x7a, 0x61, 0x74, 0x69, 0x6f,
  0x6e, 0x2e, 0x4c, 0x61, 0x79, 0x65, 0x72, 0x4e, 0x6f, 0x72, 0x6d, 0x5f,
  0x37, 0x3b, 0x39, 0x00, 0x01, 0x00, 0x00, 0x00, 0x01, 0x00, 0x00, 0x00,
  0x3c, 0xca, 0xff, 0xff, 0x42, 0xde, 0xff, 0xff, 0x05, 0x00, 0x00, 0x00,
  0x10, 0x00, 0x00, 0x00, 0x04, 0x00, 0x00, 0x00, 0x01, 0x00, 0x00, 0x00,
  0x3b, 0x00, 0x00, 0x00, 0x01, 0x00, 0x00, 0x00, 0x3a, 0x00, 0x00, 0x00,
  0xba, 0xca, 0xff, 0xff, 0x00, 0x00, 0x00, 0x01, 0x94, 0x00, 0x00, 0x00,
  0x3c, 0x00, 0x00, 0x00, 0x08, 0x00, 0x00, 0x00, 0x90, 0x00, 0x00, 0x00,
  0x7f, 0x00, 0x00, 0x00, 0x76, 0x6c, 0x70, 0x5f, 0x68, 0x61, 0x63, 0x6b,
  0x61, 0x74, 0x68, 0x6f, 0x6e, 0x2e, 0x69, 0x6d, 0x70, 0x72, 0x6f, 0x76,
  0x65, 0x64, 0x5f, 0x6d, 0x6f, 0x64, 0x65, 0x6c, 0x2e, 0x49, 0x6d, 0x70,
  0x72, 0x6f, 0x76, 0x65, 0x64, 0x4d, 0x4c, 0x50, 0x2f, 0x74, 0x6f, 0x72,
  0x63, 0x68, 0x2e, 0x6e, 0x6e, 0x2e, 0x6d, 0x6f, 0x64, 0x75, 0x6c, 0x65,
  0x73, 0x2e, 0x63, 0x6f, 0x6e, 0x74, 0x61, 0x69, 0x6e, 0x65, 0x72, 0x2e,
  0x53, 0x65, 0x71, 0x75, 0x65, 0x6e, 0x74, 0x69, 0x61, 0x6c, 0x5f, 0x6e,
  0x65, 0x74, 0x2f, 0x74, 0x6f, 0x72, 0x63, 0x68, 0x2e, 0x6e, 0x6e, 0x2e,
  0x6d, 0x6f, 0x64, 0x75, 0x6c, 0x65, 0x73, 0x2e, 0x6e, 0x6f, 0x72, 0x6d,
  0x61, 0x6c, 0x69, 0x7a, 0x61, 0x74, 0x69, 0x6f, 0x6e, 0x2e, 0x4c, 0x61,
  0x79, 0x65, 0x72, 0x4e, 0x6f, 0x72, 0x6d, 0x5f, 0x37, 0x3b, 0x38, 0x00,
  0x01, 0x00, 0x00, 0x00, 0x01, 0x00, 0x00, 0x00, 0x04, 0xcb, 0xff, 0xff,
  0x02, 0xe0, 0xff, 0xff, 0x00, 0x00, 0x00, 0x0b, 0x04, 0x00, 0x00, 0x00,
  0x18, 0x00, 0x00, 0x00, 0x0c, 0x00, 0x00, 0x00, 0x04, 0x00, 0x00, 0x00,
  0x20, 0xcb, 0xff, 0xff, 0x01, 0x00, 0x00, 0x00, 0x3a, 0x00, 0x00, 0x00,
  0x02, 0x00, 0x00, 0x00, 0x39, 0x00, 0x00, 0x00, 0x0b, 0x00, 0x00, 0x00,
  0x92, 0xcb, 0xff, 0xff, 0x00, 0x00, 0x00, 0x01, 0x94, 0x00, 0x00, 0x00,
  0x3b, 0x00, 0x00, 0x00, 0x08, 0x00, 0x00, 0x00, 0x90, 0x00, 0x00, 0x00,
  0x7f, 0x00, 0x00, 0x00, 0x76, 0x6c, 0x70, 0x5f, 0x68, 0x61, 0x63, 0x6b,
  0x61, 0x74, 0x68, 0x6f, 0x6e, 0x2e, 0x69, 0x6d, 0x70, 0x72, 0x6f, 0x76,
  0x65, 0x64, 0x5f, 0x6d, 0x6f, 0x64, 0x65, 0x6c, 0x2e, 0x49, 0x6d, 0x70,
  0x72, 0x6f, 0x76, 0x65, 0x64, 0x4d, 0x4c, 0x50, 0x2f, 0x74, 0x6f, 0x72,
  0x63, 0x68, 0x2e, 0x6e, 0x6e, 0x2e, 0x6d, 0x6f, 0x64, 0x75, 0x6c, 0x65,
  0x73, 0x2e, 0x63, 0x6f, 0x6e, 0x74, 0x61, 0x69, 0x6e, 0x65, 0x72, 0x2e,
  0x53, 0x65, 0x71, 0x75, 0x65, 0x6e, 0x74, 0x69, 0x61, 0x6c, 0x5f, 0x6e,
  0x65, 0x74, 0x2f, 0x74, 0x6f, 0x72, 0x63, 0x68, 0x2e, 0x6e, 0x6e, 0x2e,
  0x6d, 0x6f, 0x64, 0x75, 0x6c, 0x65, 0x73, 0x2e, 0x6e, 0x6f, 0x72, 0x6d,
  0x61, 0x6c, 0x69, 0x7a, 0x61, 0x74, 0x69, 0x6f, 0x6e, 0x2e, 0x4c, 0x61,
  0x79, 0x65, 0x72, 0x4e, 0x6f, 0x72, 0x6d, 0x5f, 0x37, 0x3b, 0x37, 0x00,
  0x01, 0x00, 0x00, 0x00, 0x01, 0x00, 0x00, 0x00, 0xdc, 0xcb, 0xff, 0xff,
  0xda, 0xe0, 0xff, 0xff, 0x00, 0x00, 0x00, 0x1b, 0x02, 0x00, 0x00, 0x00,
  0x18, 0x00, 0x00, 0x00, 0x0c, 0x00, 0x00, 0x00, 0x04, 0x00, 0x00, 0x00,
  0xf8, 0xcb, 0xff, 0xff, 0x01, 0x00, 0x00, 0x00, 0x39, 0x00, 0x00, 0x00,
  0x02, 0x00, 0x00, 0x00, 0x38, 0x00, 0x00, 0x00, 0x0a, 0x00, 0x00, 0x00,
  0x6a, 0xcc, 0xff, 0xff, 0x00, 0x00, 0x00, 0x01, 0x94, 0x00, 0x00, 0x00,
  0x3a, 0x00, 0x00, 0x00, 0x08, 0x00, 0x00, 0x00, 0x90, 0x00, 0x00, 0x00,
  0x7f, 0x00, 0x00, 0x00, 0x76, 0x6c, 0x70, 0x5f, 0x68, 0x61, 0x63, 0x6b,
  0x61, 0x74, 0x68, 0x6f, 0x6e, 0x2e, 0x69, 0x6d, 0x70, 0x72, 0x6f, 0x76,
  0x65, 0x64, 0x5f, 0x6d, 0x6f, 0x64, 0x65, 0x6c, 0x2e, 0x49, 0x6d, 0x70,
  0x72, 0x6f, 0x76, 0x65, 0x64, 0x4d, 0x4c, 0x50, 0x2f, 0x74, 0x6f, 0x72,
  0x63, 0x68, 0x2e, 0x6e, 0x6e, 0x2e, 0x6d, 0x6f, 0x64, 0x75, 0x6c, 0x65,
  0x73, 0x2e, 0x63, 0x6f, 0x6e, 0x74, 0x61, 0x69, 0x6e, 0x65, 0x72, 0x2e,
  0x53, 0x65, 0x71, 0x75, 0x65, 0x6e, 0x74, 0x69, 0x61, 0x6c, 0x5f, 0x6e,
  0x65, 0x74, 0x2f, 0x74, 0x6f, 0x72, 0x63, 0x68, 0x2e, 0x6e, 0x6e, 0x2e,
  0x6d, 0x6f, 0x64, 0x75, 0x6c, 0x65, 0x73, 0x2e, 0x6e, 0x6f, 0x72, 0x6d,
  0x61, 0x6c, 0x69, 0x7a, 0x61, 0x74, 0x69, 0x6f, 0x6e, 0x2e, 0x4c, 0x61,
  0x79, 0x65, 0x72, 0x4e, 0x6f, 0x72, 0x6d, 0x5f, 0x37, 0x3b, 0x36, 0x00,
  0x01, 0x00, 0x00, 0x00, 0x01, 0x00, 0x00, 0x00, 0xb4, 0xcc, 0xff, 0xff,
  0xba, 0xe0, 0xff, 0xff, 0x03, 0x00, 0x00, 0x00, 0x10, 0x00, 0x00, 0x00,
  0x04, 0x00, 0x00, 0x00, 0x01, 0x00, 0x00, 0x00, 0x38, 0x00, 0x00, 0x00,
  0x02, 0x00, 0x00, 0x00, 0x35, 0x00, 0x00, 0x00, 0x37, 0x00, 0x00, 0x00,
  0x36, 0xcd, 0xff, 0xff, 0x00, 0x00, 0x00, 0x01, 0x94, 0x00, 0x00, 0x00,
  0x39, 0x00, 0x00, 0x00, 0x08, 0x00, 0x00, 0x00, 0x98, 0x00, 0x00, 0x00,
  0x7f, 0x00, 0x00, 0x00, 0x76, 0x6c, 0x70, 0x5f, 0x68, 0x61, 0x63, 0x6b,
  0x61, 0x74, 0x68, 0x6f, 0x6e, 0x2e, 0x69, 0x6d, 0x70, 0x72, 0x6f, 0x76,
  0x65, 0x64, 0x5f, 0x6d, 0x6f, 0x64, 0x65, 0x6c, 0x2e, 0x49, 0x6d, 0x70,
  0x72, 0x6f, 0x76, 0x65, 0x64, 0x4d, 0x4c, 0x50, 0x2f, 0x74, 0x6f, 0x72,
  0x63, 0x68, 0x2e, 0x6e, 0x6e, 0x2e, 0x6d, 0x6f, 0x64, 0x75, 0x6c, 0x65,
  0x73, 0x2e, 0x63, 0x6f, 0x6e, 0x74, 0x61, 0x69, 0x6e, 0x65, 0x72, 0x2e,
  0x53, 0x65, 0x71, 0x75, 0x65, 0x6e, 0x74, 0x69, 0x61, 0x6c, 0x5f, 0x6e,
  0x65, 0x74, 0x2f, 0x74, 0x6f, 0x72, 0x63, 0x68, 0x2e, 0x6e, 0x6e, 0x2e,
  0x6d, 0x6f, 0x64, 0x75, 0x6c, 0x65, 0x73, 0x2e, 0x6e, 0x6f, 0x72, 0x6d,
  0x61, 0x6c, 0x69, 0x7a, 0x61, 0x74, 0x69, 0x6f, 0x6e, 0x2e, 0x4c, 0x61,
  0x79, 0x65, 0x72, 0x4e, 0x6f, 0x72, 0x6d, 0x5f, 0x37, 0x3b, 0x35, 0x00,
  0x03, 0x00, 0x00, 0x00, 0x01, 0x00, 0x00, 0x00, 0x01, 0x00, 0x00, 0x00,
  0x0a, 0x00, 0x00, 0x00, 0x88, 0xcd, 0xff, 0xff, 0x8e, 0xe1, 0xff, 0xff,
  0x01, 0x00, 0x00, 0x00, 0x10, 0x00, 0x00, 0x00, 0x04, 0x00, 0x00, 0x00,
  0x01, 0x00, 0x00, 0x00, 0x37, 0x00, 0x00, 0x00, 0x02, 0x00, 0x00, 0x00,
  0x36, 0x00, 0x00, 0x00, 0x08, 0x00, 0x00, 0x00, 0x0a, 0xce, 0xff, 0xff,
  0x00, 0x00, 0x00, 0x01, 0x94, 0x00, 0x00, 0x00, 0x38, 0x00, 0x00, 0x00,
  0x08, 0x00, 0x00, 0x00, 0x98, 0x00, 0x00, 0x00, 0x7f, 0x00, 0x00, 0x00,
  0x76, 0x6c, 0x70, 0x5f, 0x68, 0x61, 0x63, 0x6b, 0x61, 0x74, 0x68, 0x6f,
  0x6e, 0x2e, 0x69, 0x6d, 0x70, 0x72, 0x6f, 0x76, 0x65, 0x64, 0x5f, 0x6d,
  0x6f, 0x64, 0x65, 0x6c, 0x2e, 0x49, 0x6d, 0x70, 0x72, 0x6f, 0x76, 0x65,
  0x64, 0x4d, 0x4c, 0x50, 0x2f, 0x74, 0x6f, 0x72, 0x63, 0x68, 0x2e, 0x6e,
  0x6e, 0x2e, 0x6d, 0x6f, 0x64, 0x75, 0x6c, 0x65, 0x73, 0x2e, 0x63, 0x6f,
  0x6e, 0x74, 0x61, 0x69, 0x6e, 0x65, 0x72, 0x2e, 0x53, 0x65, 0x71, 0x75,
  0x65, 0x6e, 0x74, 0x69, 0x61, 0x6c, 0x5f, 0x6e, 0x65, 0x74, 0x2f, 0x74,
  0x6f, 0x72, 0x63, 0x68, 0x2e, 0x6e, 0x6e, 0x2e, 0x6d, 0x6f, 0x64, 0x75,
  0x6c, 0x65, 0x73, 0x2e, 0x6e, 0x6f, 0x72, 0x6d, 0x61, 0x6c, 0x69, 0x7a,
  0x61, 0x74, 0x69, 0x6f, 0x6e, 0x2e, 0x4c, 0x61, 0x79, 0x65, 0x72, 0x4e,
  0x6f, 0x72, 0x6d, 0x5f, 0x37, 0x3b, 0x34, 0x00, 0x03, 0x00, 0x00, 0x00,
  0x01, 0x00, 0x00, 0x00, 0x01, 0x00, 0x00, 0x00, 0x01, 0x00, 0x00, 0x00,
  0x5c, 0xce, 0xff, 0xff, 0x5a, 0xe3, 0xff, 0xff, 0x00, 0x00, 0x00, 0x1b,
  0x02, 0x00, 0x00, 0x00, 0x18, 0x00, 0x00, 0x00, 0x0c, 0x00, 0x00, 0x00,
  0x04, 0x00, 0x00, 0x00, 0x78, 0xce, 0xff, 0xff, 0x01, 0x00, 0x00, 0x00,
  0x36, 0x00, 0x00, 0x00, 0x02, 0x00, 0x00, 0x00, 0x35, 0x00, 0x00, 0x00,
  0x0a, 0x00, 0x00, 0x00, 0xea, 0xce, 0xff, 0xff, 0x00, 0x00, 0x00, 0x01,
  0x94, 0x00, 0x00, 0x00, 0x37, 0x00, 0x00, 0x00, 0x08, 0x00, 0x00, 0x00,
  0x90, 0x00, 0x00, 0x00, 0x7f, 0x00, 0x00, 0x00, 0x76, 0x6c, 0x70, 0x5f,
  0x68, 0x61, 0x63, 0x6b, 0x61, 0x74, 0x68, 0x6f, 0x6e, 0x2e, 0x69, 0x6d,
  0x70, 0x72, 0x6f, 0x76, 0x65, 0x64, 0x5f, 0x6d, 0x6f, 0x64, 0x65, 0x6c,
  0x2e, 0x49, 0x6d, 0x70, 0x72, 0x6f, 0x76, 0x65, 0x64, 0x4d, 0x4c, 0x50,
  0x2f, 0x74, 0x6f, 0x72, 0x63, 0x68, 0x2e, 0x6e, 0x6e, 0x2e, 0x6d, 0x6f,
  0x64, 0x75, 0x6c, 0x65, 0x73, 0x2e, 0x63, 0x6f, 0x6e, 0x74, 0x61, 0x69,
  0x6e, 0x65, 0x72, 0x2e, 0x53, 0x65, 0x71, 0x75, 0x65, 0x6e, 0x74, 0x69,
  0x61, 0x6c, 0x5f, 0x6e, 0x65, 0x74, 0x2f, 0x74, 0x6f, 0x72, 0x63, 0x68,
  0x2e, 0x6e, 0x6e, 0x2e, 0x6d, 0x6f, 0x64, 0x75, 0x6c, 0x65, 0x73, 0x2e,
  0x6e, 0x6f, 0x72, 0x6d, 0x61, 0x6c, 0x69, 0x7a, 0x61, 0x74, 0x69, 0x6f,
  0x6e, 0x2e, 0x4c, 0x61, 0x79, 0x65, 0x72, 0x4e, 0x6f, 0x72, 0x6d, 0x5f,
  0x37, 0x3b, 0x33, 0x00, 0x01, 0x00, 0x00, 0x00, 0x01, 0x00, 0x00, 0x00,
  0x34, 0xcf, 0xff, 0xff, 0xe6, 0xf1, 0xff, 0xff, 0x00, 0x00, 0x00, 0x08,
  0x1c, 0x00, 0x00, 0x00, 0x10, 0x00, 0x00, 0x00, 0x04, 0x00, 0x00, 0x00,
  0x3a, 0xe2, 0xff, 0xff, 0x00, 0x00, 0x00, 0x01, 0x01, 0x00, 0x00, 0x00,
  0x35, 0x00, 0x00, 0x00, 0x03, 0x00, 0x00, 0x00, 0x34, 0x00, 0x00, 0x00,
  0x05, 0x00, 0x00, 0x00, 0x02, 0x00, 0x00, 0x00, 0xc6, 0xcf, 0xff, 0xff,
  0x00, 0x00, 0x00, 0x01, 0x94, 0x00, 0x00, 0x00, 0x36, 0x00, 0x00, 0x00,
  0x08, 0x00, 0x00, 0x00, 0x98, 0x00, 0x00, 0x00, 0x7f, 0x00, 0x00, 0x00,
  0x76, 0x6c, 0x70, 0x5f, 0x68, 0x61, 0x63, 0x6b, 0x61, 0x74, 0x68, 0x6f,
  0x6e, 0x2e, 0x69, 0x6d, 0x70, 0x72, 0x6f, 0x76, 0x65, 0x64, 0x5f, 0x6d,
  0x6f, 0x64, 0x65, 0x6c, 0x2e, 0x49, 0x6d, 0x70, 0x72, 0x6f, 0x76, 0x65,
  0x64, 0x4d, 0x4c, 0x50, 0x2f, 0x74, 0x6f, 0x72, 0x63, 0x68, 0x2e, 0x6e,
  0x6e, 0x2e, 0x6d, 0x6f, 0x64, 0x75, 0x6c, 0x65, 0x73, 0x2e, 0x63, 0x6f,
  0x6e, 0x74, 0x61, 0x69, 0x6e, 0x65, 0x72, 0x2e, 0x53, 0x65, 0x71, 0x75,
  0x65, 0x6e, 0x74, 0x69, 0x61, 0x6c, 0x5f, 0x6e, 0x65, 0x74, 0x2f, 0x74,
  0x6f, 0x72, 0x63, 0x68, 0x2e, 0x6e, 0x6e, 0x2e, 0x6d, 0x6f, 0x64, 0x75,
  0x6c, 0x65, 0x73, 0x2e, 0x6e, 0x6f, 0x72, 0x6d, 0x61, 0x6c, 0x69, 0x7a,
  0x61, 0x74, 0x69, 0x6f, 0x6e, 0x2e, 0x4c, 0x61, 0x79, 0x65, 0x72, 0x4e,
  0x6f, 0x72, 0x6d, 0x5f, 0x37, 0x3b, 0x32, 0x00, 0x03, 0x00, 0x00, 0x00,
  0x01, 0x00, 0x00, 0x00, 0x01, 0x00, 0x00, 0x00, 0x0a, 0x00, 0x00, 0x00,
  0x18, 0xd0, 0xff, 0xff, 0x1e, 0xe4, 0xff, 0xff, 0x08, 0x00, 0x00, 0x00,
  0x10, 0x00, 0x00, 0x00, 0x04, 0x00, 0x00, 0x00, 0x01, 0x00, 0x00, 0x00,
  0x34, 0x00, 0x00, 0x00, 0x01, 0x00, 0x00, 0x00, 0x33, 0x00, 0x00, 0x00,
  0x96, 0xd0, 0xff, 0xff, 0x00, 0x00, 0x00, 0x01, 0x0c, 0x01, 0x00, 0x00,
  0x35, 0x00, 0x00, 0x00, 0x08, 0x00, 0x00, 0x00, 0x10, 0x01, 0x00, 0x00,
  0xf5, 0x00, 0x00, 0x00, 0x76, 0x6c, 0x70, 0x5f, 0x68, 0x61, 0x63, 0x6b,
  0x61, 0x74, 0x68, 0x6f, 0x6e, 0x2e, 0x69, 0x6d, 0x70, 0x72, 0x6f, 0x76,
  0x65, 0x64, 0x5f, 0x6d, 0x6f, 0x64, 0x65, 0x6c, 0x2e, 0x49, 0x6d, 0x70,
  0x72, 0x6f, 0x76, 0x65, 0x64, 0x4d, 0x4c, 0x50, 0x2f, 0x74, 0x6f, 0x72,
  0x63, 0x68, 0x2e, 0x6e, 0x6e, 0x2e, 0x6d, 0x6f, 0x64, 0x75, 0x6c, 0x65,
  0x73, 0x2e, 0x63, 0x6f, 0x6e, 0x74, 0x61, 0x69, 0x6e, 0x65, 0x72, 0x2e,
  0x53, 0x65, 0x71, 0x75, 0x65, 0x6e, 0x74, 0x69, 0x61, 0x6c, 0x5f, 0x6e,
  0x65, 0x74, 0x2f, 0x74, 0x6f, 0x72, 0x63, 0x68, 0x2e, 0x6e, 0x6e, 0x2e,
  0x6d, 0x6f, 0x64, 0x75, 0x6c, 0x65, 0x73, 0x2e, 0x61, 0x63, 0x74, 0x69,
  0x76, 0x61, 0x74, 0x69, 0x6f, 0x6e, 0x2e, 0x54, 0x61, 0x6e, 0x68, 0x5f,
  0x35, 0x3b, 0x3b, 0x76, 0x6c, 0x70, 0x5f, 0x68, 0x61, 0x63, 0x6b, 0x61,
  0x74, 0x68, 0x6f, 0x6e, 0x2e, 0x69, 0x6d, 0x70, 0x72, 0x6f, 0x76, 0x65,
  0x64, 0x5f, 0x6d, 0x6f, 0x64, 0x65, 0x6c, 0x2e, 0x49, 0x6d, 0x70, 0x72,
  0x6f, 0x76, 0x65, 0x64, 0x4d, 0x4c, 0x50, 0x2f, 0x74, 0x6f, 0x72, 0x63,
  0x68, 0x2e, 0x6e, 0x6e, 0x2e, 0x6d, 0x6f, 0x64, 0x75, 0x6c, 0x65, 0x73,
  0x2e, 0x63, 0x6f, 0x6e, 0x74, 0x61, 0x69, 0x6e, 0x65, 0x72, 0x2e, 0x53,
  0x65, 0x71, 0x75, 0x65, 0x6e, 0x74, 0x69, 0x61, 0x6c, 0x5f, 0x6e, 0x65,
  0x74, 0x2f, 0x74, 0x6f, 0x72, 0x63, 0x68, 0x2e, 0x6e, 0x6e, 0x2e, 0x6d,
  0x6f, 0x64, 0x75, 0x6c, 0x65, 0x73, 0x2e, 0x6e, 0x6f, 0x72, 0x6d, 0x61,
  0x6c, 0x69, 0x7a, 0x61, 0x74, 0x69, 0x6f, 0x6e, 0x2e, 0x4c, 0x61, 0x79,
  0x65, 0x72, 0x4e, 0x6f, 0x72, 0x6d, 0x5f, 0x34, 0x3b, 0x00, 0x00, 0x00,
  0x03, 0x00, 0x00, 0x00, 0x01, 0x00, 0x00, 0x00, 0x01, 0x00, 0x00, 0x00,
  0x0a, 0x00, 0x00, 0x00, 0x60, 0xd1, 0xff, 0xff, 0x5e, 0xe6, 0xff, 0xff,
  0x00, 0x00, 0x00, 0x0b, 0x04, 0x00, 0x00, 0x00, 0x18, 0x00, 0x00, 0x00,
  0x0c, 0x00, 0x00, 0x00, 0x04, 0x00, 0x00, 0x00, 0x7c, 0xd1, 0xff, 0xff,
  0x01, 0x00, 0x00, 0x00, 0x33, 0x00, 0x00, 0x00, 0x02, 0x00, 0x00, 0x00,
  0x32, 0x00, 0x00, 0x00, 0x0e, 0x00, 0x00, 0x00, 0xee, 0xd1, 0xff, 0xff,
  0x00, 0x00, 0x00, 0x01, 0x98, 0x00, 0x00, 0x00, 0x34, 0x00, 0x00, 0x00,
  0x08, 0x00, 0x00, 0x00, 0x9c, 0x00, 0x00, 0x00, 0x80, 0x00, 0x00, 0x00,
  0x76, 0x6c, 0x70, 0x5f, 0x68, 0x61, 0x63, 0x6b, 0x61, 0x74, 0x68, 0x6f,
  0x6e, 0x2e, 0x69, 0x6d, 0x70, 0x72, 0x6f, 0x76, 0x65, 0x64, 0x5f, 0x6d,
  0x6f, 0x64, 0x65, 0x6c, 0x2e, 0x49, 0x6d, 0x70, 0x72, 0x6f, 0x76, 0x65,
  0x64, 0x4d, 0x4c, 0x50, 0x2f, 0x74, 0x6f, 0x72, 0x63, 0x68, 0x2e, 0x6e,
  0x6e, 0x2e, 0x6d, 0x6f, 0x64, 0x75, 0x6c, 0x65, 0x73, 0x2e, 0x63, 0x6f,
  0x6e, 0x74, 0x61, 0x69, 0x6e, 0x65, 0x72, 0x2e, 0x53, 0x65, 0x71, 0x75,
  0x65, 0x6e, 0x74, 0x69, 0x61, 0x6c, 0x5f, 0x6e, 0x65, 0x74, 0x2f, 0x74,
  0x6f, 0x72, 0x63, 0x68, 0x2e, 0x6e, 0x6e, 0x2e, 0x6d, 0x6f, 0x64, 0x75,
  0x6c, 0x65, 0x73, 0x2e, 0x6e, 0x6f, 0x72, 0x6d, 0x61, 0x6c, 0x69, 0x7a,
  0x61, 0x74, 0x69, 0x6f, 0x6e, 0x2e, 0x4c, 0x61, 0x79, 0x65, 0x72, 0x4e,
  0x6f, 0x72, 0x6d, 0x5f, 0x34, 0x3b, 0x31, 0x36, 0x00, 0x00, 0x00, 0x00,
  0x03, 0x00, 0x00, 0x00, 0x01, 0x00, 0x00, 0x00, 0x01, 0x00, 0x00, 0x00,
  0x0a, 0x00, 0x00, 0x00, 0x44, 0xd2, 0xff, 0xff, 0x42, 0xe7, 0xff, 0xff,
  0x00, 0x00, 0x00, 0x15, 0x06, 0x00, 0x00, 0x00, 0x18, 0x00, 0x00, 0x00,
  0x0c, 0x00, 0x00, 0x00, 0x04, 0x00, 0x00, 0x00, 0x60, 0xd2, 0xff, 0xff,
  0x01, 0x00, 0x00, 0x00, 0x32, 0x00, 0x00, 0x00, 0x02, 0x00, 0x00, 0x00,
  0x31, 0x00, 0x00, 0x00, 0x0f, 0x00, 0x00, 0x00, 0xd2, 0xd2, 0xff, 0xff,
  0x00, 0x00, 0x00, 0x01, 0x98, 0x00, 0x00, 0x00, 0x33, 0x00, 0x00, 0x00,
  0x08, 0x00, 0x00, 0x00, 0x9c, 0x00, 0x00, 0x00, 0x80, 0x00, 0x00, 0x00,
  0x76, 0x6c, 0x70, 0x5f, 0x68, 0x61, 0x63, 0x6b, 0x61, 0x74, 0x68, 0x6f,
  0x6e, 0x2e, 0x69, 0x6d, 0x70, 0x72, 0x6f, 0x76, 0x65, 0x64, 0x5f, 0x6d,
  0x6f, 0x64, 0x65, 0x6c, 0x2e, 0x49, 0x6d, 0x70, 0x72, 0x6f, 0x76, 0x65,
  0x64, 0x4d, 0x4c, 0x50, 0x2f, 0x74, 0x6f, 0x72, 0x63, 0x68, 0x2e, 0x6e,
  0x6e, 0x2e, 0x6d, 0x6f, 0x64, 0x75, 0x6c, 0x65, 0x73, 0x2e, 0x63, 0x6f,
  0x6e, 0x74, 0x61, 0x69, 0x6e, 0x65, 0x72, 0x2e, 0x53, 0x65, 0x71, 0x75,
  0x65, 0x6e, 0x74, 0x69, 0x61, 0x6c, 0x5f, 0x6e, 0x65, 0x74, 0x2f, 0x74,
  0x6f, 0x72, 0x63, 0x68, 0x2e, 0x6e, 0x6e, 0x2e, 0x6d, 0x6f, 0x64, 0x75,
  0x6c, 0x65, 0x73, 0x2e, 0x6e, 0x6f, 0x72, 0x6d, 0x61, 0x6c, 0x69, 0x7a,
  0x61, 0x74, 0x69, 0x6f, 0x6e, 0x2e, 0x4c, 0x61, 0x79, 0x65, 0x72, 0x4e,
  0x6f, 0x72, 0x6d, 0x5f, 0x34, 0x3b, 0x31, 0x35, 0x00, 0x00, 0x00, 0x00,
  0x03, 0x00, 0x00, 0x00, 0x01, 0x00, 0x00, 0x00, 0x01, 0x00, 0x00, 0x00,
  0x0a, 0x00, 0x00, 0x00, 0x28, 0xd3, 0xff, 0xff, 0x26, 0xe8, 0xff, 0xff,
  0x00, 0x00, 0x00, 0x0b, 0x04, 0x00, 0x00, 0x00, 0x18, 0x00, 0x00, 0x00,
  0x0c, 0x00, 0x00, 0x00, 0x04, 0x00, 0x00, 0x00, 0x44, 0xd3, 0xff, 0xff,
  0x01, 0x00, 0x00, 0x00, 0x31, 0x00, 0x00, 0x00, 0x02, 0x00, 0x00, 0x00,
  0x2f, 0x00, 0x00, 0x00, 0x30, 0x00, 0x00, 0x00, 0xb6, 0xd3, 0xff, 0xff,
  0x00, 0x00, 0x00, 0x01, 0x98, 0x00, 0x00, 0x00, 0x32, 0x00, 0x00, 0x00,
  0x08, 0x00, 0x00, 0x00, 0x9c, 0x00, 0x00, 0x00, 0x80, 0x00, 0x00, 0x00,
  0x76, 0x6c, 0x70, 0x5f, 0x68, 0x61, 0x63, 0x6b, 0x61, 0x74, 0x68, 0x6f,
  0x6e, 0x2e, 0x69, 0x6d, 0x70, 0x72, 0x6f, 0x76, 0x65, 0x64, 0x5f, 0x6d,
  0x6f, 0x64, 0x65, 0x6c, 0x2e, 0x49, 0x6d, 0x70, 0x72, 0x6f, 0x76, 0x65,
  0x64, 0x4d, 0x4c, 0x50, 0x2f, 0x74, 0x6f, 0x72, 0x63, 0x68, 0x2e, 0x6e,
  0x6e, 0x2e, 0x6d, 0x6f, 0x64, 0x75, 0x6c, 0x65, 0x73, 0x2e, 0x63, 0x6f,
  0x6e, 0x74, 0x61, 0x69, 0x6e, 0x65, 0x72, 0x2e, 0x53, 0x65, 0x71, 0x75,
  0x65, 0x6e, 0x74, 0x69, 0x61, 0x6c, 0x5f, 0x6e, 0x65, 0x74, 0x2f, 0x74,
  0x6f, 0x72, 0x63, 0x68, 0x2e, 0x6e, 0x6e, 0x2e, 0x6d, 0x6f, 0x64, 0x75,
  0x6c, 0x65, 0x73, 0x2e, 0x6e, 0x6f, 0x72, 0x6d, 0x61, 0x6c, 0x69, 0x7a,
  0x61, 0x74, 0x69, 0x6f, 0x6e, 0x2e, 0x4c, 0x61, 0x79, 0x65, 0x72, 0x4e,
  0x6f, 0x72, 0x6d, 0x5f, 0x34, 0x3b, 0x31, 0x34, 0x00, 0x00, 0x00, 0x00,
  0x03, 0x00, 0x00, 0x00, 0x01, 0x00, 0x00, 0x00, 0x01, 0x00, 0x00, 0x00,
  0x0a, 0x00, 0x00, 0x00, 0x0c, 0xd4, 0xff, 0xff, 0x12, 0xe8, 0xff, 0xff,
  0x01, 0x00, 0x00, 0x00, 0x10, 0x00, 0x00, 0x00, 0x04, 0x00, 0x00, 0x00,
  0x01, 0x00, 0x00, 0x00, 0x30, 0x00, 0x00, 0x00, 0x02, 0x00, 0x00, 0x00,
  0x2d, 0x00, 0x00, 0x00, 0x08, 0x00, 0x00, 0x00, 0x8e, 0xd4, 0xff, 0xff,
  0x00, 0x00, 0x00, 0x01, 0x98, 0x00, 0x00, 0x00, 0x31, 0x00, 0x00, 0x00,
  0x08, 0x00, 0x00, 0x00, 0x9c, 0x00, 0x00, 0x00, 0x80, 0x00, 0x00, 0x00,
  0x76, 0x6c, 0x70, 0x5f, 0x68, 0x61, 0x63, 0x6b, 0x61, 0x74, 0x68, 0x6f,
  0x6e, 0x2e, 0x69, 0x6d, 0x70, 0x72, 0x6f, 0x76, 0x65, 0x64, 0x5f, 0x6d,
  0x6f, 0x64, 0x65, 0x6c, 0x2e, 0x49, 0x6d, 0x70, 0x72, 0x6f, 0x76, 0x65,
  0x64, 0x4d, 0x4c, 0x50, 0x2f, 0x74, 0x6f, 0x72, 0x63, 0x68, 0x2e, 0x6e,
  0x6e, 0x2e, 0x6d, 0x6f, 0x64, 0x75, 0x6c, 0x65, 0x73, 0x2e, 0x63, 0x6f,
  0x6e, 0x74, 0x61, 0x69, 0x6e, 0x65, 0x72, 0x2e, 0x53, 0x65, 0x71, 0x75,
  0x65, 0x6e, 0x74, 0x69, 0x61, 0x6c, 0x5f, 0x6e, 0x65, 0x74, 0x2f, 0x74,
  0x6f, 0x72, 0x63, 0x68, 0x2e, 0x6e, 0x6e, 0x2e, 0x6d, 0x6f, 0x64, 0x75,
  0x6c, 0x65, 0x73, 0x2e, 0x6e, 0x6f, 0x72, 0x6d, 0x61, 0x6c, 0x69, 0x7a,
  0x61, 0x74, 0x69, 0x6f, 0x6e, 0x2e, 0x4c, 0x61, 0x79, 0x65, 0x72, 0x4e,
  0x6f, 0x72, 0x6d, 0x5f, 0x34, 0x3b, 0x31, 0x33, 0x00, 0x00, 0x00, 0x00,
  0x03, 0x00, 0x00, 0x00, 0x01, 0x00, 0x00, 0x00, 0x01, 0x00, 0x00, 0x00,
  0x01, 0x00, 0x00, 0x00, 0xe4, 0xd4, 0xff, 0xff, 0xe2, 0xe9, 0xff, 0xff,
  0x00, 0x00, 0x00, 0x15, 0x06, 0x00, 0x00, 0x00, 0x18, 0x00, 0x00, 0x00,
  0x0c, 0x00, 0x00, 0x00, 0x04, 0x00, 0x00, 0x00, 0x00, 0xd5, 0xff, 0xff,
  0x01, 0x00, 0x00, 0x00, 0x2f, 0x00, 0x00, 0x00, 0x02, 0x00, 0x00, 0x00,
  0x25, 0x00, 0x00, 0x00, 0x2e, 0x00, 0x00, 0x00, 0x72, 0xd5, 0xff, 0xff,
  0x00, 0x00, 0x00, 0x01, 0x98, 0x00, 0x00, 0x00, 0x30, 0x00, 0x00, 0x00,
  0x08, 0x00, 0x00, 0x00, 0x9c, 0x00, 0x00, 0x00, 0x80, 0x00, 0x00, 0x00,
  0x76, 0x6c, 0x70, 0x5f, 0x68, 0x61, 0x63, 0x6b, 0x61, 0x74, 0x68, 0x6f,
  0x6e, 0x2e, 0x69, 0x6d, 0x70, 0x72, 0x6f, 0x76, 0x65, 0x64, 0x5f, 0x6d,
  0x6f, 0x64, 0x65, 0x6c, 0x2e, 0x49, 0x6d, 0x70, 0x72, 0x6f, 0x76, 0x65,
  0x64, 0x4d, 0x4c, 0x50, 0x2f, 0x74, 0x6f, 0x72, 0x63, 0x68, 0x2e, 0x6e,
  0x6e, 0x2e, 0x6d, 0x6f, 0x64, 0x75, 0x6c, 0x65, 0x73, 0x2e, 0x63, 0x6f,
  0x6e, 0x74, 0x61, 0x69, 0x6e, 0x65, 0x72, 0x2e, 0x53, 0x65, 0x71, 0x75,
  0x65, 0x6e, 0x74, 0x69, 0x61, 0x6c, 0x5f, 0x6e, 0x65, 0x74, 0x2f, 0x74,
  0x6f, 0x72, 0x63, 0x68, 0x2e, 0x6e, 0x6e, 0x2e, 0x6d, 0x6f, 0x64, 0x75,
  0x6c, 0x65, 0x73, 0x2e, 0x6e, 0x6f, 0x72, 0x6d, 0x61, 0x6c, 0x69, 0x7a,
  0x61, 0x74, 0x69, 0x6f, 0x6e, 0x2e, 0x4c, 0x61, 0x79, 0x65, 0x72, 0x4e,
  0x6f, 0x72, 0x6d, 0x5f, 0x34, 0x3b, 0x31, 0x32, 0x00, 0x00, 0x00, 0x00,
  0x03, 0x00, 0x00, 0x00, 0x01, 0x00, 0x00, 0x00, 0x01, 0x00, 0x00, 0x00,
  0x0a, 0x00, 0x00, 0x00, 0xc8, 0xd5, 0xff, 0xff, 0xce, 0xe9, 0xff, 0xff,
  0x01, 0x00, 0x00, 0x00, 0x10, 0x00, 0x00, 0x00, 0x04, 0x00, 0x00, 0x00,
  0x01, 0x00, 0x00, 0x00, 0x2e, 0x00, 0x00, 0x00, 0x02, 0x00, 0x00, 0x00,
  0x2b, 0x00, 0x00, 0x00, 0x08, 0x00, 0x00, 0x00, 0x4a, 0xd6, 0xff, 0xff,
  0x00, 0x00, 0x00, 0x01, 0x98, 0x00, 0x00, 0x00, 0x2f, 0x00, 0x00, 0x00,
  0x08, 0x00, 0x00, 0x00, 0x9c, 0x00, 0x00, 0x00, 0x80, 0x00, 0x00, 0x00,
  0x76, 0x6c, 0x70, 0x5f, 0x68, 0x61, 0x63, 0x6b, 0x61, 0x74, 0x68, 0x6f,
  0x6e, 0x2e, 0x69, 0x6d, 0x70, 0x72, 0x6f, 0x76, 0x65, 0x64, 0x5f, 0x6d,
  0x6f, 0x64, 0x65, 0x6c, 0x2e, 0x49, 0x6d, 0x70, 0x72, 0x6f, 0x76, 0x65,
  0x64, 0x4d, 0x4c, 0x50, 0x2f, 0x74, 0x6f, 0x72, 0x63, 0x68, 0x2e, 0x6e,
  0x6e, 0x2e, 0x6d, 0x6f, 0x64, 0x75, 0x6c, 0x65, 0x73, 0x2e, 0x63, 0x6f,
  0x6e, 0x74, 0x61, 0x69, 0x6e, 0x65, 0x72, 0x2e, 0x53, 0x65, 0x71, 0x75,
  0x65, 0x6e, 0x74, 0x69, 0x61, 0x6c, 0x5f, 0x6e, 0x65, 0x74, 0x2f, 0x74,
  0x6f, 0x72, 0x63, 0x68, 0x2e, 0x6e, 0x6e, 0x2e, 0x6d, 0x6f, 0x64, 0x75,
  0x6c, 0x65, 0x73, 0x2e, 0x6e, 0x6f, 0x72, 0x6d, 0x61, 0x6c, 0x69, 0x7a,
  0x61, 0x74, 0x69, 0x6f, 0x6e, 0x2e, 0x4c, 0x61, 0x79, 0x65, 0x72, 0x4e,
  0x6f, 0x72, 0x6d, 0x5f, 0x34, 0x3b, 0x31, 0x31, 0x00, 0x00, 0x00, 0x00,
  0x03, 0x00, 0x00, 0x00, 0x01, 0x00, 0x00, 0x00, 0x01, 0x00, 0x00, 0x00,
  0x01, 0x00, 0x00, 0x00, 0xa0, 0xd6, 0xff, 0xff, 0x9e, 0xeb, 0xff, 0xff,
  0x00, 0x00, 0x00, 0x1c, 0x07, 0x00, 0x00, 0x00, 0x18, 0x00, 0x00, 0x00,
  0x0c, 0x00, 0x00, 0x00, 0x04, 0x00, 0x00, 0x00, 0xbc, 0xd6, 0xff, 0xff,
  0x01, 0x00, 0x00, 0x00, 0x2d, 0x00, 0x00, 0x00, 0x02, 0x00, 0x00, 0x00,
  0x09, 0x00, 0x00, 0x00, 0x2c, 0x00, 0x00, 0x00, 0x2e, 0xd7, 0xff, 0xff,
  0x00, 0x00, 0x00, 0x01, 0x98, 0x00, 0x00, 0x00, 0x2e, 0x00, 0x00, 0x00,
  0x08, 0x00, 0x00, 0x00, 0x94, 0x00, 0x00, 0x00, 0x80, 0x00, 0x00, 0x00,
  0x76, 0x6c, 0x70, 0x5f, 0x68, 0x61, 0x63, 0x6b, 0x61, 0x74, 0x68, 0x6f,
  0x6e, 0x2e, 0x69, 0x6d, 0x70, 0x72, 0x6f, 0x76, 0x65, 0x64, 0x5f, 0x6d,
  0x6f, 0x64, 0x65, 0x6c, 0x2e, 0x49, 0x6d, 0x70, 0x72, 0x6f, 0x76, 0x65,
  0x64, 0x4d, 0x4c, 0x50, 0x2f, 0x74, 0x6f, 0x72, 0x63, 0x68, 0x2e, 0x6e,
  0x6e, 0x2e, 0x6d, 0x6f, 0x64, 0x75, 0x6c, 0x65, 0x73, 0x2e, 0x63, 0x6f,
  0x6e, 0x74, 0x61, 0x69, 0x6e, 0x65, 0x72, 0x2e, 0x53, 0x65, 0x71, 0x75,
  0x65, 0x6e, 0x74, 0x69, 0x61, 0x6c, 0x5f, 0x6e, 0x65, 0x74, 0x2f, 0x74,
  0x6f, 0x72, 0x63, 0x68, 0x2e, 0x6e, 0x6e, 0x2e, 0x6d, 0x6f, 0x64, 0x75,
  0x6c, 0x65, 0x73, 0x2e, 0x6e, 0x6f, 0x72, 0x6d, 0x61, 0x6c, 0x69, 0x7a,
  0x61, 0x74, 0x69, 0x6f, 0x6e, 0x2e, 0x4c, 0x61, 0x79, 0x65, 0x72, 0x4e,
  0x6f, 0x72, 0x6d, 0x5f, 0x34, 0x3b, 0x31, 0x30, 0x00, 0x00, 0x00, 0x00,
  0x01, 0x00, 0x00, 0x00, 0x01, 0x00, 0x00, 0x00, 0x7c, 0xd7, 0xff, 0xff,
  0x7a, 0xec, 0xff, 0xff, 0x00, 0x00, 0x00, 0x15, 0x06, 0x00, 0x00, 0x00,
  0x18, 0x00, 0x00, 0x00, 0x0c, 0x00, 0x00, 0x00, 0x04, 0x00, 0x00, 0x00,
  0x98, 0xd7, 0xff, 0xff, 0x01, 0x00, 0x00, 0x00, 0x2c, 0x00, 0x00, 0x00,
  0x02, 0x00, 0x00, 0x00, 0x2b, 0x00, 0x00, 0x00, 0x26, 0x00, 0x00, 0x00,
  0x0a, 0xd8, 0xff, 0xff, 0x00, 0x00, 0x00, 0x01, 0x94, 0x00, 0x00, 0x00,
  0x2d, 0x00, 0x00, 0x00, 0x08, 0x00, 0x00, 0x00, 0x90, 0x00, 0x00, 0x00,
  0x7f, 0x00, 0x00, 0x00, 0x76, 0x6c, 0x70, 0x5f, 0x68, 0x61, 0x63, 0x6b,
  0x61, 0x74, 0x68, 0x6f, 0x6e, 0x2e, 0x69, 0x6d, 0x70, 0x72, 0x6f, 0x76,
  0x65, 0x64, 0x5f, 0x6d, 0x6f, 0x64, 0x65, 0x6c, 0x2e, 0x49, 0x6d, 0x70,
  0x72, 0x6f, 0x76, 0x65, 0x64, 0x4d, 0x4c, 0x50, 0x2f, 0x74, 0x6f, 0x72,
  0x63, 0x68, 0x2e, 0x6e, 0x6e, 0x2e, 0x6d, 0x6f, 0x64, 0x75, 0x6c, 0x65,
  0x73, 0x2e, 0x63, 0x6f, 0x6e, 0x74, 0x61, 0x69, 0x6e, 0x65, 0x72, 0x2e,
  0x53, 0x65, 0x71, 0x75, 0x65, 0x6e, 0x74, 0x69, 0x61, 0x6c, 0x5f, 0x6e,
  0x65, 0x74, 0x2f, 0x74, 0x6f, 0x72, 0x63, 0x68, 0x2e, 0x6e, 0x6e, 0x2e,
  0x6d, 0x6f, 0x64, 0x75, 0x6c, 0x65, 0x73, 0x2e, 0x6e, 0x6f, 0x72, 0x6d,
  0x61, 0x6c, 0x69, 0x7a, 0x61, 0x74, 0x69, 0x6f, 0x6e, 0x2e, 0x4c, 0x61,
  0x79, 0x65, 0x72, 0x4e, 0x6f, 0x72, 0x6d, 0x5f, 0x34, 0x3b, 0x39, 0x00,
  0x01, 0x00, 0x00, 0x00, 0x01, 0x00, 0x00, 0x00, 0x54, 0xd8, 0xff, 0xff,
  0x5a, 0xec, 0xff, 0xff, 0x05, 0x00, 0x00, 0x00, 0x10, 0x00, 0x00, 0x00,
  0x04, 0x00, 0x00, 0x00, 0x01, 0x00, 0x00, 0x00, 0x2b, 0x00, 0x00, 0x00,
  0x01, 0x00, 0x00, 0x00, 0x2a, 0x00, 0x00, 0x00, 0xd2, 0xd8, 0xff, 0xff,
  0x00, 0x00, 0x00, 0x01, 0x94, 0x00, 0x00, 0x00, 0x2c, 0x00, 0x00, 0x00,
  0x08, 0x00, 0x00, 0x00, 0x90, 0x00, 0x00, 0x00, 0x7f, 0x00, 0x00, 0x00,
  0x76, 0x6c, 0x70, 0x5f, 0x68, 0x61, 0x63, 0x6b, 0x61, 0x74, 0x68, 0x6f,
  0x6e, 0x2e, 0x69, 0x6d, 0x70, 0x72, 0x6f, 0x76, 0x65, 0x64, 0x5f, 0x6d,
  0x6f, 0x64, 0x65, 0x6c, 0x2e, 0x49, 0x6d, 0x70, 0x72, 0x6f, 0x76, 0x65,
  0x64, 0x4d, 0x4c, 0x50, 0x2f, 0x74, 0x6f, 0x72, 0x63, 0x68, 0x2e, 0x6e,
  0x6e, 0x2e, 0x6d, 0x6f, 0x64, 0x75, 0x6c, 0x65, 0x73, 0x2e, 0x63, 0x6f,
  0x6e, 0x74, 0x61, 0x69, 0x6e, 0x65, 0x72, 0x2e, 0x53, 0x65, 0x71, 0x75,
  0x65, 0x6e, 0x74, 0x69, 0x61, 0x6c, 0x5f, 0x6e, 0x65, 0x74, 0x2f, 0x74,
  0x6f, 0x72, 0x63, 0x68, 0x2e, 0x6e, 0x6e, 0x2e, 0x6d, 0x6f, 0x64, 0x75,
  0x6c, 0x65, 0x73, 0x2e, 0x6e, 0x6f, 0x72, 0x6d, 0x61, 0x6c, 0x69, 0x7a,
  0x61, 0x74, 0x69, 0x6f, 0x6e, 0x2e, 0x4c, 0x61, 0x79, 0x65, 0x72, 0x4e,
  0x6f, 0x72, 0x6d, 0x5f, 0x34, 0x3b, 0x38, 0x00, 0x01, 0x00, 0x00, 0x00,
  0x01, 0x00, 0x00, 0x00, 0x1c, 0xd9, 0xff, 0xff, 0x1a, 0xee, 0xff, 0xff,
  0x00, 0x00, 0x00, 0x0b, 0x04, 0x00, 0x00, 0x00, 0x18, 0x00, 0x00, 0x00,
  0x0c, 0x00, 0x00, 0x00, 0x04, 0x00, 0x00, 0x00, 0x38, 0xd9, 0xff, 0xff,
  0x01, 0x00, 0x00, 0x00, 0x2a, 0x00, 0x00, 0x00, 0x02, 0x00, 0x00, 0x00,
  0x29, 0x00, 0x00, 0x00, 0x0b, 0x00, 0x00, 0x00, 0xaa, 0xd9, 0xff, 0xff,
  0x00, 0x00, 0x00, 0x01, 0x94, 0x00, 0x00, 0x00, 0x2b, 0x00, 0x00, 0x00,
  0x08, 0x00, 0x00, 0x00, 0x90, 0x00, 0x00, 0x00, 0x7f, 0x00, 0x00, 0x00,
  0x76, 0x6c, 0x70, 0x5f, 0x68, 0x61, 0x63, 0x6b, 0x61, 0x74, 0x68, 0x6f,
  0x6e, 0x2e, 0x69, 0x6d, 0x70, 0x72, 0x6f, 0x76, 0x65, 0x64, 0x5f, 0x6d,
  0x6f, 0x64, 0x65, 0x6c, 0x2e, 0x49, 0x6d, 0x70, 0x72, 0x6f, 0x76, 0x65,
  0x64, 0x4d, 0x4c, 0x50, 0x2f, 0x74, 0x6f, 0x72, 0x63, 0x68, 0x2e, 0x6e,
  0x6e, 0x2e, 0x6d, 0x6f, 0x64, 0x75, 0x6c, 0x65, 0x73, 0x2e, 0x63, 0x6f,
  0x6e, 0x74, 0x61, 0x69, 0x6e, 0x65, 0x72, 0x2e, 0x53, 0x65, 0x71, 0x75,
  0x65, 0x6e, 0x74, 0x69, 0x61, 0x6c, 0x5f, 0x6e, 0x65, 0x74, 0x2f, 0x74,
  0x6f, 0x72, 0x63, 0x68, 0x2e, 0x6e, 0x6e, 0x2e, 0x6d, 0x6f, 0x64, 0x75,
  0x6c, 0x65, 0x73, 0x2e, 0x6e, 0x6f, 0x72, 0x6d, 0x61, 0x6c, 0x69, 0x7a,
  0x61, 0x74, 0x69, 0x6f, 0x6e, 0x2e, 0x4c, 0x61, 0x79, 0x65, 0x72, 0x4e,
  0x6f, 0x72, 0x6d, 0x5f, 0x34, 0x3b, 0x37, 0x00, 0x01, 0x00, 0x00, 0x00,
  0x01, 0x00, 0x00, 0x00, 0xf4, 0xd9, 0xff, 0xff, 0xf2, 0xee, 0xff, 0xff,
  0x00, 0x00, 0x00, 0x1b, 0x02, 0x00, 0x00, 0x00, 0x18, 0x00, 0x00, 0x00,
  0x0c, 0x00, 0x00, 0x00, 0x04, 0x00, 0x00, 0x00, 0x10, 0xda, 0xff, 0xff,
  0x01, 0x00, 0x00, 0x00, 0x29, 0x00, 0x00, 0x00, 0x02, 0x00, 0x00, 0x00,
  0x28, 0x00, 0x00, 0x00, 0x0a, 0x00, 0x00, 0x00, 0x82, 0xda, 0xff, 0xff,
  0x00, 0x00, 0x00, 0x01, 0x94, 0x00, 0x00, 0x00, 0x2a, 0x00, 0x00, 0x00,
  0x08, 0x00, 0x00, 0x00, 0x90, 0x00, 0x00, 0x00, 0x7f, 0x00, 0x00, 0x00,
  0x76, 0x6c, 0x70, 0x5f, 0x68, 0x61, 0x63, 0x6b, 0x61, 0x74, 0x68, 0x6f,
  0x6e, 0x2e, 0x69, 0x6d, 0x70, 0x72, 0x6f, 0x76, 0x65, 0x64, 0x5f, 0x6d,
  0x6f, 0x64, 0x65, 0x6c, 0x2e, 0x49, 0x6d, 0x70, 0x72, 0x6f, 0x76, 0x65,
  0x64, 0x4d, 0x4c, 0x50, 0x2f, 0x74, 0x6f, 0x72, 0x63, 0x68, 0x2e, 0x6e,
  0x6e, 0x2e, 0x6d, 0x6f, 0x64, 0x75, 0x6c, 0x65, 0x73, 0x2e, 0x63, 0x6f,
  0x6e, 0x74, 0x61, 0x69, 0x6e, 0x65, 0x72, 0x2e, 0x53, 0x65, 0x71, 0x75,
  0x65, 0x6e, 0x74, 0x69, 0x61, 0x6c, 0x5f, 0x6e, 0x65, 0x74, 0x2f, 0x74,
  0x6f, 0x72, 0x63, 0x68, 0x2e, 0x6e, 0x6e, 0x2e, 0x6d, 0x6f, 0x64, 0x75,
  0x6c, 0x65, 0x73, 0x2e, 0x6e, 0x6f, 0x72, 0x6d, 0x61, 0x6c, 0x69, 0x7a,
  0x61, 0x74, 0x69, 0x6f, 0x6e, 0x2e, 0x4c, 0x61, 0x79, 0x65, 0x72, 0x4e,
  0x6f, 0x72, 0x6d, 0x5f, 0x34, 0x3b, 0x36, 0x00, 0x01, 0x00, 0x00, 0x00,
  0x01, 0x00, 0x00, 0x00, 0xcc, 0xda, 0xff, 0xff, 0xd2, 0xee, 0xff, 0xff,
  0x03, 0x00, 0x00, 0x00, 0x10, 0x00, 0x00, 0x00, 0x04, 0x00, 0x00, 0x00,
  0x01, 0x00, 0x00, 0x00, 0x28, 0x00, 0x00, 0x00, 0x02, 0x00, 0x00, 0x00,
  0x25, 0x00, 0x00, 0x00, 0x27, 0x00, 0x00, 0x00, 0x4e, 0xdb, 0xff, 0xff,
  0x00, 0x00, 0x00, 0x01, 0x94, 0x00, 0x00, 0x00, 0x29, 0x00, 0x00, 0x00,
  0x08, 0x00, 0x00, 0x00, 0x98, 0x00, 0x00, 0x00, 0x7f, 0x00, 0x00, 0x00,
  0x76, 0x6c, 0x70, 0x5f, 0x68, 0x61, 0x63, 0x6b, 0x61, 0x74, 0x68, 0x6f,
  0x6e, 0x2e, 0x69, 0x6d, 0x70, 0x72, 0x6f, 0x76, 0x65, 0x64, 0x5f, 0x6d,
  0x6f, 0x64, 0x65, 0x6c, 0x2e, 0x49, 0x6d, 0x70, 0x72, 0x6f, 0x76, 0x65,
  0x64, 0x4d, 0x4c, 0x50, 0x2f, 0x74, 0x6f, 0x72, 0x63, 0x68, 0x2e, 0x6e,
  0x6e, 0x2e, 0x6d, 0x6f, 0x64, 0x75, 0x6c, 0x65, 0x73, 0x2e, 0x63, 0x6f,
  0x6e, 0x74, 0x61, 0x69, 0x6e, 0x65, 0x72, 0x2e, 0x53, 0x65, 0x71, 0x75,
  0x65, 0x6e, 0x74, 0x69, 0x61, 0x6c, 0x5f, 0x6e, 0x65, 0x74, 0x2f, 0x74,
  0x6f, 0x72, 0x63, 0x68, 0x2e, 0x6e, 0x6e, 0x2e, 0x6d, 0x6f, 0x64, 0x75,
  0x6c, 0x65, 0x73, 0x2e, 0x6e, 0x6f, 0x72, 0x6d, 0x61, 0x6c, 0x69, 0x7a,
  0x61, 0x74, 0x69, 0x6f, 0x6e, 0x2e, 0x4c, 0x61, 0x79, 0x65, 0x72, 0x4e,
  0x6f, 0x72, 0x6d, 0x5f, 0x34, 0x3b, 0x35, 0x00, 0x03, 0x00, 0x00, 0x00,
  0x01, 0x00, 0x00, 0x00, 0x01, 0x00, 0x00, 0x00, 0x0a, 0x00, 0x00, 0x00,
  0xa0, 0xdb, 0xff, 0xff, 0xa6, 0xef, 0xff, 0xff, 0x01, 0x00, 0x00, 0x00,
  0x10, 0x00, 0x00, 0x00, 0x04, 0x00, 0x00, 0x00, 0x01, 0x00, 0x00, 0x00,
  0x27, 0x00, 0x00, 0x00, 0x02, 0x00, 0x00, 0x00, 0x26, 0x00, 0x00, 0x00,
  0x08, 0x00, 0x00, 0x00, 0x22, 0xdc, 0xff, 0xff, 0x00, 0x00, 0x00, 0x01,
  0x94, 0x00, 0x00, 0x00, 0x28, 0x00, 0x00, 0x00, 0x08, 0x00, 0x00, 0x00,
  0x98, 0x00, 0x00, 0x00, 0x7f, 0x00, 0x00, 0x00, 0x76, 0x6c, 0x70, 0x5f,
  0x68, 0x61, 0x63, 0x6b, 0x61, 0x74, 0x68, 0x6f, 0x6e, 0x2e, 0x69, 0x6d,
  0x70, 0x72, 0x6f, 0x76, 0x65, 0x64, 0x5f, 0x6d, 0x6f, 0x64, 0x65, 0x6c,
  0x2e, 0x49, 0x6d, 0x70, 0x72, 0x6f, 0x76, 0x65, 0x64, 0x4d, 0x4c, 0x50,
  0x2f, 0x74, 0x6f, 0x72, 0x63, 0x68, 0x2e, 0x6e, 0x6e, 0x2e, 0x6d, 0x6f,
  0x64, 0x75, 0x6c, 0x65, 0x73, 0x2e, 0x63, 0x6f, 0x6e, 0x74, 0x61, 0x69,
  0x6e, 0x65, 0x72, 0x2e, 0x53, 0x65, 0x71, 0x75, 0x65, 0x6e, 0x74, 0x69,
  0x61, 0x6c, 0x5f, 0x6e, 0x65, 0x74, 0x2f, 0x74, 0x6f, 0x72, 0x63, 0x68,
  0x2e, 0x6e, 0x6e, 0x2e, 0x6d, 0x6f, 0x64, 0x75, 0x6c, 0x65, 0x73, 0x2e,
  0x6e, 0x6f, 0x72, 0x6d, 0x61, 0x6c, 0x69, 0x7a, 0x61, 0x74, 0x69, 0x6f,
  0x6e, 0x2e, 0x4c, 0x61, 0x79, 0x65, 0x72, 0x4e, 0x6f, 0x72, 0x6d, 0x5f,
  0x34, 0x3b, 0x34, 0x00, 0x03, 0x00, 0x00, 0x00, 0x01, 0x00, 0x00, 0x00,
  0x01, 0x00, 0x00, 0x00, 0x01, 0x00, 0x00, 0x00, 0x74, 0xdc, 0xff, 0xff,
  0x72, 0xf1, 0xff, 0xff, 0x00, 0x00, 0x00, 0x1b, 0x02, 0x00, 0x00, 0x00,
  0x18, 0x00, 0x00, 0x00, 0x0c, 0x00, 0x00, 0x00, 0x04, 0x00, 0x00, 0x00,
  0x90, 0xdc, 0xff, 0xff, 0x01, 0x00, 0x00, 0x00, 0x26, 0x00, 0x00, 0x00,
  0x02, 0x00, 0x00, 0x00, 0x25, 0x00, 0x00, 0x00, 0x0a, 0x00, 0x00, 0x00,
  0x02, 0xdd, 0xff, 0xff, 0x00, 0x00, 0x00, 0x01, 0x94, 0x00, 0x00, 0x00,
  0x27, 0x00, 0x00, 0x00, 0x08, 0x00, 0x00, 0x00, 0x90, 0x00, 0x00, 0x00,
  0x7f, 0x00, 0x00, 0x00, 0x76, 0x6c, 0x70, 0x5f, 0x68, 0x61, 0x63, 0x6b,
  0x61, 0x74, 0x68, 0x6f, 0x6e, 0x2e, 0x69, 0x6d, 0x70, 0x72, 0x6f, 0x76,
  0x65, 0x64, 0x5f, 0x6d, 0x6f, 0x64, 0x65, 0x6c, 0x2e, 0x49, 0x6d, 0x70,
  0x72, 0x6f, 0x76, 0x65, 0x64, 0x4d, 0x4c, 0x50, 0x2f, 0x74, 0x6f, 0x72,
  0x63, 0x68, 0x2e, 0x6e, 0x6e, 0x2e, 0x6d, 0x6f, 0x64, 0x75, 0x6c, 0x65,
  0x73, 0x2e, 0x63, 0x6f, 0x6e, 0x74, 0x61, 0x69, 0x6e, 0x65, 0x72, 0x2e,
  0x53, 0x65, 0x71, 0x75, 0x65, 0x6e, 0x74, 0x69, 0x61, 0x6c, 0x5f, 0x6e,
  0x65, 0x74, 0x2f, 0x74, 0x6f, 0x72, 0x63, 0x68, 0x2e, 0x6e, 0x6e, 0x2e,
  0x6d, 0x6f, 0x64, 0x75, 0x6c, 0x65, 0x73, 0x2e, 0x6e, 0x6f, 0x72, 0x6d,
  0x61, 0x6c, 0x69, 0x7a, 0x61, 0x74, 0x69, 0x6f, 0x6e, 0x2e, 0x4c, 0x61,
  0x79, 0x65, 0x72, 0x4e, 0x6f, 0x72, 0x6d, 0x5f, 0x34, 0x3b, 0x33, 0x00,
  0x01, 0x00, 0x00, 0x00, 0x01, 0x00, 0x00, 0x00, 0xcc, 0xdd, 0xff, 0xff,
  0x00, 0x00, 0x0e, 0x00, 0x14, 0x00, 0x00, 0x00, 0x08, 0x00, 0x0c, 0x00,
  0x07, 0x00, 0x10, 0x00, 0x0e, 0x00, 0x00, 0x00, 0x00, 0x00, 0x00, 0x08,
  0x1c, 0x00, 0x00, 0x00, 0x10, 0x00, 0x00, 0x00, 0x04, 0x00, 0x00, 0x00,
  0x62, 0xf0, 0xff, 0xff, 0x00, 0x00, 0x00, 0x01, 0x01, 0x00, 0x00, 0x00,
  0x25, 0x00, 0x00, 0x00, 0x03, 0x00, 0x00, 0x00, 0x24, 0x00, 0x00, 0x00,
  0x06, 0x00, 0x00, 0x00, 0x03, 0x00, 0x00, 0x00, 0xee, 0xdd, 0xff, 0xff,
  0x00, 0x00, 0x00, 0x01, 0x94, 0x00, 0x00, 0x00, 0x26, 0x00, 0x00, 0x00,
  0x08, 0x00, 0x00, 0x00, 0x98, 0x00, 0x00, 0x00, 0x7f, 0x00, 0x00, 0x00,
  0x76, 0x6c, 0x70, 0x5f, 0x68, 0x61, 0x63, 0x6b, 0x61, 0x74, 0x68, 0x6f,
  0x6e, 0x2e, 0x69, 0x6d, 0x70, 0x72, 0x6f, 0x76, 0x65, 0x64, 0x5f, 0x6d,
  0x6f, 0x64, 0x65, 0x6c, 0x2e, 0x49, 0x6d, 0x70, 0x72, 0x6f, 0x76, 0x65,
  0x64, 0x4d, 0x4c, 0x50, 0x2f, 0x74, 0x6f, 0x72, 0x63, 0x68, 0x2e, 0x6e,
  0x6e, 0x2e, 0x6d, 0x6f, 0x64, 0x75, 0x6c, 0x65, 0x73, 0x2e, 0x63, 0x6f,
  0x6e, 0x74, 0x61, 0x69, 0x6e, 0x65, 0x72, 0x2e, 0x53, 0x65, 0x71, 0x75,
  0x65, 0x6e, 0x74, 0x69, 0x61, 0x6c, 0x5f, 0x6e, 0x65, 0x74, 0x2f, 0x74,
  0x6f, 0x72, 0x63, 0x68, 0x2e, 0x6e, 0x6e, 0x2e, 0x6d, 0x6f, 0x64, 0x75,
  0x6c, 0x65, 0x73, 0x2e, 0x6e, 0x6f, 0x72, 0x6d, 0x61, 0x6c, 0x69, 0x7a,
  0x61, 0x74, 0x69, 0x6f, 0x6e, 0x2e, 0x4c, 0x61, 0x79, 0x65, 0x72, 0x4e,
  0x6f, 0x72, 0x6d, 0x5f, 0x34, 0x3b, 0x32, 0x00, 0x03, 0x00, 0x00, 0x00,
  0x01, 0x00, 0x00, 0x00, 0x01, 0x00, 0x00, 0x00, 0x0a, 0x00, 0x00, 0x00,
  0x40, 0xde, 0xff, 0xff, 0x46, 0xf2, 0xff, 0xff, 0x08, 0x00, 0x00, 0x00,
  0x10, 0x00, 0x00, 0x00, 0x04, 0x00, 0x00, 0x00, 0x01, 0x00, 0x00, 0x00,
  0x24, 0x00, 0x00, 0x00, 0x01, 0x00, 0x00, 0x00, 0x23, 0x00, 0x00, 0x00,
  0x28, 0xf1, 0xff, 0xff, 0x1c, 0x00, 0x00, 0x00, 0x00, 0x00, 0x00, 0x1c,
  0x01, 0x00, 0x00, 0x00, 0xce, 0xde, 0xff, 0xff, 0x00, 0x00, 0x00, 0x01,
  0x0c, 0x01, 0x00, 0x00, 0x25, 0x00, 0x00, 0x00, 0x08, 0x00, 0x00, 0x00,
  0x10, 0x01, 0x00, 0x00, 0xf5, 0x00, 0x00, 0x00, 0x76, 0x6c, 0x70, 0x5f,
  0x68, 0x61, 0x63, 0x6b, 0x61, 0x74, 0x68, 0x6f, 0x6e, 0x2e, 0x69, 0x6d,
  0x70, 0x72, 0x6f, 0x76, 0x65, 0x64, 0x5f, 0x6d, 0x6f, 0x64, 0x65, 0x6c,
  0x2e, 0x49, 0x6d, 0x70, 0x72, 0x6f, 0x76, 0x65, 0x64, 0x4d, 0x4c, 0x50,
  0x2f, 0x74, 0x6f, 0x72, 0x63, 0x68, 0x2e, 0x6e, 0x6e, 0x2e, 0x6d, 0x6f,
  0x64, 0x75, 0x6c, 0x65, 0x73, 0x2e, 0x63, 0x6f, 0x6e, 0x74, 0x61, 0x69,
  0x6e, 0x65, 0x72, 0x2e, 0x53, 0x65, 0x71, 0x75, 0x65, 0x6e, 0x74, 0x69,
  0x61, 0x6c, 0x5f, 0x6e, 0x65, 0x74, 0x2f, 0x74, 0x6f, 0x72, 0x63, 0x68,
  0x2e, 0x6e, 0x6e, 0x2e, 0x6d, 0x6f, 0x64, 0x75, 0x6c, 0x65, 0x73, 0x2e,
  0x61, 0x63, 0x74, 0x69, 0x76, 0x61, 0x74, 0x69, 0x6f, 0x6e, 0x2e, 0x54,
  0x61, 0x6e, 0x68, 0x5f, 0x32, 0x3b, 0x3b, 0x76, 0x6c, 0x70, 0x5f, 0x68,
  0x61, 0x63, 0x6b, 0x61, 0x74, 0x68, 0x6f, 0x6e, 0x2e, 0x69, 0x6d, 0x70,
  0x72, 0x6f, 0x76, 0x65, 0x64, 0x5f, 0x6d, 0x6f, 0x64, 0x65, 0x6c, 0x2e,
  0x49, 0x6d, 0x70, 0x72, 0x6f, 0x76, 0x65, 0x64, 0x4d, 0x4c, 0x50, 0x2f,
  0x74, 0x6f, 0x72, 0x63, 0x68, 0x2e, 0x6e, 0x6e, 0x2e, 0x6d, 0x6f, 0x64,
  0x75, 0x6c, 0x65, 0x73, 0x2e, 0x63, 0x6f, 0x6e, 0x74, 0x61, 0x69, 0x6e,
  0x65, 0x72, 0x2e, 0x53, 0x65, 0x71, 0x75, 0x65, 0x6e, 0x74, 0x69, 0x61,
  0x6c, 0x5f, 0x6e, 0x65, 0x74, 0x2f, 0x74, 0x6f, 0x72, 0x63, 0x68, 0x2e,
  0x6e, 0x6e, 0x2e, 0x6d, 0x6f, 0x64, 0x75, 0x6c, 0x65, 0x73, 0x2e, 0x6e,
  0x6f, 0x72, 0x6d, 0x61, 0x6c, 0x69, 0x7a, 0x61, 0x74, 0x69, 0x6f, 0x6e,
  0x2e, 0x4c, 0x61, 0x79, 0x65, 0x72, 0x4e, 0x6f, 0x72, 0x6d, 0x5f, 0x31,
  0x3b, 0x00, 0x00, 0x00, 0x03, 0x00, 0x00, 0x00, 0x01, 0x00, 0x00, 0x00,
  0x01, 0x00, 0x00, 0x00, 0x0a, 0x00, 0x00, 0x00, 0x98, 0xdf, 0xff, 0xff,
  0x96, 0xf4, 0xff, 0xff, 0x00, 0x00, 0x00, 0x0b, 0x04, 0x00, 0x00, 0x00,
  0x18, 0x00, 0x00, 0x00, 0x0c, 0x00, 0x00, 0x00, 0x04, 0x00, 0x00, 0x00,
  0xb4, 0xdf, 0xff, 0xff, 0x01, 0x00, 0x00, 0x00, 0x23, 0x00, 0x00, 0x00,
  0x02, 0x00, 0x00, 0x00, 0x22, 0x00, 0x00, 0x00, 0x10, 0x00, 0x00, 0x00,
  0x26, 0xe0, 0xff, 0xff, 0x00, 0x00, 0x00, 0x01, 0x98, 0x00, 0x00, 0x00,
  0x24, 0x00, 0x00, 0x00, 0x08, 0x00, 0x00, 0x00, 0x9c, 0x00, 0x00, 0x00,
  0x80, 0x00, 0x00, 0x00, 0x76, 0x6c, 0x70, 0x5f, 0x68, 0x61, 0x63, 0x6b,
  0x61, 0x74, 0x68, 0x6f, 0x6e, 0x2e, 0x69, 0x6d, 0x70, 0x72, 0x6f, 0x76,
  0x65, 0x64, 0x5f, 0x6d, 0x6f, 0x64, 0x65, 0x6c, 0x2e, 0x49, 0x6d, 0x70,
  0x72, 0x6f, 0x76, 0x65, 0x64, 0x4d, 0x4c, 0x50, 0x2f, 0x74, 0x6f, 0x72,
  0x63, 0x68, 0x2e, 0x6e, 0x6e, 0x2e, 0x6d, 0x6f, 0x64, 0x75, 0x6c, 0x65,
  0x73, 0x2e, 0x63, 0x6f, 0x6e, 0x74, 0x61, 0x69, 0x6e, 0x65, 0x72, 0x2e,
  0x53, 0x65, 0x71, 0x75, 0x65, 0x6e, 0x74, 0x69, 0x61, 0x6c, 0x5f, 0x6e,
  0x65, 0x74, 0x2f, 0x74, 0x6f, 0x72, 0x63, 0x68, 0x2e, 0x6e, 0x6e, 0x2e,
  0x6d, 0x6f, 0x64, 0x75, 0x6c, 0x65, 0x73, 0x2e, 0x6e, 0x6f, 0x72, 0x6d,
  0x61, 0x6c, 0x69, 0x7a, 0x61, 0x74, 0x69, 0x6f, 0x6e, 0x2e, 0x4c, 0x61,
  0x79, 0x65, 0x72, 0x4e, 0x6f, 0x72, 0x6d, 0x5f, 0x31, 0x3b, 0x31, 0x36,
  0x00, 0x00, 0x00, 0x00, 0x03, 0x00, 0x00, 0x00, 0x01, 0x00, 0x00, 0x00,
  0x01, 0x00, 0x00, 0x00, 0x0a, 0x00, 0x00, 0x00, 0x7c, 0xe0, 0xff, 0xff,
  0x7a, 0xf5, 0xff, 0xff, 0x00, 0x00, 0x00, 0x15, 0x06, 0x00, 0x00, 0x00,
  0x18, 0x00, 0x00, 0x00, 0x0c, 0x00, 0x00, 0x00, 0x04, 0x00, 0x00, 0x00,
  0x98, 0xe0, 0xff, 0xff, 0x01, 0x00, 0x00, 0x00, 0x22, 0x00, 0x00, 0x00,
  0x02, 0x00, 0x00, 0x00, 0x21, 0x00, 0x00, 0x00, 0x11, 0x00, 0x00, 0x00,
  0x0a, 0xe1, 0xff, 0xff, 0x00, 0x00, 0x00, 0x01, 0x98, 0x00, 0x00, 0x00,
  0x23, 0x00, 0x00, 0x00, 0x08, 0x00, 0x00, 0x00, 0x9c, 0x00, 0x00, 0x00,
  0x80, 0x00, 0x00, 0x00, 0x76, 0x6c, 0x70, 0x5f, 0x68, 0x61, 0x63, 0x6b,
  0x61, 0x74, 0x68, 0x6f, 0x6e, 0x2e, 0x69, 0x6d, 0x70, 0x72, 0x6f, 0x76,
  0x65, 0x64, 0x5f, 0x6d, 0x6f, 0x64, 0x65, 0x6c, 0x2e, 0x49, 0x6d, 0x70,
  0x72, 0x6f, 0x76, 0x65, 0x64, 0x4d, 0x4c, 0x50, 0x2f, 0x74, 0x6f, 0x72,
  0x63, 0x68, 0x2e, 0x6e, 0x6e, 0x2e, 0x6d, 0x6f, 0x64, 0x75, 0x6c, 0x65,
  0x73, 0x2e, 0x63, 0x6f, 0x6e, 0x74, 0x61, 0x69, 0x6e, 0x65, 0x72, 0x2e,
  0x53, 0x65, 0x71, 0x75, 0x65, 0x6e, 0x74, 0x69, 0x61, 0x6c, 0x5f, 0x6e,
  0x65, 0x74, 0x2f, 0x74, 0x6f, 0x72, 0x63, 0x68, 0x2e, 0x6e, 0x6e, 0x2e,
  0x6d, 0x6f, 0x64, 0x75, 0x6c, 0x65, 0x73, 0x2e, 0x6e, 0x6f, 0x72, 0x6d,
  0x61, 0x6c, 0x69, 0x7a, 0x61, 0x74, 0x69, 0x6f, 0x6e, 0x2e, 0x4c, 0x61,
  0x79, 0x65, 0x72, 0x4e, 0x6f, 0x72, 0x6d, 0x5f, 0x31, 0x3b, 0x31, 0x35,
  0x00, 0x00, 0x00, 0x00, 0x03, 0x00, 0x00, 0x00, 0x01, 0x00, 0x00, 0x00,
  0x01, 0x00, 0x00, 0x00, 0x0a, 0x00, 0x00, 0x00, 0x60, 0xe1, 0xff, 0xff,
  0x5e, 0xf6, 0xff, 0xff, 0x00, 0x00, 0x00, 0x0b, 0x04, 0x00, 0x00, 0x00,
  0x18, 0x00, 0x00, 0x00, 0x0c, 0x00, 0x00, 0x00, 0x04, 0x00, 0x00, 0x00,
  0x7c, 0xe1, 0xff, 0xff, 0x01, 0x00, 0x00, 0x00, 0x21, 0x00, 0x00, 0x00,
  0x02, 0x00, 0x00, 0x00, 0x1f, 0x00, 0x00, 0x00, 0x20, 0x00, 0x00, 0x00,
  0xee, 0xe1, 0xff, 0xff, 0x00, 0x00, 0x00, 0x01, 0x98, 0x00, 0x00, 0x00,
  0x22, 0x00, 0x00, 0x00, 0x08, 0x00, 0x00, 0x00, 0x9c, 0x00, 0x00, 0x00,
  0x80, 0x00, 0x00, 0x00, 0x76, 0x6c, 0x70, 0x5f, 0x68, 0x61, 0x63, 0x6b,
  0x61, 0x74, 0x68, 0x6f, 0x6e, 0x2e, 0x69, 0x6d, 0x70, 0x72, 0x6f, 0x76,
  0x65, 0x64, 0x5f, 0x6d, 0x6f, 0x64, 0x65, 0x6c, 0x2e, 0x49, 0x6d, 0x70,
  0x72, 0x6f, 0x76, 0x65, 0x64, 0x4d, 0x4c, 0x50, 0x2f, 0x74, 0x6f, 0x72,
  0x63, 0x68, 0x2e, 0x6e, 0x6e, 0x2e, 0x6d, 0x6f, 0x64, 0x75, 0x6c, 0x65,
  0x73, 0x2e, 0x63, 0x6f, 0x6e, 0x74, 0x61, 0x69, 0x6e, 0x65, 0x72, 0x2e,
  0x53, 0x65, 0x71, 0x75, 0x65, 0x6e, 0x74, 0x69, 0x61, 0x6c, 0x5f, 0x6e,
  0x65, 0x74, 0x2f, 0x74, 0x6f, 0x72, 0x63, 0x68, 0x2e, 0x6e, 0x6e, 0x2e,
  0x6d, 0x6f, 0x64, 0x75, 0x6c, 0x65, 0x73, 0x2e, 0x6e, 0x6f, 0x72, 0x6d,
  0x61, 0x6c, 0x69, 0x7a, 0x61, 0x74, 0x69, 0x6f, 0x6e, 0x2e, 0x4c, 0x61,
  0x79, 0x65, 0x72, 0x4e, 0x6f, 0x72, 0x6d, 0x5f, 0x31, 0x3b, 0x31, 0x34,
  0x00, 0x00, 0x00, 0x00, 0x03, 0x00, 0x00, 0x00, 0x01, 0x00, 0x00, 0x00,
  0x01, 0x00, 0x00, 0x00, 0x0a, 0x00, 0x00, 0x00, 0x44, 0xe2, 0xff, 0xff,
  0x4a, 0xf6, 0xff, 0xff, 0x01, 0x00, 0x00, 0x00, 0x10, 0x00, 0x00, 0x00,
  0x04, 0x00, 0x00, 0x00, 0x01, 0x00, 0x00, 0x00, 0x20, 0x00, 0x00, 0x00,
  0x02, 0x00, 0x00, 0x00, 0x1d, 0x00, 0x00, 0x00, 0x08, 0x00, 0x00, 0x00,
  0xc6, 0xe2, 0xff, 0xff, 0x00, 0x00, 0x00, 0x01, 0x98, 0x00, 0x00, 0x00,
  0x21, 0x00, 0x00, 0x00, 0x08, 0x00, 0x00, 0x00, 0x9c, 0x00, 0x00, 0x00,
  0x80, 0x00, 0x00, 0x00, 0x76, 0x6c, 0x70, 0x5f, 0x68, 0x61, 0x63, 0x6b,
  0x61, 0x74, 0x68, 0x6f, 0x6e, 0x2e, 0x69, 0x6d, 0x70, 0x72, 0x6f, 0x76,
  0x65, 0x64, 0x5f, 0x6d, 0x6f, 0x64, 0x65, 0x6c, 0x2e, 0x49, 0x6d, 0x70,
  0x72, 0x6f, 0x76, 0x65, 0x64, 0x4d, 0x4c, 0x50, 0x2f, 0x74, 0x6f, 0x72,
  0x63, 0x68, 0x2e, 0x6e, 0x6e, 0x2e, 0x6d, 0x6f, 0x64, 0x75, 0x6c, 0x65,
  0x73, 0x2e, 0x63, 0x6f, 0x6e, 0x74, 0x61, 0x69, 0x6e, 0x65, 0x72, 0x2e,
  0x53, 0x65, 0x71, 0x75, 0x65, 0x6e, 0x74, 0x69, 0x61, 0x6c, 0x5f, 0x6e,
  0x65, 0x74, 0x2f, 0x74, 0x6f, 0x72, 0x63, 0x68, 0x2e, 0x6e, 0x6e, 0x2e,
  0x6d, 0x6f, 0x64, 0x75, 0x6c, 0x65, 0x73, 0x2e, 0x6e, 0x6f, 0x72, 0x6d,
  0x61, 0x6c, 0x69, 0x7a, 0x61, 0x74, 0x69, 0x6f, 0x6e, 0x2e, 0x4c, 0x61,
  0x79, 0x65, 0x72, 0x4e, 0x6f, 0x72, 0x6d, 0x5f, 0x31, 0x3b, 0x31, 0x33,
  0x00, 0x00, 0x00, 0x00, 0x03, 0x00, 0x00, 0x00, 0x01, 0x00, 0x00, 0x00,
  0x01, 0x00, 0x00, 0x00, 0x01, 0x00, 0x00, 0x00, 0x1c, 0xe3, 0xff, 0xff,
  0x1a, 0xf8, 0xff, 0xff, 0x00, 0x00, 0x00, 0x15, 0x06, 0x00, 0x00, 0x00,
  0x18, 0x00, 0x00, 0x00, 0x0c, 0x00, 0x00, 0x00, 0x04, 0x00, 0x00, 0x00,
  0x38, 0xe3, 0xff, 0xff, 0x01, 0x00, 0x00, 0x00, 0x1f, 0x00, 0x00, 0x00,
  0x02, 0x00, 0x00, 0x00, 0x15, 0x00, 0x00, 0x00, 0x1e, 0x00, 0x00, 0x00,
  0xaa, 0xe3, 0xff, 0xff, 0x00, 0x00, 0x00, 0x01, 0x98, 0x00, 0x00, 0x00,
  0x20, 0x00, 0x00, 0x00, 0x08, 0x00, 0x00, 0x00, 0x9c, 0x00, 0x00, 0x00,
  0x80, 0x00, 0x00, 0x00, 0x76, 0x6c, 0x70, 0x5f, 0x68, 0x61, 0x63, 0x6b,
  0x61, 0x74, 0x68, 0x6f, 0x6e, 0x2e, 0x69, 0x6d, 0x70, 0x72, 0x6f, 0x76,
  0x65, 0x64, 0x5f, 0x6d, 0x6f, 0x64, 0x65, 0x6c, 0x2e, 0x49, 0x6d, 0x70,
  0x72, 0x6f, 0x76, 0x65, 0x64, 0x4d, 0x4c, 0x50, 0x2f, 0x74, 0x6f, 0x72,
  0x63, 0x68, 0x2e, 0x6e, 0x6e, 0x2e, 0x6d, 0x6f, 0x64, 0x75, 0x6c, 0x65,
  0x73, 0x2e, 0x63, 0x6f, 0x6e, 0x74, 0x61, 0x69, 0x6e, 0x65, 0x72, 0x2e,
  0x53, 0x65, 0x71, 0x75, 0x65, 0x6e, 0x74, 0x69, 0x61, 0x6c, 0x5f, 0x6e,
  0x65, 0x74, 0x2f, 0x74, 0x6f, 0x72, 0x63, 0x68, 0x2e, 0x6e, 0x6e, 0x2e,
  0x6d, 0x6f, 0x64, 0x75, 0x6c, 0x65, 0x73, 0x2e, 0x6e, 0x6f, 0x72, 0x6d,
  0x61, 0x6c, 0x69, 0x7a, 0x61, 0x74, 0x69, 0x6f, 0x6e, 0x2e, 0x4c, 0x61,
  0x79, 0x65, 0x72, 0x4e, 0x6f, 0x72, 0x6d, 0x5f, 0x31, 0x3b, 0x31, 0x32,
  0x00, 0x00, 0x00, 0x00, 0x03, 0x00, 0x00, 0x00, 0x01, 0x00, 0x00, 0x00,
  0x01, 0x00, 0x00, 0x00, 0x0a, 0x00, 0x00, 0x00, 0x00, 0xe4, 0xff, 0xff,
  0x06, 0xf8, 0xff, 0xff, 0x01, 0x00, 0x00, 0x00, 0x10, 0x00, 0x00, 0x00,
  0x04, 0x00, 0x00, 0x00, 0x01, 0x00, 0x00, 0x00, 0x1e, 0x00, 0x00, 0x00,
  0x02, 0x00, 0x00, 0x00, 0x1b, 0x00, 0x00, 0x00, 0x08, 0x00, 0x00, 0x00,
  0x82, 0xe4, 0xff, 0xff, 0x00, 0x00, 0x00, 0x01, 0x98, 0x00, 0x00, 0x00,
  0x1f, 0x00, 0x00, 0x00, 0x08, 0x00, 0x00, 0x00, 0x9c, 0x00, 0x00, 0x00,
  0x80, 0x00, 0x00, 0x00, 0x76, 0x6c, 0x70, 0x5f, 0x68, 0x61, 0x63, 0x6b,
  0x61, 0x74, 0x68, 0x6f, 0x6e, 0x2e, 0x69, 0x6d, 0x70, 0x72, 0x6f, 0x76,
  0x65, 0x64, 0x5f, 0x6d, 0x6f, 0x64, 0x65, 0x6c, 0x2e, 0x49, 0x6d, 0x70,
  0x72, 0x6f, 0x76, 0x65, 0x64, 0x4d, 0x4c, 0x50, 0x2f, 0x74, 0x6f, 0x72,
  0x63, 0x68, 0x2e, 0x6e, 0x6e, 0x2e, 0x6d, 0x6f, 0x64, 0x75, 0x6c, 0x65,
  0x73, 0x2e, 0x63, 0x6f, 0x6e, 0x74, 0x61, 0x69, 0x6e, 0x65, 0x72, 0x2e,
  0x53, 0x65, 0x71, 0x75, 0x65, 0x6e, 0x74, 0x69, 0x61, 0x6c, 0x5f, 0x6e,
  0x65, 0x74, 0x2f, 0x74, 0x6f, 0x72, 0x63, 0x68, 0x2e, 0x6e, 0x6e, 0x2e,
  0x6d, 0x6f, 0x64, 0x75, 0x6c, 0x65, 0x73, 0x2e, 0x6e, 0x6f, 0x72, 0x6d,
  0x61, 0x6c, 0x69, 0x7a, 0x61, 0x74, 0x69, 0x6f, 0x6e, 0x2e, 0x4c, 0x61,
  0x79, 0x65, 0x72, 0x4e, 0x6f, 0x72, 0x6d, 0x5f, 0x31, 0x3b, 0x31, 0x31,
  0x00, 0x00, 0x00, 0x00, 0x03, 0x00, 0x00, 0x00, 0x01, 0x00, 0x00, 0x00,
  0x01, 0x00, 0x00, 0x00, 0x01, 0x00, 0x00, 0x00, 0xd8, 0xe4, 0xff, 0xff,
  0xd6, 0xf9, 0xff, 0xff, 0x00, 0x00, 0x00, 0x1c, 0x07, 0x00, 0x00, 0x00,
  0x18, 0x00, 0x00, 0x00, 0x0c, 0x00, 0x00, 0x00, 0x04, 0x00, 0x00, 0x00,
  0xf4, 0xe4, 0xff, 0xff, 0x01, 0x00, 0x00, 0x00, 0x1d, 0x00, 0x00, 0x00,
  0x02, 0x00, 0x00, 0x00, 0x09, 0x00, 0x00, 0x00, 0x1c, 0x00, 0x00, 0x00,
  0xd0, 0xf7, 0xff, 0xff, 0x29, 0x00, 0x00, 0x00, 0x00, 0x00, 0x00, 0x29,
  0x01, 0x00, 0x00, 0x00, 0x76, 0xe5, 0xff, 0xff, 0x00, 0x00, 0x00, 0x01,
  0x98, 0x00, 0x00, 0x00, 0x1e, 0x00, 0x00, 0x00, 0x08, 0x00, 0x00, 0x00,
  0x94, 0x00, 0x00, 0x00, 0x80, 0x00, 0x00, 0x00, 0x76, 0x6c, 0x70, 0x5f,
  0x68, 0x61, 0x63, 0x6b, 0x61, 0x74, 0x68, 0x6f, 0x6e, 0x2e, 0x69, 0x6d,
  0x70, 0x72, 0x6f, 0x76, 0x65, 0x64, 0x5f, 0x6d, 0x6f, 0x64, 0x65, 0x6c,
  0x2e, 0x49, 0x6d, 0x70, 0x72, 0x6f, 0x76, 0x65, 0x64, 0x4d, 0x4c, 0x50,
  0x2f, 0x74, 0x6f, 0x72, 0x63, 0x68, 0x2e, 0x6e, 0x6e, 0x2e, 0x6d, 0x6f,
  0x64, 0x75, 0x6c, 0x65, 0x73, 0x2e, 0x63, 0x6f, 0x6e, 0x74, 0x61, 0x69,
  0x6e, 0x65, 0x72, 0x2e, 0x53, 0x65, 0x71, 0x75, 0x65, 0x6e, 0x74, 0x69,
  0x61, 0x6c, 0x5f, 0x6e, 0x65, 0x74, 0x2f, 0x74, 0x6f, 0x72, 0x63, 0x68,
  0x2e, 0x6e, 0x6e, 0x2e, 0x6d, 0x6f, 0x64, 0x75, 0x6c, 0x65, 0x73, 0x2e,
  0x6e, 0x6f, 0x72, 0x6d, 0x61, 0x6c, 0x69, 0x7a, 0x61, 0x74, 0x69, 0x6f,
  0x6e, 0x2e, 0x4c, 0x61, 0x79, 0x65, 0x72, 0x4e, 0x6f, 0x72, 0x6d, 0x5f,
  0x31, 0x3b, 0x31, 0x30, 0x00, 0x00, 0x00, 0x00, 0x01, 0x00, 0x00, 0x00,
  0x01, 0x00, 0x00, 0x00, 0xc4, 0xe5, 0xff, 0xff, 0xc2, 0xfa, 0xff, 0xff,
  0x00, 0x00, 0x00, 0x15, 0x06, 0x00, 0x00, 0x00, 0x18, 0x00, 0x00, 0x00,
  0x0c, 0x00, 0x00, 0x00, 0x04, 0x00, 0x00, 0x00, 0xe0, 0xe5, 0xff, 0xff,
  0x01, 0x00, 0x00, 0x00, 0x1c, 0x00, 0x00, 0x00, 0x02, 0x00, 0x00, 0x00,
  0x1b, 0x00, 0x00, 0x00, 0x16, 0x00, 0x00, 0x00, 0xbc, 0xf8, 0xff, 0xff,
  0x12, 0x00, 0x00, 0x00, 0x00, 0x00, 0x00, 0x12, 0x01, 0x00, 0x00, 0x00,
  0x62, 0xe6, 0xff, 0xff, 0x00, 0x00, 0x00, 0x01, 0x94, 0x00, 0x00, 0x00,
  0x1d, 0x00, 0x00, 0x00, 0x08, 0x00, 0x00, 0x00, 0x90, 0x00, 0x00, 0x00,
  0x7f, 0x00, 0x00, 0x00, 0x76, 0x6c, 0x70, 0x5f, 0x68, 0x61, 0x63, 0x6b,
  0x61, 0x74, 0x68, 0x6f, 0x6e, 0x2e, 0x69, 0x6d, 0x70, 0x72, 0x6f, 0x76,
  0x65, 0x64, 0x5f, 0x6d, 0x6f, 0x64, 0x65, 0x6c, 0x2e, 0x49, 0x6d, 0x70,
  0x72, 0x6f, 0x76, 0x65, 0x64, 0x4d, 0x4c, 0x50, 0x2f, 0x74, 0x6f, 0x72,
  0x63, 0x68, 0x2e, 0x6e, 0x6e, 0x2e, 0x6d, 0x6f, 0x64, 0x75, 0x6c, 0x65,
  0x73, 0x2e, 0x63, 0x6f, 0x6e, 0x74, 0x61, 0x69, 0x6e, 0x65, 0x72, 0x2e,
  0x53, 0x65, 0x71, 0x75, 0x65, 0x6e, 0x74, 0x69, 0x61, 0x6c, 0x5f, 0x6e,
  0x65, 0x74, 0x2f, 0x74, 0x6f, 0x72, 0x63, 0x68, 0x2e, 0x6e, 0x6e, 0x2e,
  0x6d, 0x6f, 0x64, 0x75, 0x6c, 0x65, 0x73, 0x2e, 0x6e, 0x6f, 0x72, 0x6d,
  0x61, 0x6c, 0x69, 0x7a, 0x61, 0x74, 0x69, 0x6f, 0x6e, 0x2e, 0x4c, 0x61,
  0x79, 0x65, 0x72, 0x4e, 0x6f, 0x72, 0x6d, 0x5f, 0x31, 0x3b, 0x39, 0x00,
  0x01, 0x00, 0x00, 0x00, 0x01, 0x00, 0x00, 0x00, 0xac, 0xe6, 0xff, 0xff,
  0xb2, 0xfa, 0xff, 0xff, 0x05, 0x00, 0x00, 0x00, 0x10, 0x00, 0x00, 0x00,
  0x04, 0x00, 0x00, 0x00, 0x01, 0x00, 0x00, 0x00, 0x1b, 0x00, 0x00, 0x00,
  0x01, 0x00, 0x00, 0x00, 0x1a, 0x00, 0x00, 0x00, 0x94, 0xf9, 0xff, 0xff,
  0x4c, 0x00, 0x00, 0x00, 0x00, 0x00, 0x00, 0x4c, 0x01, 0x00, 0x00, 0x00,
  0x3a, 0xe7, 0xff, 0xff, 0x00, 0x00, 0x00, 0x01, 0x94, 0x00, 0x00, 0x00,
  0x1c, 0x00, 0x00, 0x00, 0x08, 0x00, 0x00, 0x00, 0x90, 0x00, 0x00, 0x00,
  0x7f, 0x00, 0x00, 0x00, 0x76, 0x6c, 0x70, 0x5f, 0x68, 0x61, 0x63, 0x6b,
  0x61, 0x74, 0x68, 0x6f, 0x6e, 0x2e, 0x69, 0x6d, 0x70, 0x72, 0x6f, 0x76,
  0x65, 0x64, 0x5f, 0x6d, 0x6f, 0x64, 0x65, 0x6c, 0x2e, 0x49, 0x6d, 0x70,
  0x72, 0x6f, 0x76, 0x65, 0x64, 0x4d, 0x4c, 0x50, 0x2f, 0x74, 0x6f, 0x72,
  0x63, 0x68, 0x2e, 0x6e, 0x6e, 0x2e, 0x6d, 0x6f, 0x64, 0x75, 0x6c, 0x65,
  0x73, 0x2e, 0x63, 0x6f, 0x6e, 0x74, 0x61, 0x69, 0x6e, 0x65, 0x72, 0x2e,
  0x53, 0x65, 0x71, 0x75, 0x65, 0x6e, 0x74, 0x69, 0x61, 0x6c, 0x5f, 0x6e,
  0x65, 0x74, 0x2f, 0x74, 0x6f, 0x72, 0x63, 0x68, 0x2e, 0x6e, 0x6e, 0x2e,
  0x6d, 0x6f, 0x64, 0x75, 0x6c, 0x65, 0x73, 0x2e, 0x6e, 0x6f, 0x72, 0x6d,
  0x61, 0x6c, 0x69, 0x7a, 0x61, 0x74, 0x69, 0x6f, 0x6e, 0x2e, 0x4c, 0x61,
  0x79, 0x65, 0x72, 0x4e, 0x6f, 0x72, 0x6d, 0x5f, 0x31, 0x3b, 0x38, 0x00,
  0x01, 0x00, 0x00, 0x00, 0x01, 0x00, 0x00, 0x00, 0x84, 0xe7, 0xff, 0xff,
  0x82, 0xfc, 0xff, 0xff, 0x00, 0x00, 0x00, 0x0b, 0x04, 0x00, 0x00, 0x00,
  0x18, 0x00, 0x00, 0x00, 0x0c, 0x00, 0x00, 0x00, 0x04, 0x00, 0x00, 0x00,
  0xa0, 0xe7, 0xff, 0xff, 0x01, 0x00, 0x00, 0x00, 0x1a, 0x00, 0x00, 0x00,
  0x02, 0x00, 0x00, 0x00, 0x19, 0x00, 0x00, 0x00, 0x0b, 0x00, 0x00, 0x00,
  0x00, 0x00, 0x0a, 0x00, 0x08, 0x00, 0x00, 0x00, 0x00, 0x00, 0x04, 0x00,
  0x0a, 0x00, 0x00, 0x00, 0x01, 0x00, 0x00, 0x00, 0x26, 0xe8, 0xff, 0xff,
  0x00, 0x00, 0x00, 0x01, 0x94, 0x00, 0x00, 0x00, 0x1b, 0x00, 0x00, 0x00,
  0x08, 0x00, 0x00, 0x00, 0x90, 0x00, 0x00, 0x00, 0x7f, 0x00, 0x00, 0x00,
  0x76, 0x6c, 0x70, 0x5f, 0x68, 0x61, 0x63, 0x6b, 0x61, 0x74, 0x68, 0x6f,
  0x6e, 0x2e, 0x69, 0x6d, 0x70, 0x72, 0x6f, 0x76, 0x65, 0x64, 0x5f, 0x6d,
  0x6f, 0x64, 0x65, 0x6c, 0x2e, 0x49, 0x6d, 0x70, 0x72, 0x6f, 0x76, 0x65,
  0x64, 0x4d, 0x4c, 0x50, 0x2f, 0x74, 0x6f, 0x72, 0x63, 0x68, 0x2e, 0x6e,
  0x6e, 0x2e, 0x6d, 0x6f, 0x64, 0x75, 0x6c, 0x65, 0x73, 0x2e, 0x63, 0x6f,
  0x6e, 0x74, 0x61, 0x69, 0x6e, 0x65, 0x72, 0x2e, 0x53, 0x65, 0x71, 0x75,
  0x65, 0x6e, 0x74, 0x69, 0x61, 0x6c, 0x5f, 0x6e, 0x65, 0x74, 0x2f, 0x74,
  0x6f, 0x72, 0x63, 0x68, 0x2e, 0x6e, 0x6e, 0x2e, 0x6d, 0x6f, 0x64, 0x75,
  0x6c, 0x65, 0x73, 0x2e, 0x6e, 0x6f, 0x72, 0x6d, 0x61, 0x6c, 0x69, 0x7a,
  0x61, 0x74, 0x69, 0x6f, 0x6e, 0x2e, 0x4c, 0x61, 0x79, 0x65, 0x72, 0x4e,
  0x6f, 0x72, 0x6d, 0x5f, 0x31, 0x3b, 0x37, 0x00, 0x01, 0x00, 0x00, 0x00,
  0x01, 0x00, 0x00, 0x00, 0x70, 0xe8, 0xff, 0xff, 0x6e, 0xfd, 0xff, 0xff,
  0x00, 0x00, 0x00, 0x1b, 0x02, 0x00, 0x00, 0x00, 0x18, 0x00, 0x00, 0x00,
  0x0c, 0x00, 0x00, 0x00, 0x04, 0x00, 0x00, 0x00, 0x8c, 0xe8, 0xff, 0xff,
  0x01, 0x00, 0x00, 0x00, 0x19, 0x00, 0x00, 0x00, 0x02, 0x00, 0x00, 0x00,
  0x18, 0x00, 0x00, 0x00, 0x0a, 0x00, 0x00, 0x00, 0xfe, 0xe8, 0xff, 0xff,
  0x00, 0x00, 0x00, 0x01, 0x94, 0x00, 0x00, 0x00, 0x1a, 0x00, 0x00, 0x00,
  0x08, 0x00, 0x00, 0x00, 0x90, 0x00, 0x00, 0x00, 0x7f, 0x00, 0x00, 0x00,
  0x76, 0x6c, 0x70, 0x5f, 0x68, 0x61, 0x63, 0x6b, 0x61, 0x74, 0x68, 0x6f,
  0x6e, 0x2e, 0x69, 0x6d, 0x70, 0x72, 0x6f, 0x76, 0x65, 0x64, 0x5f, 0x6d,
  0x6f, 0x64, 0x65, 0x6c, 0x2e, 0x49, 0x6d, 0x70, 0x72, 0x6f, 0x76, 0x65,
  0x64, 0x4d, 0x4c, 0x50, 0x2f, 0x74, 0x6f, 0x72, 0x63, 0x68, 0x2e, 0x6e,
  0x6e, 0x2e, 0x6d, 0x6f, 0x64, 0x75, 0x6c, 0x65, 0x73, 0x2e, 0x63, 0x6f,
  0x6e, 0x74, 0x61, 0x69, 0x6e, 0x65, 0x72, 0x2e, 0x53, 0x65, 0x71, 0x75,
  0x65, 0x6e, 0x74, 0x69, 0x61, 0x6c, 0x5f, 0x6e, 0x65, 0x74, 0x2f, 0x74,
  0x6f, 0x72, 0x63, 0x68, 0x2e, 0x6e, 0x6e, 0x2e, 0x6d, 0x6f, 0x64, 0x75,
  0x6c, 0x65, 0x73, 0x2e, 0x6e, 0x6f, 0x72, 0x6d, 0x61, 0x6c, 0x69, 0x7a,
  0x61, 0x74, 0x69, 0x6f, 0x6e, 0x2e, 0x4c, 0x61, 0x79, 0x65, 0x72, 0x4e,
  0x6f, 0x72, 0x6d, 0x5f, 0x31, 0x3b, 0x36, 0x00, 0x01, 0x00, 0x00, 0x00,
  0x01, 0x00, 0x00, 0x00, 0x48, 0xe9, 0xff, 0xff, 0x4e, 0xfd, 0xff, 0xff,
  0x03, 0x00, 0x00, 0x00, 0x10, 0x00, 0x00, 0x00, 0x04, 0x00, 0x00, 0x00,
  0x01, 0x00, 0x00, 0x00, 0x18, 0x00, 0x00, 0x00, 0x02, 0x00, 0x00, 0x00,
  0x15, 0x00, 0x00, 0x00, 0x17, 0x00, 0x00, 0x00, 0x34, 0xfc, 0xff, 0xff,
  0x63, 0x00, 0x00, 0x00, 0x00, 0x00, 0x00, 0x63, 0x01, 0x00, 0x00, 0x00,
  0xda, 0xe9, 0xff, 0xff, 0x00, 0x00, 0x00, 0x01, 0x94, 0x00, 0x00, 0x00,
  0x19, 0x00, 0x00, 0x00, 0x08, 0x00, 0x00, 0x00, 0x98, 0x00, 0x00, 0x00,
  0x7f, 0x00, 0x00, 0x00, 0x76, 0x6c, 0x70, 0x5f, 0x68, 0x61, 0x63, 0x6b,
  0x61, 0x74, 0x68, 0x6f, 0x6e, 0x2e, 0x69, 0x6d, 0x70, 0x72, 0x6f, 0x76,
  0x65, 0x64, 0x5f, 0x6d, 0x6f, 0x64, 0x65, 0x6c, 0x2e, 0x49, 0x6d, 0x70,
  0x72, 0x6f, 0x76, 0x65, 0x64, 0x4d, 0x4c, 0x50, 0x2f, 0x74, 0x6f, 0x72,
  0x63, 0x68, 0x2e, 0x6e, 0x6e, 0x2e, 0x6d, 0x6f, 0x64, 0x75, 0x6c, 0x65,
  0x73, 0x2e, 0x63, 0x6f, 0x6e, 0x74, 0x61, 0x69, 0x6e, 0x65, 0x72, 0x2e,
  0x53, 0x65, 0x71, 0x75, 0x65, 0x6e, 0x74, 0x69, 0x61, 0x6c, 0x5f, 0x6e,
  0x65, 0x74, 0x2f, 0x74, 0x6f, 0x72, 0x63, 0x68, 0x2e, 0x6e, 0x6e, 0x2e,
  0x6d, 0x6f, 0x64, 0x75, 0x6c, 0x65, 0x73, 0x2e, 0x6e, 0x6f, 0x72, 0x6d,
  0x61, 0x6c, 0x69, 0x7a, 0x61, 0x74, 0x69, 0x6f, 0x6e, 0x2e, 0x4c, 0x61,
  0x79, 0x65, 0x72, 0x4e, 0x6f, 0x72, 0x6d, 0x5f, 0x31, 0x3b, 0x35, 0x00,
  0x03, 0x00, 0x00, 0x00, 0x01, 0x00, 0x00, 0x00, 0x01, 0x00, 0x00, 0x00,
  0x0a, 0x00, 0x00, 0x00, 0x2c, 0xea, 0xff, 0xff, 0x32, 0xfe, 0xff, 0xff,
  0x01, 0x00, 0x00, 0x00, 0x10, 0x00, 0x00, 0x00, 0x04, 0x00, 0x00, 0x00,
  0x01, 0x00, 0x00, 0x00, 0x17, 0x00, 0x00, 0x00, 0x02, 0x00, 0x00, 0x00,
  0x16, 0x00, 0x00, 0x00, 0x08, 0x00, 0x00, 0x00, 0xae, 0xea, 0xff, 0xff,
  0x00, 0x00, 0x00, 0x01, 0x94, 0x00, 0x00, 0x00, 0x18, 0x00, 0x00, 0x00,
  0x08, 0x00, 0x00, 0x00, 0x98, 0x00, 0x00, 0x00, 0x7f, 0x00, 0x00, 0x00,
  0x76, 0x6c, 0x70, 0x5f, 0x68, 0x61, 0x63, 0x6b, 0x61, 0x74, 0x68, 0x6f,
  0x6e, 0x2e, 0x69, 0x6d, 0x70, 0x72, 0x6f, 0x76, 0x65, 0x64, 0x5f, 0x6d,
  0x6f, 0x64, 0x65, 0x6c, 0x2e, 0x49, 0x6d, 0x70, 0x72, 0x6f, 0x76, 0x65,
  0x64, 0x4d, 0x4c, 0x50, 0x2f, 0x74, 0x6f, 0x72, 0x63, 0x68, 0x2e, 0x6e,
  0x6e, 0x2e, 0x6d, 0x6f, 0x64, 0x75, 0x6c, 0x65, 0x73, 0x2e, 0x63, 0x6f,
  0x6e, 0x74, 0x61, 0x69, 0x6e, 0x65, 0x72, 0x2e, 0x53, 0x65, 0x71, 0x75,
  0x65, 0x6e, 0x74, 0x69, 0x61, 0x6c, 0x5f, 0x6e, 0x65, 0x74, 0x2f, 0x74,
  0x6f, 0x72, 0x63, 0x68, 0x2e, 0x6e, 0x6e, 0x2e, 0x6d, 0x6f, 0x64, 0x75,
  0x6c, 0x65, 0x73, 0x2e, 0x6e, 0x6f, 0x72, 0x6d, 0x61, 0x6c, 0x69, 0x7a,
  0x61, 0x74, 0x69, 0x6f, 0x6e, 0x2e, 0x4c, 0x61, 0x79, 0x65, 0x72, 0x4e,
  0x6f, 0x72, 0x6d, 0x5f, 0x31, 0x3b, 0x34, 0x00, 0x03, 0x00, 0x00, 0x00,
  0x01, 0x00, 0x00, 0x00, 0x01, 0x00, 0x00, 0x00, 0x01, 0x00, 0x00, 0x00,
  0x80, 0xeb, 0xff, 0xff, 0x00, 0x00, 0x0e, 0x00, 0x18, 0x00, 0x08, 0x00,
  0x0c, 0x00, 0x10, 0x00, 0x07, 0x00, 0x14, 0x00, 0x0e, 0x00, 0x00, 0x00,
  0x00, 0x00, 0x00, 0x1b, 0x02, 0x00, 0x00, 0x00, 0x18, 0x00, 0x00, 0x00,
  0x0c, 0x00, 0x00, 0x00, 0x04, 0x00, 0x00, 0x00, 0x2c, 0xeb, 0xff, 0xff,
  0x01, 0x00, 0x00, 0x00, 0x16, 0x00, 0x00, 0x00, 0x02, 0x00, 0x00, 0x00,
  0x15, 0x00, 0x00, 0x00, 0x0a, 0x00, 0x00, 0x00, 0x08, 0xfe, 0xff, 0xff,
  0x28, 0x00, 0x00, 0x00, 0x00, 0x00, 0x00, 0x28, 0x01, 0x00, 0x00, 0x00,
  0xae, 0xeb, 0xff, 0xff, 0x00, 0x00, 0x00, 0x01, 0x94, 0x00, 0x00, 0x00,
  0x17, 0x00, 0x00, 0x00, 0x08, 0x00, 0x00, 0x00, 0x90, 0x00, 0x00, 0x00,
  0x7f, 0x00, 0x00, 0x00, 0x76, 0x6c, 0x70, 0x5f, 0x68, 0x61, 0x63, 0x6b,
  0x61, 0x74, 0x68, 0x6f, 0x6e, 0x2e, 0x69, 0x6d, 0x70, 0x72, 0x6f, 0x76,
  0x65, 0x64, 0x5f, 0x6d, 0x6f, 0x64, 0x65, 0x6c, 0x2e, 0x49, 0x6d, 0x70,
  0x72, 0x6f, 0x76, 0x65, 0x64, 0x4d, 0x4c, 0x50, 0x2f, 0x74, 0x6f, 0x72,
  0x63, 0x68, 0x2e, 0x6e, 0x6e, 0x2e, 0x6d, 0x6f, 0x64, 0x75, 0x6c, 0x65,
  0x73, 0x2e, 0x63, 0x6f, 0x6e, 0x74, 0x61, 0x69, 0x6e, 0x65, 0x72, 0x2e,
  0x53, 0x65, 0x71, 0x75, 0x65, 0x6e, 0x74, 0x69, 0x61, 0x6c, 0x5f, 0x6e,
  0x65, 0x74, 0x2f, 0x74, 0x6f, 0x72, 0x63, 0x68, 0x2e, 0x6e, 0x6e, 0x2e,
  0x6d, 0x6f, 0x64, 0x75, 0x6c, 0x65, 0x73, 0x2e, 0x6e, 0x6f, 0x72, 0x6d,
  0x61, 0x6c, 0x69, 0x7a, 0x61, 0x74, 0x69, 0x6f, 0x6e, 0x2e, 0x4c, 0x61,
  0x79, 0x65, 0x72, 0x4e, 0x6f, 0x72, 0x6d, 0x5f, 0x31, 0x3b, 0x33, 0x00,
  0x01, 0x00, 0x00, 0x00, 0x01, 0x00, 0x00, 0x00, 0x78, 0xec, 0xff, 0xff,
  0x00, 0x00, 0x0a, 0x00, 0x10, 0x00, 0x04, 0x00, 0x08, 0x00, 0x0c, 0x00,
  0x0a, 0x00, 0x00, 0x00, 0x01, 0x00, 0x00, 0x00, 0x10, 0x00, 0x00, 0x00,
  0x04, 0x00, 0x00, 0x00, 0x01, 0x00, 0x00, 0x00, 0x15, 0x00, 0x00, 0x00,
  0x02, 0x00, 0x00, 0x00, 0x14, 0x00, 0x00, 0x00, 0x07, 0x00, 0x00, 0x00,
  0xf0, 0xfe, 0xff, 0xff, 0x16, 0x00, 0x00, 0x00, 0x00, 0x00, 0x00, 0x16,
  0x01, 0x00, 0x00, 0x00, 0x96, 0xec, 0xff, 0xff, 0x00, 0x00, 0x00, 0x01,
  0x94, 0x00, 0x00, 0x00, 0x16, 0x00, 0x00, 0x00, 0x08, 0x00, 0x00, 0x00,
  0x98, 0x00, 0x00, 0x00, 0x7f, 0x00, 0x00, 0x00, 0x76, 0x6c, 0x70, 0x5f,
  0x68, 0x61, 0x63, 0x6b, 0x61, 0x74, 0x68, 0x6f, 0x6e, 0x2e, 0x69, 0x6d,
  0x70, 0x72, 0x6f, 0x76, 0x65, 0x64, 0x5f, 0x6d, 0x6f, 0x64, 0x65, 0x6c,
  0x2e, 0x49, 0x6d, 0x70, 0x72, 0x6f, 0x76, 0x65, 0x64, 0x4d, 0x4c, 0x50,
  0x2f, 0x74, 0x6f, 0x72, 0x63, 0x68, 0x2e, 0x6e, 0x6e, 0x2e, 0x6d, 0x6f,
  0x64, 0x75, 0x6c, 0x65, 0x73, 0x2e, 0x63, 0x6f, 0x6e, 0x74, 0x61, 0x69,
  0x6e, 0x65, 0x72, 0x2e, 0x53, 0x65, 0x71, 0x75, 0x65, 0x6e, 0x74, 0x69,
  0x61, 0x6c, 0x5f, 0x6e, 0x65, 0x74, 0x2f, 0x74, 0x6f, 0x72, 0x63, 0x68,
  0x2e, 0x6e, 0x6e, 0x2e, 0x6d, 0x6f, 0x64, 0x75, 0x6c, 0x65, 0x73, 0x2e,
  0x6e, 0x6f, 0x72, 0x6d, 0x61, 0x6c, 0x69, 0x7a, 0x61, 0x74, 0x69, 0x6f,
  0x6e, 0x2e, 0x4c, 0x61, 0x79, 0x65, 0x72, 0x4e, 0x6f, 0x72, 0x6d, 0x5f,
  0x31, 0x3b, 0x32, 0x00, 0x03, 0x00, 0x00, 0x00, 0x01, 0x00, 0x00, 0x00,
  0x01, 0x00, 0x00, 0x00, 0x0a, 0x00, 0x00, 0x00, 0x68, 0xed, 0xff, 0xff,
  0x00, 0x00, 0x0e, 0x00, 0x16, 0x00, 0x00, 0x00, 0x08, 0x00, 0x0c, 0x00,
  0x07, 0x00, 0x10, 0x00, 0x0e, 0x00, 0x00, 0x00, 0x00, 0x00, 0x00, 0x08,
  0x28, 0x00, 0x00, 0x00, 0x1c, 0x00, 0x00, 0x00, 0x10, 0x00, 0x00, 0x00,
  0x00, 0x00, 0x0a, 0x00, 0x08, 0x00, 0x00, 0x00, 0x00, 0x00, 0x07, 0x00,
  0x0a, 0x00, 0x00, 0x00, 0x00, 0x00, 0x00, 0x01, 0x01, 0x00, 0x00, 0x00,
  0x14, 0x00, 0x00, 0x00, 0x03, 0x00, 0x00, 0x00, 0x00, 0x00, 0x00, 0x00,
  0x12, 0x00, 0x00, 0x00, 0x13, 0x00, 0x00, 0x00, 0x0c, 0x00, 0x10, 0x00,
  0x0b, 0x00, 0x00, 0x00, 0x0c, 0x00, 0x04, 0x00, 0x0c, 0x00, 0x00, 0x00,
  0x09, 0x00, 0x00, 0x00, 0x00, 0x00, 0x00, 0x09, 0x05, 0x00, 0x00, 0x00,
  0xb2, 0xed, 0xff, 0xff, 0x00, 0x00, 0x00, 0x01, 0x8c, 0x00, 0x00, 0x00,
  0x15, 0x00, 0x00, 0x00, 0x08, 0x00, 0x00, 0x00, 0x8c, 0x00, 0x00, 0x00,
  0x75, 0x00, 0x00, 0x00, 0x76, 0x6c, 0x70, 0x5f, 0x68, 0x61, 0x63, 0x6b,
  0x61, 0x74, 0x68, 0x6f, 0x6e, 0x2e, 0x69, 0x6d, 0x70, 0x72, 0x6f, 0x76,
  0x65, 0x64, 0x5f, 0x6d, 0x6f, 0x64, 0x65, 0x6c, 0x2e, 0x49, 0x6d, 0x70,
  0x72, 0x6f, 0x76, 0x65, 0x64, 0x4d, 0x4c, 0x50, 0x2f, 0x74, 0x6f, 0x72,
  0x63, 0x68, 0x2e, 0x6e, 0x6e, 0x2e, 0x6d, 0x6f, 0x64, 0x75, 0x6c, 0x65,
  0x73, 0x2e, 0x63, 0x6f, 0x6e, 0x74, 0x61, 0x69, 0x6e, 0x65, 0x72, 0x2e,
  0x53, 0x65, 0x71, 0x75, 0x65, 0x6e, 0x74, 0x69, 0x61, 0x6c, 0x5f, 0x6e,
  0x65, 0x74, 0x2f, 0x74, 0x6f, 0x72, 0x63, 0x68, 0x2e, 0x6e, 0x6e, 0x2e,
  0x6d, 0x6f, 0x64, 0x75, 0x6c, 0x65, 0x73, 0x2e, 0x6c, 0x69, 0x6e, 0x65,
  0x61, 0x72, 0x2e, 0x4c, 0x69, 0x6e, 0x65, 0x61, 0x72, 0x5f, 0x30, 0x3b,
  0x32, 0x00, 0x00, 0x00, 0x02, 0x00, 0x00, 0x00, 0x01, 0x00, 0x00, 0x00,
  0x0a, 0x00, 0x00, 0x00, 0xf8, 0xed, 0xff, 0xff, 0x56, 0xee, 0xff, 0xff,
  0x00, 0x00, 0x00, 0x01, 0x8c, 0x00, 0x00, 0x00, 0x14, 0x00, 0x00, 0x00,
  0x08, 0x00, 0x00, 0x00, 0x88, 0x00, 0x00, 0x00, 0x75, 0x00, 0x00, 0x00,
  0x76, 0x6c, 0x70, 0x5f, 0x68, 0x61, 0x63, 0x6b, 0x61, 0x74, 0x68, 0x6f,
  0x6e, 0x2e, 0x69, 0x6d, 0x70, 0x72, 0x6f, 0x76, 0x65, 0x64, 0x5f, 0x6d,
  0x6f, 0x64, 0x65, 0x6c, 0x2e, 0x49, 0x6d, 0x70, 0x72, 0x6f, 0x76, 0x65,
  0x64, 0x4d, 0x4c, 0x50, 0x2f, 0x74, 0x6f, 0x72, 0x63, 0x68, 0x2e, 0x6e,
  0x6e, 0x2e, 0x6d, 0x6f, 0x64, 0x75, 0x6c, 0x65, 0x73, 0x2e, 0x63, 0x6f,
  0x6e, 0x74, 0x61, 0x69, 0x6e, 0x65, 0x72, 0x2e, 0x53, 0x65, 0x71, 0x75,
  0x65, 0x6e, 0x74, 0x69, 0x61, 0x6c, 0x5f, 0x6e, 0x65, 0x74, 0x2f, 0x74,
  0x6f, 0x72, 0x63, 0x68, 0x2e, 0x6e, 0x6e, 0x2e, 0x6d, 0x6f, 0x64, 0x75,
  0x6c, 0x65, 0x73, 0x2e, 0x6c, 0x69, 0x6e, 0x65, 0x61, 0x72, 0x2e, 0x4c,
  0x69, 0x6e, 0x65, 0x61, 0x72, 0x5f, 0x30, 0x3b, 0x31, 0x00, 0x00, 0x00,
  0x01, 0x00, 0x00, 0x00, 0x0a, 0x00, 0x00, 0x00, 0x98, 0xee, 0xff, 0xff,
  0x12, 0xef, 0xff, 0xff, 0x04, 0x00, 0x00, 0x00, 0x28, 0x00, 0x00, 0x00,
  0xd3, 0xac, 0x53, 0x3d, 0x48, 0xb4, 0x81, 0xbd, 0xe0, 0xf4, 0x0c, 0x3e,
  0xfe, 0x21, 0x2b, 0x3e, 0xad, 0xc4, 0x0e, 0xbe, 0xc4, 0x97, 0x12, 0xbe,
  0x3b, 0xc1, 0x83, 0x3e, 0xec, 0x59, 0xb7, 0xbd, 0xf5, 0xa6, 0x4d, 0xbe,
  0x00, 0xc6, 0xb3, 0xbe, 0x2a, 0xef, 0xff, 0xff, 0x00, 0x00, 0x00, 0x01,
  0x8c, 0x00, 0x00, 0x00, 0x13, 0x00, 0x00, 0x00, 0x08, 0x00, 0x00, 0x00,
  0x8c, 0x00, 0x00, 0x00, 0x74, 0x00, 0x00, 0x00, 0x76, 0x6c, 0x70, 0x5f,
  0x68, 0x61, 0x63, 0x6b, 0x61, 0x74, 0x68, 0x6f, 0x6e, 0x2e, 0x69, 0x6d,
  0x70, 0x72, 0x6f, 0x76, 0x65, 0x64, 0x5f, 0x6d, 0x6f, 0x64, 0x65, 0x6c,
  0x2e, 0x49, 0x6d, 0x70, 0x72, 0x6f, 0x76, 0x65, 0x64, 0x4d, 0x4c, 0x50,
  0x2f, 0x74, 0x6f, 0x72, 0x63, 0x68, 0x2e, 0x6e, 0x6e, 0x2e, 0x6d, 0x6f,
  0x64, 0x75, 0x6c, 0x65, 0x73, 0x2e, 0x63, 0x6f, 0x6e, 0x74, 0x61, 0x69,
  0x6e, 0x65, 0x72, 0x2e, 0x53, 0x65, 0x71, 0x75, 0x65, 0x6e, 0x74, 0x69,
  0x61, 0x6c, 0x5f, 0x6e, 0x65, 0x74, 0x2f, 0x74, 0x6f, 0x72, 0x63, 0x68,
  0x2e, 0x6e, 0x6e, 0x2e, 0x6d, 0x6f, 0x64, 0x75, 0x6c, 0x65, 0x73, 0x2e,
  0x6c, 0x69, 0x6e, 0x65, 0x61, 0x72, 0x2e, 0x4c, 0x69, 0x6e, 0x65, 0x61,
  0x72, 0x5f, 0x30, 0x3b, 0x00, 0x00, 0x00, 0x00, 0x02, 0x00, 0x00, 0x00,
  0x0a, 0x00, 0x00, 0x00, 0x09, 0x00, 0x00, 0x00, 0x70, 0xef, 0xff, 0xff,
  0xea, 0xef, 0xff, 0xff, 0x04, 0x00, 0x00, 0x00, 0x68, 0x01, 0x00, 0x00,
  0xa7, 0xc1, 0xdb, 0x3d, 0xd6, 0x56, 0x66, 0x3e, 0x42, 0xd4, 0x52, 0xbd,
  0x5a, 0x36, 0x4b, 0x3e, 0x3f, 0xf1, 0xd4, 0xbd, 0x8a, 0x48, 0x69, 0x3e,
  0x81, 0x79, 0x06, 0xbe, 0x30, 0x83, 0x58, 0x3e, 0xa4, 0x54, 0x00, 0x3f,
  0x2d, 0x22, 0xad, 0xbe, 0xca, 0xba, 0x86, 0x3d, 0xca, 0xaf, 0x50, 0xbc,
  0xde, 0xa0, 0xd7, 0x3d, 0x0f, 0x02, 0x0a, 0xbe, 0xee, 0xc4, 0xae, 0x3d,
  0x9d, 0x72, 0x76, 0xbc, 0x04, 0xe2, 0xa4, 0x3e, 0x19, 0x96, 0xc5, 0x3d,
  0xfa, 0x7a, 0xc0, 0xbc, 0x51, 0x33, 0x4a, 0x3e, 0x84, 0x25, 0x07, 0xbd,
  0x12, 0xbf, 0xe8, 0xbc, 0xe1, 0xe0, 0xe5, 0xbc, 0x88, 0x73, 0xcd, 0x3e,
  0x6c, 0xf3, 0x81, 0xbe, 0x84, 0x16, 0x7e, 0xbe, 0x24, 0xfa, 0xb1, 0x3c,
  0x70, 0x7a, 0x66, 0xbe, 0x2b, 0x3f, 0x48, 0x3c, 0x67, 0x1f, 0x69, 0xbe,
  0xbd, 0x09, 0xff, 0xbd, 0x69, 0xdb, 0x1d, 0xbf, 0x89, 0xc3, 0xef, 0xbd,
  0x5b, 0x40, 0x83, 0xbe, 0xec, 0xd8, 0x11, 0xbe, 0x16, 0x00, 0x1c, 0xbd,
  0x04, 0x1a, 0x9b, 0xbd, 0x2d, 0xe0, 0xa1, 0x3d, 0x43, 0xe8, 0xe5, 0xbd,
  0x2c, 0xcf, 0x3c, 0x3d, 0x93, 0x83, 0x30, 0x3e, 0x5c, 0xfb, 0xbe, 0xbd,
  0xf0, 0x12, 0x49, 0x3e, 0x9f, 0x2d, 0xec, 0x3e, 0x9f, 0x39, 0x44, 0x3e,
  0x6f, 0xec, 0x33, 0x3d, 0x74, 0x33, 0xad, 0x3e, 0x72, 0x28, 0x86, 0xbd,
  0x9d, 0x8e, 0x87, 0x3e, 0x2f, 0x77, 0x12, 0xbe, 0xfc, 0xdf, 0xf3, 0xbe,
  0xa1, 0x6f, 0x08, 0xbd, 0xaa, 0x00, 0x86, 0xbe, 0xe3, 0xa2, 0x6e, 0x3e,
  0x72, 0xb1, 0x59, 0x3d, 0x93, 0xb5, 0xf4, 0x3e, 0x0d, 0xda, 0x01, 0x3e,
  0x73, 0x28, 0x01, 0x3e, 0x93, 0xfa, 0x14, 0x3f, 0xa2, 0x3b, 0x14, 0x3d,
  0x0e, 0x9b, 0xb2, 0xbc, 0xdf, 0x8f, 0x91, 0xbe, 0xd2, 0xe6, 0x22, 0xbe,
  0x09, 0xc9, 0x7b, 0xbc, 0x10, 0x0b, 0x52, 0x3e, 0x69, 0x11, 0xad, 0xbd,
  0x94, 0x3d, 0xfd, 0x3e, 0x79, 0x4e, 0xca, 0x3c, 0xe9, 0x2a, 0x64, 0xbd,
  0x68, 0xae, 0x06, 0xbe, 0x22, 0xd9, 0x61, 0x3e, 0x6e, 0xa7, 0xbb, 0x3d,
  0x05, 0x51, 0x53, 0x3e, 0x84, 0xef, 0x89, 0xbb, 0x60, 0xc2, 0x15, 0xbe,
  0xde, 0x2c, 0x9e, 0xbe, 0x46, 0xfe, 0x8a, 0xbe, 0x67, 0x0b, 0x06, 0x3e,
  0xb3, 0x29, 0xaa, 0x3d, 0x62, 0xd1, 0x34, 0x3e, 0x34, 0x4d, 0x76, 0xbe,
  0x13, 0xe3, 0x53, 0xbe, 0x60, 0xf6, 0x3e, 0x3e, 0x11, 0x99, 0xd5, 0x3c,
  0xa2, 0xd4, 0xb1, 0x3c, 0x8a, 0x8a, 0xbb, 0xbe, 0x1f, 0x2b, 0x9d, 0x3d,
  0x6e, 0xbd, 0xcb, 0xbe, 0x22, 0x11, 0x53, 0xbe, 0x2b, 0x52, 0x5f, 0x3e,
  0x42, 0xf1, 0xff, 0xff, 0x00, 0x00, 0x00, 0x01, 0x94, 0x00, 0x00, 0x00,
  0x12, 0x00, 0x00, 0x00, 0x08, 0x00, 0x00, 0x00, 0x94, 0x00, 0x00, 0x00,
  0x7f, 0x00, 0x00, 0x00, 0x76, 0x6c, 0x70, 0x5f, 0x68, 0x61, 0x63, 0x6b,
  0x61, 0x74, 0x68, 0x6f, 0x6e, 0x2e, 0x69, 0x6d, 0x70, 0x72, 0x6f, 0x76,
  0x65, 0x64, 0x5f, 0x6d, 0x6f, 0x64, 0x65, 0x6c, 0x2e, 0x49, 0x6d, 0x70,
  0x72, 0x6f, 0x76, 0x65, 0x64, 0x4d, 0x4c, 0x50, 0x2f, 0x74, 0x6f, 0x72,
  0x63, 0x68, 0x2e, 0x6e, 0x6e, 0x2e, 0x6d, 0x6f, 0x64, 0x75, 0x6c, 0x65,
  0x73, 0x2e, 0x63, 0x6f, 0x6e, 0x74, 0x61, 0x69, 0x6e, 0x65, 0x72, 0x2e,
  0x53, 0x65, 0x71, 0x75, 0x65, 0x6e, 0x74, 0x69, 0x61, 0x6c, 0x5f, 0x6e,
  0x65, 0x74, 0x2f, 0x74, 0x6f, 0x72, 0x63, 0x68, 0x2e, 0x6e, 0x6e, 0x2e,
  0x6d, 0x6f, 0x64, 0x75, 0x6c, 0x65, 0x73, 0x2e, 0x6e, 0x6f, 0x72, 0x6d,
  0x61, 0x6c, 0x69, 0x7a, 0x61, 0x74, 0x69, 0x6f, 0x6e, 0x2e, 0x4c, 0x61,
  0x79, 0x65, 0x72, 0x4e, 0x6f, 0x72, 0x6d, 0x5f, 0x31, 0x3b, 0x31, 0x00,
  0x02, 0x00, 0x00, 0x00, 0x01, 0x00, 0x00, 0x00, 0x0a, 0x00, 0x00, 0x00,
  0x90, 0xf1, 0xff, 0xff, 0x0a, 0xf2, 0xff, 0xff, 0x04, 0x00, 0x00, 0x00,
  0x28, 0x00, 0x00, 0x00, 0x6d, 0x8a, 0x7a, 0x3f, 0xa4, 0xcc, 0x7f, 0x3f,
  0xab, 0x09, 0x78, 0x3f, 0x98, 0x60, 0x81, 0x3f, 0xde, 0x0e, 0x80, 0x3f,
  0x2f, 0xc0, 0x82, 0x3f, 0x83, 0xa0, 0x7a, 0x3f, 0xe1, 0x90, 0x8d, 0x3f,
  0x90, 0xd0, 0x6c, 0x3f, 0x5a, 0x88, 0x87, 0x3f, 0x22, 0xf2, 0xff, 0xff,
  0x00, 0x00, 0x00, 0x01, 0x94, 0x00, 0x00, 0x00, 0x11, 0x00, 0x00, 0x00,
  0x08, 0x00, 0x00, 0x00, 0x94, 0x00, 0x00, 0x00, 0x7e, 0x00, 0x00, 0x00,
  0x76, 0x6c, 0x70, 0x5f, 0x68, 0x61, 0x63, 0x6b, 0x61, 0x74, 0x68, 0x6f,
  0x6e, 0x2e, 0x69, 0x6d, 0x70, 0x72, 0x6f, 0x76, 0x65, 0x64, 0x5f, 0x6d,
  0x6f, 0x64, 0x65, 0x6c, 0x2e, 0x49, 0x6d, 0x70, 0x72, 0x6f, 0x76, 0x65,
  0x64, 0x4d, 0x4c, 0x50, 0x2f, 0x74, 0x6f, 0x72, 0x63, 0x68, 0x2e, 0x6e,
  0x6e, 0x2e, 0x6d, 0x6f, 0x64, 0x75, 0x6c, 0x65, 0x73, 0x2e, 0x63, 0x6f,
  0x6e, 0x74, 0x61, 0x69, 0x6e, 0x65, 0x72, 0x2e, 0x53, 0x65, 0x71, 0x75,
  0x65, 0x6e, 0x74, 0x69, 0x61, 0x6c, 0x5f, 0x6e, 0x65, 0x74, 0x2f, 0x74,
  0x6f, 0x72, 0x63, 0x68, 0x2e, 0x6e, 0x6e, 0x2e, 0x6d, 0x6f, 0x64, 0x75,
  0x6c, 0x65, 0x73, 0x2e, 0x6e, 0x6f, 0x72, 0x6d, 0x61, 0x6c, 0x69, 0x7a,
  0x61, 0x74, 0x69, 0x6f, 0x6e, 0x2e, 0x4c, 0x61, 0x79, 0x65, 0x72, 0x4e,
  0x6f, 0x72, 0x6d, 0x5f, 0x31, 0x3b, 0x00, 0x00, 0x02, 0x00, 0x00, 0x00,
  0x01, 0x00, 0x00, 0x00, 0x0a, 0x00, 0x00, 0x00, 0x70, 0xf2, 0xff, 0xff,
  0xea, 0xf2, 0xff, 0xff, 0x04, 0x00, 0x00, 0x00, 0x28, 0x00, 0x00, 0x00,
  0x01, 0x29, 0xdf, 0xbc, 0x2f, 0xb2, 0x8a, 0xbb, 0x97, 0x8b, 0xff, 0xbc,
  0x85, 0x4b, 0x8f, 0xbd, 0x79, 0xd8, 0x84, 0x3d, 0x50, 0x8e, 0xfc, 0x3c,
  0x7b, 0xcb, 0xac, 0xbd, 0xb5, 0x83, 0xbb, 0x3c, 0xba, 0x19, 0x8e, 0xbd,
  0x6e, 0x95, 0xa6, 0xbd, 0x02, 0xf3, 0xff, 0xff, 0x00, 0x00, 0x00, 0x01,
  0x94, 0x00, 0x00, 0x00, 0x10, 0x00, 0x00, 0x00, 0x08, 0x00, 0x00, 0x00,
  0x94, 0x00, 0x00, 0x00, 0x7f, 0x00, 0x00, 0x00, 0x76, 0x6c, 0x70, 0x5f,
  0x68, 0x61, 0x63, 0x6b, 0x61, 0x74, 0x68, 0x6f, 0x6e, 0x2e, 0x69, 0x6d,
  0x70, 0x72, 0x6f, 0x76, 0x65, 0x64, 0x5f, 0x6d, 0x6f, 0x64, 0x65, 0x6c,
  0x2e, 0x49, 0x6d, 0x70, 0x72, 0x6f, 0x76, 0x65, 0x64, 0x4d, 0x4c, 0x50,
  0x2f, 0x74, 0x6f, 0x72, 0x63, 0x68, 0x2e, 0x6e, 0x6e, 0x2e, 0x6d, 0x6f,
  0x64, 0x75, 0x6c, 0x65, 0x73, 0x2e, 0x63, 0x6f, 0x6e, 0x74, 0x61, 0x69,
  0x6e, 0x65, 0x72, 0x2e, 0x53, 0x65, 0x71, 0x75, 0x65, 0x6e, 0x74, 0x69,
  0x61, 0x6c, 0x5f, 0x6e, 0x65, 0x74, 0x2f, 0x74, 0x6f, 0x72, 0x63, 0x68,
  0x2e, 0x6e, 0x6e, 0x2e, 0x6d, 0x6f, 0x64, 0x75, 0x6c, 0x65, 0x73, 0x2e,
  0x6e, 0x6f, 0x72, 0x6d, 0x61, 0x6c, 0x69, 0x7a, 0x61, 0x74, 0x69, 0x6f,
  0x6e, 0x2e, 0x4c, 0x61, 0x79, 0x65, 0x72, 0x4e, 0x6f, 0x72, 0x6d, 0x5f,
  0x34, 0x3b, 0x31, 0x00, 0x02, 0x00, 0x00, 0x00, 0x01, 0x00, 0x00, 0x00,
  0x0a, 0x00, 0x00, 0x00, 0x50, 0xf3, 0xff, 0xff, 0xca, 0xf3, 0xff, 0xff,
  0x04, 0x00, 0x00, 0x00, 0x28, 0x00, 0x00, 0x00, 0x55, 0x07, 0x82, 0x3f,
  0xc5, 0x8f, 0x81, 0x3f, 0x7e, 0xc2, 0x72, 0x3f, 0x83, 0x58, 0x72, 0x3f,
  0xa8, 0xfb, 0x85, 0x3f, 0xaf, 0xce, 0x84, 0x3f, 0x53, 0xdc, 0x6b, 0x3f,
  0x10, 0x53, 0x67, 0x3f, 0xc6, 0x1b, 0x75, 0x3f, 0xfd, 0xca, 0x84, 0x3f,
  0xe2, 0xf3, 0xff, 0xff, 0x00, 0x00, 0x00, 0x01, 0x94, 0x00, 0x00, 0x00,
  0x0f, 0x00, 0x00, 0x00, 0x08, 0x00, 0x00, 0x00, 0x94, 0x00, 0x00, 0x00,
  0x7e, 0x00, 0x00, 0x00, 0x76, 0x6c, 0x70, 0x5f, 0x68, 0x61, 0x63, 0x6b,
  0x61, 0x74, 0x68, 0x6f, 0x6e, 0x2e, 0x69, 0x6d, 0x70, 0x72, 0x6f, 0x76,
  0x65, 0x64, 0x5f, 0x6d, 0x6f, 0x64, 0x65, 0x6c, 0x2e, 0x49, 0x6d, 0x70,
  0x72, 0x6f, 0x76, 0x65, 0x64, 0x4d, 0x4c, 0x50, 0x2f, 0x74, 0x6f, 0x72,
  0x63, 0x68, 0x2e, 0x6e, 0x6e, 0x2e, 0x6d, 0x6f, 0x64, 0x75, 0x6c, 0x65,
  0x73, 0x2e, 0x63, 0x6f, 0x6e, 0x74, 0x61, 0x69, 0x6e, 0x65, 0x72, 0x2e,
  0x53, 0x65, 0x71, 0x75, 0x65, 0x6e, 0x74, 0x69, 0x61, 0x6c, 0x5f, 0x6e,
  0x65, 0x74, 0x2f, 0x74, 0x6f, 0x72, 0x63, 0x68, 0x2e, 0x6e, 0x6e, 0x2e,
  0x6d, 0x6f, 0x64, 0x75, 0x6c, 0x65, 0x73, 0x2e, 0x6e, 0x6f, 0x72, 0x6d,
  0x61, 0x6c, 0x69, 0x7a, 0x61, 0x74, 0x69, 0x6f, 0x6e, 0x2e, 0x4c, 0x61,
  0x79, 0x65, 0x72, 0x4e, 0x6f, 0x72, 0x6d, 0x5f, 0x34, 0x3b, 0x00, 0x00,
  0x02, 0x00, 0x00, 0x00, 0x01, 0x00, 0x00, 0x00, 0x0a, 0x00, 0x00, 0x00,
  0x30, 0xf4, 0xff, 0xff, 0xaa, 0xf4, 0xff, 0xff, 0x04, 0x00, 0x00, 0x00,
  0x28, 0x00, 0x00, 0x00, 0x6a, 0x24, 0xa0, 0x3d, 0xb1, 0x45, 0x03, 0xbd,
  0x4a, 0xb9, 0xc5, 0xbc, 0xc7, 0x33, 0xf4, 0xbb, 0x94, 0x85, 0x03, 0xbd,
  0xb0, 0x55, 0x98, 0xbc, 0x8e, 0x3f, 0xfe, 0xbc, 0x08, 0x48, 0x03, 0x3d,
  0xf2, 0xec, 0x46, 0xbb, 0x30, 0x93, 0xb7, 0x3c, 0xc2, 0xf4, 0xff, 0xff,
  0x00, 0x00, 0x00, 0x01, 0x94, 0x00, 0x00, 0x00, 0x0e, 0x00, 0x00, 0x00,
  0x08, 0x00, 0x00, 0x00, 0x94, 0x00, 0x00, 0x00, 0x7f, 0x00, 0x00, 0x00,
  0x76, 0x6c, 0x70, 0x5f, 0x68, 0x61, 0x63, 0x6b, 0x61, 0x74, 0x68, 0x6f,
  0x6e, 0x2e, 0x69, 0x6d, 0x70, 0x72, 0x6f, 0x76, 0x65, 0x64, 0x5f, 0x6d,
  0x6f, 0x64, 0x65, 0x6c, 0x2e, 0x49, 0x6d, 0x70, 0x72, 0x6f, 0x76, 0x65,
  0x64, 0x4d, 0x4c, 0x50, 0x2f, 0x74, 0x6f, 0x72, 0x63, 0x68, 0x2e, 0x6e,
  0x6e, 0x2e, 0x6d, 0x6f, 0x64, 0x75, 0x6c, 0x65, 0x73, 0x2e, 0x63, 0x6f,
  0x6e, 0x74, 0x61, 0x69, 0x6e, 0x65, 0x72, 0x2e, 0x53, 0x65, 0x71, 0x75,
  0x65, 0x6e, 0x74, 0x69, 0x61, 0x6c, 0x5f, 0x6e, 0x65, 0x74, 0x2f, 0x74,
  0x6f, 0x72, 0x63, 0x68, 0x2e, 0x6e, 0x6e, 0x2e, 0x6d, 0x6f, 0x64, 0x75,
  0x6c, 0x65, 0x73, 0x2e, 0x6e, 0x6f, 0x72, 0x6d, 0x61, 0x6c, 0x69, 0x7a,
  0x61, 0x74, 0x69, 0x6f, 0x6e, 0x2e, 0x4c, 0x61, 0x79, 0x65, 0x72, 0x4e,
  0x6f, 0x72, 0x6d, 0x5f, 0x37, 0x3b, 0x31, 0x00, 0x02, 0x00, 0x00, 0x00,
  0x01, 0x00, 0x00, 0x00, 0x0a, 0x00, 0x00, 0x00, 0x10, 0xf5, 0xff, 0xff,
  0x8a, 0xf5, 0xff, 0xff, 0x04, 0x00, 0x00, 0x00, 0x28, 0x00, 0x00, 0x00,
  0xa7, 0x6a, 0xb3, 0x3f, 0x20, 0x8c, 0xcd, 0x3f, 0xbc, 0x1d, 0xae, 0x3f,
  0x83, 0x04, 0xad, 0x3f, 0xec, 0xdc, 0xb9, 0x3f, 0xec, 0x0b, 0xb0, 0x3f,
  0xda, 0xac, 0xb7, 0x3f, 0xd2, 0x97, 0xba, 0x3f, 0xd1, 0x5b, 0xa1, 0x3f,
  0xbe, 0x4c, 0xbc, 0x3f, 0xa2, 0xf5, 0xff, 0xff, 0x00, 0x00, 0x00, 0x01,
  0x94, 0x00, 0x00, 0x00, 0x0d, 0x00, 0x00, 0x00, 0x08, 0x00, 0x00, 0x00,
  0x94, 0x00, 0x00, 0x00, 0x7e, 0x00, 0x00, 0x00, 0x76, 0x6c, 0x70, 0x5f,
  0x68, 0x61, 0x63, 0x6b, 0x61, 0x74, 0x68, 0x6f, 0x6e, 0x2e, 0x69, 0x6d,
  0x70, 0x72, 0x6f, 0x76, 0x65, 0x64, 0x5f, 0x6d, 0x6f, 0x64, 0x65, 0x6c,
  0x2e, 0x49, 0x6d, 0x70, 0x72, 0x6f, 0x76, 0x65, 0x64, 0x4d, 0x4c, 0x50,
  0x2f, 0x74, 0x6f, 0x72, 0x63, 0x68, 0x2e, 0x6e, 0x6e, 0x2e, 0x6d, 0x6f,
  0x64, 0x75, 0x6c, 0x65, 0x73, 0x2e, 0x63, 0x6f, 0x6e, 0x74, 0x61, 0x69,
  0x6e, 0x65, 0x72, 0x2e, 0x53, 0x65, 0x71, 0x75, 0x65, 0x6e, 0x74, 0x69,
  0x61, 0x6c, 0x5f, 0x6e, 0x65, 0x74, 0x2f, 0x74, 0x6f, 0x72, 0x63, 0x68,
  0x2e, 0x6e, 0x6e, 0x2e, 0x6d, 0x6f, 0x64, 0x75, 0x6c, 0x65, 0x73, 0x2e,
  0x6e, 0x6f, 0x72, 0x6d, 0x61, 0x6c, 0x69, 0x7a, 0x61, 0x74, 0x69, 0x6f,
  0x6e, 0x2e, 0x4c, 0x61, 0x79, 0x65, 0x72, 0x4e, 0x6f, 0x72, 0x6d, 0x5f,
  0x37, 0x3b, 0x00, 0x00, 0x02, 0x00, 0x00, 0x00, 0x01, 0x00, 0x00, 0x00,
  0x0a, 0x00, 0x00, 0x00, 0xf0, 0xf5, 0xff, 0xff, 0x6a, 0xf6, 0xff, 0xff,
  0x04, 0x00, 0x00, 0x00, 0x28, 0x00, 0x00, 0x00, 0x0a, 0x7f, 0x47, 0xbc,
  0x9a, 0xc4, 0x83, 0x3c, 0x13, 0x46, 0xaa, 0x3d, 0x03, 0x07, 0x40, 0x3c,
  0xd0, 0xd9, 0x99, 0xbd, 0x12, 0x5e, 0x2d, 0x3d, 0x28, 0x8f, 0x94, 0xbb,
  0xd8, 0x23, 0xb7, 0xbc, 0xa4, 0x09, 0x30, 0x3d, 0x2f, 0x5c, 0x46, 0x3e,
  0x82, 0xf6, 0xff, 0xff, 0x00, 0x00, 0x00, 0x01, 0x24, 0x00, 0x00, 0x00,
  0x0c, 0x00, 0x00, 0x00, 0x08, 0x00, 0x00, 0x00, 0x20, 0x00, 0x00, 0x00,
  0x0f, 0x00, 0x00, 0x00, 0x61, 0x72, 0x69, 0x74, 0x68, 0x2e, 0x63, 0x6f,
  0x6e, 0x73, 0x74, 0x61, 0x6e, 0x74, 0x34, 0x00, 0x01, 0x00, 0x00, 0x00,
  0x01, 0x00, 0x00, 0x00, 0x5c, 0xf6, 0xff, 0xff, 0xd6, 0xf6, 0xff, 0xff,
  0x04, 0x00, 0x00, 0x00, 0x04, 0x00, 0x00, 0x00, 0xac, 0xc5, 0x27, 0x37,
  0x1a, 0xff, 0xff, 0xff, 0x00, 0x00, 0x02, 0x01, 0x24, 0x00, 0x00, 0x00,
  0x0b, 0x00, 0x00, 0x00, 0x08, 0x00, 0x00, 0x00, 0x20, 0x00, 0x00, 0x00,
  0x0f, 0x00, 0x00, 0x00, 0x61, 0x72, 0x69, 0x74, 0x68, 0x2e, 0x63, 0x6f,
  0x6e, 0x73, 0x74, 0x61, 0x6e, 0x74, 0x33, 0x00, 0x01, 0x00, 0x00, 0x00,
  0x02, 0x00, 0x00, 0x00, 0xa4, 0xf6, 0xff, 0xff, 0x1e, 0xf7, 0xff, 0xff,
  0x04, 0x00, 0x00, 0x00, 0x08, 0x00, 0x00, 0x00, 0x00, 0x00, 0x00, 0x00,
  0x02, 0x00, 0x00, 0x00, 0x16, 0xf7, 0xff, 0xff, 0x00, 0x00, 0x00, 0x01,
  0x24, 0x00, 0x00, 0x00, 0x0a, 0x00, 0x00, 0x00, 0x08, 0x00, 0x00, 0x00,
  0x20, 0x00, 0x00, 0x00, 0x0f, 0x00, 0x00, 0x00, 0x61, 0x72, 0x69, 0x74,
  0x68, 0x2e, 0x63, 0x6f, 0x6e, 0x73, 0x74, 0x61, 0x6e, 0x74, 0x32, 0x00,
  0x01, 0x00, 0x00, 0x00, 0x01, 0x00, 0x00, 0x00, 0xf0, 0xf6, 0xff, 0xff,
  0x6a, 0xf7, 0xff, 0xff, 0x04, 0x00, 0x00, 0x00, 0x04, 0x00, 0x00, 0x00,
  0x00, 0x00, 0x00, 0x00, 0xae, 0xff, 0xff, 0xff, 0x00, 0x00, 0x02, 0x01,
  0x24, 0x00, 0x00, 0x00, 0x09, 0x00, 0x00, 0x00, 0x08, 0x00, 0x00, 0x00,
  0x20, 0x00, 0x00, 0x00, 0x0f, 0x00, 0x00, 0x00, 0x61, 0x72, 0x69, 0x74,
  0x68, 0x2e, 0x63, 0x6f, 0x6e, 0x73, 0x74, 0x61, 0x6e, 0x74, 0x31, 0x00,
  0x01, 0x00, 0x00, 0x00, 0x03, 0x00, 0x00, 0x00, 0x38, 0xf7, 0xff, 0xff,
  0xb2, 0xf7, 0xff, 0xff, 0x04, 0x00, 0x00, 0x00, 0x0c, 0x00, 0x00, 0x00,
  0x01, 0x00, 0x00, 0x00, 0x01, 0x00, 0x00, 0x00, 0x01, 0x00, 0x00, 0x00,
  0x00, 0x00, 0x16, 0x00, 0x18, 0x00, 0x08, 0x00, 0x06, 0x00, 0x0c, 0x00,
  0x10, 0x00, 0x14, 0x00, 0x00, 0x00, 0x00, 0x00, 0x00, 0x00, 0x07, 0x00,
  0x16, 0x00, 0x00, 0x00, 0x00, 0x00, 0x02, 0x01, 0x24, 0x00, 0x00, 0x00,
  0x08, 0x00, 0x00, 0x00, 0x08, 0x00, 0x00, 0x00, 0x20, 0x00, 0x00, 0x00,
  0x0e, 0x00, 0x00, 0x00, 0x61, 0x72, 0x69, 0x74, 0x68, 0x2e, 0x63, 0x6f,
  0x6e, 0x73, 0x74, 0x61, 0x6e, 0x74, 0x00, 0x00, 0x01, 0x00, 0x00, 0x00,
  0x03, 0x00, 0x00, 0x00, 0xa0, 0xf7, 0xff, 0xff, 0x1a, 0xf8, 0xff, 0xff,
  0x04, 0x00, 0x00, 0x00, 0x0c, 0x00, 0x00, 0x00, 0x01, 0x00, 0x00, 0x00,
  0x01, 0x00, 0x00, 0x00, 0x0a, 0x00, 0x00, 0x00, 0x16, 0xf8, 0xff, 0xff,
  0x00, 0x00, 0x00, 0x01, 0x8c, 0x00, 0x00, 0x00, 0x07, 0x00, 0x00, 0x00,
  0x08, 0x00, 0x00, 0x00, 0x8c, 0x00, 0x00, 0x00, 0x75, 0x00, 0x00, 0x00,
  0x76, 0x6c, 0x70, 0x5f, 0x68, 0x61, 0x63, 0x6b, 0x61, 0x74, 0x68, 0x6f,
  0x6e, 0x2e, 0x69, 0x6d, 0x70, 0x72, 0x6f, 0x76, 0x65, 0x64, 0x5f, 0x6d,
  0x6f, 0x64, 0x65, 0x6c, 0x2e, 0x49, 0x6d, 0x70, 0x72, 0x6f, 0x76, 0x65,
  0x64, 0x4d, 0x4c, 0x50, 0x2f, 0x74, 0x6f, 0x72, 0x63, 0x68, 0x2e, 0x6e,
  0x6e, 0x2e, 0x6d, 0x6f, 0x64, 0x75, 0x6c, 0x65, 0x73, 0x2e, 0x63, 0x6f,
  0x6e, 0x74, 0x61, 0x69, 0x6e, 0x65, 0x72, 0x2e, 0x53, 0x65, 0x71, 0x75,
  0x65, 0x6e, 0x74, 0x69, 0x61, 0x6c, 0x5f, 0x6e, 0x65, 0x74, 0x2f, 0x74,
  0x6f, 0x72, 0x63, 0x68, 0x2e, 0x6e, 0x6e, 0x2e, 0x6d, 0x6f, 0x64, 0x75,
  0x6c, 0x65, 0x73, 0x2e, 0x6c, 0x69, 0x6e, 0x65, 0x61, 0x72, 0x2e, 0x4c,
  0x69, 0x6e, 0x65, 0x61, 0x72, 0x5f, 0x33, 0x3b, 0x31, 0x00, 0x00, 0x00,
  0x02, 0x00, 0x00, 0x00, 0x0a, 0x00, 0x00, 0x00, 0x0a, 0x00, 0x00, 0x00,
  0x5c, 0xf8, 0xff, 0xff, 0xd6, 0xf8, 0xff, 0xff, 0x04, 0x00, 0x00, 0x00,
  0x90, 0x01, 0x00, 0x00, 0x90, 0xc2, 0xaf, 0xbd, 0xe1, 0x5d, 0xa3, 0xbd,
  0x28, 0x85, 0xba, 0x3c, 0x66, 0x40, 0x59, 0xbe, 0x20, 0xca, 0x0f, 0xbc,
  0xf0, 0x83, 0x77, 0xbe, 0x8f, 0x8f, 0x90, 0xbe, 0x5f, 0x89, 0x88, 0xbe,
  0x47, 0xba, 0xb8, 0xbe, 0x23, 0xe7, 0x50, 0xbe, 0x11, 0xcf, 0x89, 0x3e,
  0xd2, 0x05, 0xd4, 0x3d, 0x31, 0xbf, 0xdc, 0x3d, 0x30, 0xd1, 0xc9, 0xbe,
  0x61, 0x29, 0x09, 0xbe, 0x91, 0xac, 0x0c, 0xbe, 0x88, 0xee, 0x89, 0xbc,
  0x94, 0xa5, 0x9d, 0xbe, 0x10, 0xa8, 0xa7, 0xbd, 0xd4, 0x82, 0xcf, 0xbd,
  0x12, 0xe2, 0x81, 0xbd, 0x74, 0x5c, 0x02, 0xbe, 0xe5, 0x25, 0x37, 0x3d,
  0x89, 0x1a, 0x88, 0xbe, 0x9c, 0xaf, 0x9e, 0xbe, 0x3c, 0xe4, 0xbb, 0xbd,
  0xfc, 0x56, 0xd1, 0xbd, 0x81, 0x31, 0x80, 0xbe, 0x2a, 0xfb, 0x2a, 0x3e,
  0xde, 0xa3, 0x01, 0xbd, 0xd0, 0xaf, 0x6d, 0x3e, 0x72, 0x37, 0xc6, 0x3d,
  0xf5, 0x0c, 0x82, 0xbe, 0xb9, 0xe0, 0x78, 0x3e, 0xcb, 0x33, 0xe5, 0xbd,
  0xef, 0xdf, 0x62, 0xbd, 0x9d, 0x1f, 0x5e, 0xbe, 0x9e, 0x24, 0xc3, 0xbe,
  0x26, 0x03, 0x78, 0x3d, 0x59, 0x1d, 0xd6, 0xbd, 0x17, 0x89, 0xcf, 0x3d,
  0x5f, 0x0b, 0x3a, 0xbe, 0x07, 0x37, 0x6a, 0x3e, 0x55, 0xa8, 0xac, 0xbe,
  0x02, 0xca, 0x6a, 0xbd, 0x2f, 0x66, 0xf0, 0x3d, 0x50, 0xc2, 0x2a, 0x3e,
  0x61, 0x2b, 0xaf, 0x3e, 0x1d, 0x2f, 0x5c, 0x3e, 0xb0, 0xd8, 0x68, 0xbe,
  0xcf, 0x9e, 0xed, 0x3d, 0x85, 0x23, 0x13, 0xbe, 0x1f, 0x9a, 0x04, 0xbd,
  0x6d, 0xa3, 0x30, 0xbe, 0x3d, 0x2d, 0x81, 0x3e, 0x46, 0xe5, 0xa6, 0xbe,
  0x4e, 0x36, 0x49, 0x3e, 0x14, 0x06, 0x04, 0x3e, 0xd4, 0xb7, 0xb7, 0x3d,
  0xc8, 0x8a, 0x54, 0xbe, 0xdb, 0xde, 0x84, 0x3e, 0x96, 0xc1, 0x5e, 0x3e,
  0x50, 0x2d, 0xed, 0x3d, 0x59, 0xb9, 0x8c, 0xbe, 0xf2, 0x02, 0x1d, 0x3e,
  0x70, 0xdf, 0x9c, 0xbd, 0xe1, 0xd5, 0x30, 0xbe, 0xbd, 0x63, 0x04, 0x3e,
  0xf9, 0xb1, 0x98, 0x3d, 0xeb, 0x96, 0x06, 0xbe, 0x3a, 0x81, 0x43, 0xbe,
  0xd9, 0x09, 0x3d, 0xbd, 0x29, 0x20, 0x3c, 0x3e, 0x9f, 0x48, 0x82, 0xbd,
  0xe2, 0x57, 0x4f, 0xbe, 0x6e, 0xc7, 0x15, 0xbd, 0x5e, 0x7c, 0x62, 0xbe,
  0x2b, 0x74, 0x8e, 0x3d, 0x62, 0x86, 0x72, 0x3e, 0x5b, 0xaf, 0xa5, 0xbe,
  0x69, 0xe7, 0xac, 0x3d, 0xf0, 0xa9, 0x5c, 0x3d, 0xd5, 0x14, 0xfc, 0xbb,
  0xe9, 0xa2, 0xa8, 0xbb, 0xce, 0x88, 0x17, 0x3e, 0x0c, 0x6d, 0x2f, 0x3e,
  0x2a, 0x5e, 0xde, 0x3d, 0x18, 0xd1, 0x8d, 0x3c, 0x6b, 0x67, 0xba, 0x3c,
  0x46, 0x7f, 0xb0, 0x3b, 0x4d, 0xf9, 0x8e, 0xbc, 0x60, 0x85, 0x7c, 0xbd,
  0x58, 0x07, 0x6f, 0x3e, 0xfb, 0x29, 0x99, 0x3e, 0xac, 0x99, 0x68, 0x3b,
  0xe3, 0x6a, 0x2f, 0xbd, 0x66, 0x0e, 0xd5, 0xbb, 0x15, 0xd8, 0x13, 0xbe,
  0xb2, 0x22, 0x03, 0x3e, 0x84, 0xeb, 0x87, 0x3d, 0x56, 0xfa, 0xff, 0xff,
  0x00, 0x00, 0x00, 0x01, 0x8c, 0x00, 0x00, 0x00, 0x06, 0x00, 0x00, 0x00,
  0x08, 0x00, 0x00, 0x00, 0x8c, 0x00, 0x00, 0x00, 0x75, 0x00, 0x00, 0x00,
