#include "model_data.h"

alignas(16) const unsigned char g_vlp_model_data[] = {
  0x1c, 0x00, 0x00, 0x00, 0x54, 0x46, 0x4c, 0x33, 0x14, 0x00, 0x20, 0x00,
  0x04, 0x00, 0x08, 0x00, 0x0c, 0x00, 0x10, 0x00, 0x14, 0x00, 0x00, 0x00,
  0x18, 0x00, 0x1c, 0x00, 0x14, 0x00, 0x00, 0x00, 0x03, 0x00, 0x00, 0x00,
  0x74, 0x00, 0x00, 0x00, 0x68, 0x00, 0x00, 0x00, 0x88, 0x01, 0x00, 0x00,
  0x0c, 0x00, 0x00, 0x00, 0xf4, 0x00, 0x00, 0x00, 0x70, 0x00, 0x00, 0x00,
  0x14, 0x00, 0x00, 0x00, 0xf8, 0x13, 0x00, 0x00, 0xf4, 0x13, 0x00, 0x00,
  0x7c, 0x13, 0x00, 0x00, 0x98, 0x12, 0x00, 0x00, 0xc0, 0x11, 0x00, 0x00,
  0xc0, 0x10, 0x00, 0x00, 0x7c, 0x0e, 0x00, 0x00, 0x38, 0x0c, 0x00, 0x00,
  0x1c, 0x0a, 0x00, 0x00, 0x40, 0x09, 0x00, 0x00, 0xd0, 0x13, 0x00, 0x00,
  0xcc, 0x13, 0x00, 0x00, 0xc8, 0x13, 0x00, 0x00, 0xc4, 0x13, 0x00, 0x00,
  0xc0, 0x13, 0x00, 0x00, 0xbc, 0x13, 0x00, 0x00, 0xb8, 0x13, 0x00, 0x00,
  0xb4, 0x13, 0x00, 0x00, 0x10, 0x01, 0x00, 0x00, 0xd0, 0x00, 0x00, 0x00,
  0x01, 0x00, 0x00, 0x00, 0x44, 0x01, 0x00, 0x00, 0x03, 0x00, 0x00, 0x00,
  0xb4, 0x07, 0x00, 0x00, 0xa0, 0x06, 0x00, 0x00, 0xf4, 0x01, 0x00, 0x00,
  0x01, 0x00, 0x00, 0x00, 0x10, 0x00, 0x00, 0x00, 0x00, 0x00, 0x0a, 0x00,
  0x10, 0x00, 0x0c, 0x00, 0x08, 0x00, 0x04, 0x00, 0x0a, 0x00, 0x00, 0x00,
  0x0c, 0x00, 0x00, 0x00, 0x1c, 0x00, 0x00, 0x00, 0x20, 0x00, 0x00, 0x00,
  0x0f, 0x00, 0x00, 0x00, 0x73, 0x65, 0x72, 0x76, 0x69, 0x6e, 0x67, 0x5f,
  0x64, 0x65, 0x66, 0x61, 0x75, 0x6c, 0x74, 0x00, 0x01, 0x00, 0x00, 0x00,
  0x14, 0x00, 0x00, 0x00, 0x01, 0x00, 0x00, 0x00, 0x28, 0x00, 0x00, 0x00,
  0x08, 0x00, 0x0c, 0x00, 0x08, 0x00, 0x04, 0x00, 0x08, 0x00, 0x00, 0x00,
  0x10, 0x00, 0x00, 0x00, 0x04, 0x00, 0x00, 0x00, 0x08, 0x00, 0x00, 0x00,
  0x6f, 0x75, 0x74, 0x70, 0x75, 0x74, 0x5f, 0x30, 0x00, 0x00, 0x00, 0x00,
  0x56, 0xed, 0xff, 0xff, 0x04, 0x00, 0x00, 0x00, 0x06, 0x00, 0x00, 0x00,
  0x61, 0x72, 0x67, 0x73, 0x5f, 0x30, 0x00, 0x00, 0x02, 0x00, 0x00, 0x00,
  0x48, 0x00, 0x00, 0x00, 0x04, 0x00, 0x00, 0x00, 0xc8, 0xff, 0xff, 0xff,
  0x08, 0x00, 0x00, 0x00, 0x13, 0x00, 0x00, 0x00, 0x17, 0x00, 0x00, 0x00,
  0x6b, 0x65, 0x65, 0x70, 0x5f, 0x73, 0x74, 0x61, 0x62, 0x6c, 0x65, 0x68,
  0x6c, 0x6f, 0x5f, 0x63, 0x6f, 0x6e, 0x73, 0x74, 0x61, 0x6e, 0x74, 0x00,
  0x9e, 0xed, 0xff, 0xff, 0x04, 0x00, 0x00, 0x00, 0x04, 0x00, 0x00, 0x00,
  0x74, 0x72, 0x75, 0x65, 0x08, 0x00, 0x0c, 0x00, 0x04, 0x00, 0x08, 0x00,
  0x08, 0x00, 0x00, 0x00, 0x08, 0x00, 0x00, 0x00, 0x12, 0x00, 0x00, 0x00,
  0x13, 0x00, 0x00, 0x00, 0x6d, 0x69, 0x6e, 0x5f, 0x72, 0x75, 0x6e, 0x74,
  0x69, 0x6d, 0x65, 0x5f, 0x76, 0x65, 0x72, 0x73, 0x69, 0x6f, 0x6e, 0x00,
  0xda, 0xed, 0xff, 0xff, 0x04, 0x00, 0x00, 0x00, 0x10, 0x00, 0x00, 0x00,
  0x32, 0x2e, 0x30, 0x2e, 0x30, 0x00, 0x00, 0x00, 0x00, 0x00, 0x00, 0x00,
  0x00, 0x00, 0x00, 0x00, 0x0f, 0x00, 0x00, 0x00, 0x4d, 0x4c, 0x49, 0x52,
  0x20, 0x43, 0x6f, 0x6e, 0x76, 0x65, 0x72, 0x74, 0x65, 0x64, 0x2e, 0x00,
  0x00, 0x00, 0x0e, 0x00, 0x18, 0x00, 0x04, 0x00, 0x08, 0x00, 0x0c, 0x00,
  0x10, 0x00, 0x14, 0x00, 0x0e, 0x00, 0x00, 0x00, 0x54, 0x00, 0x00, 0x00,
  0x48, 0x00, 0x00, 0x00, 0x3c, 0x00, 0x00, 0x00, 0x14, 0x00, 0x00, 0x00,
  0x04, 0x00, 0x00, 0x00, 0x04, 0x00, 0x00, 0x00, 0x6d, 0x61, 0x69, 0x6e,
  0x00, 0x00, 0x00, 0x00, 0x08, 0x00, 0x00, 0x00, 0x04, 0x06, 0x00, 0x00,
  0x1c, 0x05, 0x00, 0x00, 0x34, 0x04, 0x00, 0x00, 0x5c, 0x03, 0x00, 0x00,
  0x80, 0x02, 0x00, 0x00, 0xb8, 0x01, 0x00, 0x00, 0xdc, 0x00, 0x00, 0x00,
  0x5c, 0x00, 0x00, 0x00, 0x01, 0x00, 0x00, 0x00, 0x10, 0x00, 0x00, 0x00,
  0x01, 0x00, 0x00, 0x00, 0x00, 0x00, 0x00, 0x00, 0x11, 0x00, 0x00, 0x00,
  0xbc, 0x11, 0x00, 0x00, 0xe0, 0x10, 0x00, 0x00, 0x08, 0x10, 0x00, 0x00,
  0x30, 0x0f, 0x00, 0x00, 0x2c, 0x0e, 0x00, 0x00, 0xe8, 0x0b, 0x00, 0x00,
  0xa4, 0x09, 0x00, 0x00, 0x88, 0x07, 0x00, 0x00, 0xb0, 0x06, 0x00, 0x00,
  0x08, 0x06, 0x00, 0x00, 0xf4, 0x04, 0x00, 0x00, 0x10, 0x04, 0x00, 0x00,
  0x24, 0x03, 0x00, 0x00, 0x5c, 0x02, 0x00, 0x00, 0x80, 0x01, 0x00, 0x00,
  0xb8, 0x00, 0x00, 0x00, 0x34, 0x00, 0x00, 0x00, 0x62, 0xfb, 0xff, 0xff,
  0x02, 0x00, 0x00, 0x00, 0x10, 0x00, 0x00, 0x00, 0x04, 0x00, 0x00, 0x00,
  0x01, 0x00, 0x00, 0x00, 0x10, 0x00, 0x00, 0x00, 0x01, 0x00, 0x00, 0x00,
  0x0f, 0x00, 0x00, 0x00, 0x54, 0xfa, 0xff, 0xff, 0x0e, 0x00, 0x00, 0x00,
  0x00, 0x00, 0x00, 0x0e, 0x01, 0x00, 0x00, 0x00, 0xce, 0xee, 0xff, 0xff,
  0x00, 0x00, 0x00, 0x01, 0x34, 0x00, 0x00, 0x00, 0x11, 0x00, 0x00, 0x00,
  0x08, 0x00, 0x00, 0x00, 0x34, 0x00, 0x00, 0x00, 0x1f, 0x00, 0x00, 0x00,
  0x73, 0x65, 0x72, 0x76, 0x69, 0x6e, 0x67, 0x5f, 0x64, 0x65, 0x66, 0x61,
  0x75, 0x6c, 0x74, 0x5f, 0x6f, 0x75, 0x74, 0x70, 0x75, 0x74, 0x5f, 0x30,
  0x5f, 0x6f, 0x75, 0x74, 0x70, 0x75, 0x74, 0x00, 0x02, 0x00, 0x00, 0x00,
  0x01, 0x00, 0x00, 0x00, 0x02, 0x00, 0x00, 0x00, 0xbc, 0xee, 0xff, 0xff,
  0xc6, 0xfc, 0xff, 0xff, 0x00, 0x00, 0x00, 0x08, 0x1c, 0x00, 0x00, 0x00,
  0x10, 0x00, 0x00, 0x00, 0x04, 0x00, 0x00, 0x00, 0xee, 0xfa, 0xff, 0xff,
  0x00, 0x00, 0x00, 0x01, 0x01, 0x00, 0x00, 0x00, 0x0f, 0x00, 0x00, 0x00,
  0x03, 0x00, 0x00, 0x00, 0x0e, 0x00, 0x00, 0x00, 0x04, 0x00, 0x00, 0x00,
  0x01, 0x00, 0x00, 0x00, 0x4e, 0xef, 0xff, 0xff, 0x00, 0x00, 0x00, 0x01,
  0x8c, 0x00, 0x00, 0x00, 0x10, 0x00, 0x00, 0x00, 0x08, 0x00, 0x00, 0x00,
  0x8c, 0x00, 0x00, 0x00, 0x75, 0x00, 0x00, 0x00, 0x76, 0x6c, 0x70, 0x5f,
  0x68, 0x61, 0x63, 0x6b, 0x61, 0x74, 0x68, 0x6f, 0x6e, 0x2e, 0x69, 0x6d,
  0x70, 0x72, 0x6f, 0x76, 0x65, 0x64, 0x5f, 0x6d, 0x6f, 0x64, 0x65, 0x6c,
  0x2e, 0x49, 0x6d, 0x70, 0x72, 0x6f, 0x76, 0x65, 0x64, 0x4d, 0x4c, 0x50,
  0x2f, 0x74, 0x6f, 0x72, 0x63, 0x68, 0x2e, 0x6e, 0x6e, 0x2e, 0x6d, 0x6f,
  0x64, 0x75, 0x6c, 0x65, 0x73, 0x2e, 0x63, 0x6f, 0x6e, 0x74, 0x61, 0x69,
  0x6e, 0x65, 0x72, 0x2e, 0x53, 0x65, 0x71, 0x75, 0x65, 0x6e, 0x74, 0x69,
  0x61, 0x6c, 0x5f, 0x6e, 0x65, 0x74, 0x2f, 0x74, 0x6f, 0x72, 0x63, 0x68,
  0x2e, 0x6e, 0x6e, 0x2e, 0x6d, 0x6f, 0x64, 0x75, 0x6c, 0x65, 0x73, 0x2e,
  0x6c, 0x69, 0x6e, 0x65, 0x61, 0x72, 0x2e, 0x4c, 0x69, 0x6e, 0x65, 0x61,
  0x72, 0x5f, 0x36, 0x3b, 0x32, 0x00, 0x00, 0x00, 0x02, 0x00, 0x00, 0x00,
  0x01, 0x00, 0x00, 0x00, 0x02, 0x00, 0x00, 0x00, 0x94, 0xef, 0xff, 0xff,
  0xb6, 0xfc, 0xff, 0xff, 0x01, 0x00, 0x00, 0x00, 0x10, 0x00, 0x00, 0x00,
  0x04, 0x00, 0x00, 0x00, 0x01, 0x00, 0x00, 0x00, 0x0e, 0x00, 0x00, 0x00,
  0x01, 0x00, 0x00, 0x00, 0x0d, 0x00, 0x00, 0x00, 0x12, 0xf0, 0xff, 0xff,
  0x00, 0x00, 0x00, 0x01, 0x8c, 0x00, 0x00, 0x00, 0x0f, 0x00, 0x00, 0x00,
  0x08, 0x00, 0x00, 0x00, 0x8c, 0x00, 0x00, 0x00, 0x76, 0x00, 0x00, 0x00,
  0x76, 0x6c, 0x70, 0x5f, 0x68, 0x61, 0x63, 0x6b, 0x61, 0x74, 0x68, 0x6f,
  0x6e, 0x2e, 0x69, 0x6d, 0x70, 0x72, 0x6f, 0x76, 0x65, 0x64, 0x5f, 0x6d,
  0x6f, 0x64, 0x65, 0x6c, 0x2e, 0x49, 0x6d, 0x70, 0x72, 0x6f, 0x76, 0x65,
  0x64, 0x4d, 0x4c, 0x50, 0x2f, 0x74, 0x6f, 0x72, 0x63, 0x68, 0x2e, 0x6e,
  0x6e, 0x2e, 0x6d, 0x6f, 0x64, 0x75, 0x6c, 0x65, 0x73, 0x2e, 0x63, 0x6f,
  0x6e, 0x74, 0x61, 0x69, 0x6e, 0x65, 0x72, 0x2e, 0x53, 0x65, 0x71, 0x75,
  0x65, 0x6e, 0x74, 0x69, 0x61, 0x6c, 0x5f, 0x6e, 0x65, 0x74, 0x2f, 0x74,
  0x6f, 0x72, 0x63, 0x68, 0x2e, 0x6e, 0x6e, 0x2e, 0x6d, 0x6f, 0x64, 0x75,
  0x6c, 0x65, 0x73, 0x2e, 0x61, 0x63, 0x74, 0x69, 0x76, 0x61, 0x74, 0x69,
  0x6f, 0x6e, 0x2e, 0x54, 0x61, 0x6e, 0x68, 0x5f, 0x35, 0x3b, 0x00, 0x00,
  0x02, 0x00, 0x00, 0x00, 0x01, 0x00, 0x00, 0x00, 0x0a, 0x00, 0x00, 0x00,
  0x58, 0xf0, 0xff, 0xff, 0x62, 0xfe, 0xff, 0xff, 0x00, 0x00, 0x00, 0x08,
  0x1c, 0x00, 0x00, 0x00, 0x10, 0x00, 0x00, 0x00, 0x04, 0x00, 0x00, 0x00,
  0x8a, 0xfc, 0xff, 0xff, 0x00, 0x00, 0x00, 0x01, 0x01, 0x00, 0x00, 0x00,
  0x0d, 0x00, 0x00, 0x00, 0x03, 0x00, 0x00, 0x00, 0x0c, 0x00, 0x00, 0x00,
  0x05, 0x00, 0x00, 0x00, 0x02, 0x00, 0x00, 0x00, 0xea, 0xf0, 0xff, 0xff,
  0x00, 0x00, 0x00, 0x01, 0x8c, 0x00, 0x00, 0x00, 0x0e, 0x00, 0x00, 0x00,
  0x08, 0x00, 0x00, 0x00, 0x8c, 0x00, 0x00, 0x00, 0x75, 0x00, 0x00, 0x00,
  0x76, 0x6c, 0x70, 0x5f, 0x68, 0x61, 0x63, 0x6b, 0x61, 0x74, 0x68, 0x6f,
  0x6e, 0x2e, 0x69, 0x6d, 0x70, 0x72, 0x6f, 0x76, 0x65, 0x64, 0x5f, 0x6d,
  0x6f, 0x64, 0x65, 0x6c, 0x2e, 0x49, 0x6d, 0x70, 0x72, 0x6f, 0x76, 0x65,
  0x64, 0x4d, 0x4c, 0x50, 0x2f, 0x74, 0x6f, 0x72, 0x63, 0x68, 0x2e, 0x6e,
  0x6e, 0x2e, 0x6d, 0x6f, 0x64, 0x75, 0x6c, 0x65, 0x73, 0x2e, 0x63, 0x6f,
  0x6e, 0x74, 0x61, 0x69, 0x6e, 0x65, 0x72, 0x2e, 0x53, 0x65, 0x71, 0x75,
  0x65, 0x6e, 0x74, 0x69, 0x61, 0x6c, 0x5f, 0x6e, 0x65, 0x74, 0x2f, 0x74,
  0x6f, 0x72, 0x63, 0x68, 0x2e, 0x6e, 0x6e, 0x2e, 0x6d, 0x6f, 0x64, 0x75,
  0x6c, 0x65, 0x73, 0x2e, 0x6c, 0x69, 0x6e, 0x65, 0x61, 0x72, 0x2e, 0x4c,
  0x69, 0x6e, 0x65, 0x61, 0x72, 0x5f, 0x34, 0x3b, 0x32, 0x00, 0x00, 0x00,
  0x02, 0x00, 0x00, 0x00, 0x01, 0x00, 0x00, 0x00, 0x0a, 0x00, 0x00, 0x00,
  0x30, 0xf1, 0xff, 0xff, 0x52, 0xfe, 0xff, 0xff, 0x01, 0x00, 0x00, 0x00,
  0x10, 0x00, 0x00, 0x00, 0x04, 0x00, 0x00, 0x00, 0x01, 0x00, 0x00, 0x00,
  0x0c, 0x00, 0x00, 0x00, 0x01, 0x00, 0x00, 0x00, 0x0b, 0x00, 0x00, 0x00,
  0xae, 0xf1, 0xff, 0xff, 0x00, 0x00, 0x00, 0x01, 0x8c, 0x00, 0x00, 0x00,
  0x0d, 0x00, 0x00, 0x00, 0x08, 0x00, 0x00, 0x00, 0x8c, 0x00, 0x00, 0x00,
  0x76, 0x00, 0x00, 0x00, 0x76, 0x6c, 0x70, 0x5f, 0x68, 0x61, 0x63, 0x6b,
  0x61, 0x74, 0x68, 0x6f, 0x6e, 0x2e, 0x69, 0x6d, 0x70, 0x72, 0x6f, 0x76,
  0x65, 0x64, 0x5f, 0x6d, 0x6f, 0x64, 0x65, 0x6c, 0x2e, 0x49, 0x6d, 0x70,
  0x72, 0x6f, 0x76, 0x65, 0x64, 0x4d, 0x4c, 0x50, 0x2f, 0x74, 0x6f, 0x72,
  0x63, 0x68, 0x2e, 0x6e, 0x6e, 0x2e, 0x6d, 0x6f, 0x64, 0x75, 0x6c, 0x65,
  0x73, 0x2e, 0x63, 0x6f, 0x6e, 0x74, 0x61, 0x69, 0x6e, 0x65, 0x72, 0x2e,
  0x53, 0x65, 0x71, 0x75, 0x65, 0x6e, 0x74, 0x69, 0x61, 0x6c, 0x5f, 0x6e,
  0x65, 0x74, 0x2f, 0x74, 0x6f, 0x72, 0x63, 0x68, 0x2e, 0x6e, 0x6e, 0x2e,
  0x6d, 0x6f, 0x64, 0x75, 0x6c, 0x65, 0x73, 0x2e, 0x61, 0x63, 0x74, 0x69,
  0x76, 0x61, 0x74, 0x69, 0x6f, 0x6e, 0x2e, 0x54, 0x61, 0x6e, 0x68, 0x5f,
  0x33, 0x3b, 0x00, 0x00, 0x02, 0x00, 0x00, 0x00, 0x01, 0x00, 0x00, 0x00,
  0x0a, 0x00, 0x00, 0x00, 0x74, 0xf2, 0xff, 0xff, 0x00, 0x00, 0x0e, 0x00,
  0x14, 0x00, 0x00, 0x00, 0x08, 0x00, 0x0c, 0x00, 0x07, 0x00, 0x10, 0x00,
  0x0e, 0x00, 0x00, 0x00, 0x00, 0x00, 0x00, 0x08, 0x1c, 0x00, 0x00, 0x00,
  0x10, 0x00, 0x00, 0x00, 0x04, 0x00, 0x00, 0x00, 0x36, 0xfe, 0xff, 0xff,
  0x00, 0x00, 0x00, 0x01, 0x01, 0x00, 0x00, 0x00, 0x0b, 0x00, 0x00, 0x00,
  0x03, 0x00, 0x00, 0x00, 0x0a, 0x00, 0x00, 0x00, 0x06, 0x00, 0x00, 0x00,
  0x03, 0x00, 0x00, 0x00, 0x96, 0xf2, 0xff, 0xff, 0x00, 0x00, 0x00, 0x01,
  0x8c, 0x00, 0x00, 0x00, 0x0c, 0x00, 0x00, 0x00, 0x08, 0x00, 0x00, 0x00,
  0x8c, 0x00, 0x00, 0x00, 0x75, 0x00, 0x00, 0x00, 0x76, 0x6c, 0x70, 0x5f,
  0x68, 0x61, 0x63, 0x6b, 0x61, 0x74, 0x68, 0x6f, 0x6e, 0x2e, 0x69, 0x6d,
  0x70, 0x72, 0x6f, 0x76, 0x65, 0x64, 0x5f, 0x6d, 0x6f, 0x64, 0x65, 0x6c,
  0x2e, 0x49, 0x6d, 0x70, 0x72, 0x6f, 0x76, 0x65, 0x64, 0x4d, 0x4c, 0x50,
  0x2f, 0x74, 0x6f, 0x72, 0x63, 0x68, 0x2e, 0x6e, 0x6e, 0x2e, 0x6d, 0x6f,
  0x64, 0x75, 0x6c, 0x65, 0x73, 0x2e, 0x63, 0x6f, 0x6e, 0x74, 0x61, 0x69,
  0x6e, 0x65, 0x72, 0x2e, 0x53, 0x65, 0x71, 0x75, 0x65, 0x6e, 0x74, 0x69,
  0x61, 0x6c, 0x5f, 0x6e, 0x65, 0x74, 0x2f, 0x74, 0x6f, 0x72, 0x63, 0x68,
  0x2e, 0x6e, 0x6e, 0x2e, 0x6d, 0x6f, 0x64, 0x75, 0x6c, 0x65, 0x73, 0x2e,
  0x6c, 0x69, 0x6e, 0x65, 0x61, 0x72, 0x2e, 0x4c, 0x69, 0x6e, 0x65, 0x61,
  0x72, 0x5f, 0x32, 0x3b, 0x32, 0x00, 0x00, 0x00, 0x02, 0x00, 0x00, 0x00,
  0x01, 0x00, 0x00, 0x00, 0x0a, 0x00, 0x00, 0x00, 0x5c, 0xf3, 0xff, 0xff,
  0x00, 0x00, 0x0a, 0x00, 0x10, 0x00, 0x04, 0x00, 0x08, 0x00, 0x0c, 0x00,
  0x0a, 0x00, 0x00, 0x00, 0x01, 0x00, 0x00, 0x00, 0x10, 0x00, 0x00, 0x00,
  0x04, 0x00, 0x00, 0x00, 0x01, 0x00, 0x00, 0x00, 0x0a, 0x00, 0x00, 0x00,
  0x01, 0x00, 0x00, 0x00, 0x09, 0x00, 0x00, 0x00, 0xfc, 0xfe, 0xff, 0xff,
  0x1c, 0x00, 0x00, 0x00, 0x00, 0x00, 0x00, 0x1c, 0x01, 0x00, 0x00, 0x00,
  0x76, 0xf3, 0xff, 0xff, 0x00, 0x00, 0x00, 0x01, 0x8c, 0x00, 0x00, 0x00,
  0x0b, 0x00, 0x00, 0x00, 0x08, 0x00, 0x00, 0x00, 0x8c, 0x00, 0x00, 0x00,
  0x76, 0x00, 0x00, 0x00, 0x76, 0x6c, 0x70, 0x5f, 0x68, 0x61, 0x63, 0x6b,
  0x61, 0x74, 0x68, 0x6f, 0x6e, 0x2e, 0x69, 0x6d, 0x70, 0x72, 0x6f, 0x76,
  0x65, 0x64, 0x5f, 0x6d, 0x6f, 0x64, 0x65, 0x6c, 0x2e, 0x49, 0x6d, 0x70,
  0x72, 0x6f, 0x76, 0x65, 0x64, 0x4d, 0x4c, 0x50, 0x2f, 0x74, 0x6f, 0x72,
  0x63, 0x68, 0x2e, 0x6e, 0x6e, 0x2e, 0x6d, 0x6f, 0x64, 0x75, 0x6c, 0x65,
  0x73, 0x2e, 0x63, 0x6f, 0x6e, 0x74, 0x61, 0x69, 0x6e, 0x65, 0x72, 0x2e,
  0x53, 0x65, 0x71, 0x75, 0x65, 0x6e, 0x74, 0x69, 0x61, 0x6c, 0x5f, 0x6e,
  0x65, 0x74, 0x2f, 0x74, 0x6f, 0x72, 0x63, 0x68, 0x2e, 0x6e, 0x6e, 0x2e,
  0x6d, 0x6f, 0x64, 0x75, 0x6c, 0x65, 0x73, 0x2e, 0x61, 0x63, 0x74, 0x69,
  0x76, 0x61, 0x74, 0x69, 0x6f, 0x6e, 0x2e, 0x54, 0x61, 0x6e, 0x68, 0x5f,
  0x31, 0x3b, 0x00, 0x00, 0x02, 0x00, 0x00, 0x00, 0x01, 0x00, 0x00, 0x00,
  0x0a, 0x00, 0x00, 0x00, 0x3c, 0xf4, 0xff, 0xff, 0x00, 0x00, 0x0e, 0x00,
  0x16, 0x00, 0x00, 0x00, 0x08, 0x00, 0x0c, 0x00, 0x07, 0x00, 0x10, 0x00,
  0x0e, 0x00, 0x00, 0x00, 0x00, 0x00, 0x00, 0x08, 0x28, 0x00, 0x00, 0x00,
  0x1c, 0x00, 0x00, 0x00, 0x10, 0x00, 0x00, 0x00, 0x00, 0x00, 0x0a, 0x00,
  0x08, 0x00, 0x00, 0x00, 0x00, 0x00, 0x07, 0x00, 0x0a, 0x00, 0x00, 0x00,
  0x00, 0x00, 0x00, 0x01, 0x01, 0x00, 0x00, 0x00, 0x09, 0x00, 0x00, 0x00,
  0x03, 0x00, 0x00, 0x00, 0x00, 0x00, 0x00, 0x00, 0x07, 0x00, 0x00, 0x00,
  0x08, 0x00, 0x00, 0x00, 0x0c, 0x00, 0x10, 0x00, 0x0b, 0x00, 0x00, 0x00,
  0x0c, 0x00, 0x04, 0x00, 0x0c, 0x00, 0x00, 0x00, 0x09, 0x00, 0x00, 0x00,
  0x00, 0x00, 0x00, 0x09, 0x05, 0x00, 0x00, 0x00, 0x86, 0xf4, 0xff, 0xff,
  0x00, 0x00, 0x00, 0x01, 0x8c, 0x00, 0x00, 0x00, 0x0a, 0x00, 0x00, 0x00,
  0x08, 0x00, 0x00, 0x00, 0x8c, 0x00, 0x00, 0x00, 0x75, 0x00, 0x00, 0x00,
  0x76, 0x6c, 0x70, 0x5f, 0x68, 0x61, 0x63, 0x6b, 0x61, 0x74, 0x68, 0x6f,
  0x6e, 0x2e, 0x69, 0x6d, 0x70, 0x72, 0x6f, 0x76, 0x65, 0x64, 0x5f, 0x6d,
  0x6f, 0x64, 0x65, 0x6c, 0x2e, 0x49, 0x6d, 0x70, 0x72, 0x6f, 0x76, 0x65,
  0x64, 0x4d, 0x4c, 0x50, 0x2f, 0x74, 0x6f, 0x72, 0x63, 0x68, 0x2e, 0x6e,
  0x6e, 0x2e, 0x6d, 0x6f, 0x64, 0x75, 0x6c, 0x65, 0x73, 0x2e, 0x63, 0x6f,
  0x6e, 0x74, 0x61, 0x69, 0x6e, 0x65, 0x72, 0x2e, 0x53, 0x65, 0x71, 0x75,
  0x65, 0x6e, 0x74, 0x69, 0x61, 0x6c, 0x5f, 0x6e, 0x65, 0x74, 0x2f, 0x74,
  0x6f, 0x72, 0x63, 0x68, 0x2e, 0x6e, 0x6e, 0x2e, 0x6d, 0x6f, 0x64, 0x75,
  0x6c, 0x65, 0x73, 0x2e, 0x6c, 0x69, 0x6e, 0x65, 0x61, 0x72, 0x2e, 0x4c,
  0x69, 0x6e, 0x65, 0x61, 0x72, 0x5f, 0x30, 0x3b, 0x32, 0x00, 0x00, 0x00,
  0x02, 0x00, 0x00, 0x00, 0x01, 0x00, 0x00, 0x00, 0x0a, 0x00, 0x00, 0x00,
  0xcc, 0xf4, 0xff, 0xff, 0x2a, 0xf5, 0xff, 0xff, 0x00, 0x00, 0x00, 0x01,
  0x8c, 0x00, 0x00, 0x00, 0x09, 0x00, 0x00, 0x00, 0x08, 0x00, 0x00, 0x00,
  0x88, 0x00, 0x00, 0x00, 0x75, 0x00, 0x00, 0x00, 0x76, 0x6c, 0x70, 0x5f,
  0x68, 0x61, 0x63, 0x6b, 0x61, 0x74, 0x68, 0x6f, 0x6e, 0x2e, 0x69, 0x6d,
  0x70, 0x72, 0x6f, 0x76, 0x65, 0x64, 0x5f, 0x6d, 0x6f, 0x64, 0x65, 0x6c,
  0x2e, 0x49, 0x6d, 0x70, 0x72, 0x6f, 0x76, 0x65, 0x64, 0x4d, 0x4c, 0x50,
  0x2f, 0x74, 0x6f, 0x72, 0x63, 0x68, 0x2e, 0x6e, 0x6e, 0x2e, 0x6d, 0x6f,
  0x64, 0x75, 0x6c, 0x65, 0x73, 0x2e, 0x63, 0x6f, 0x6e, 0x74, 0x61, 0x69,
  0x6e, 0x65, 0x72, 0x2e, 0x53, 0x65, 0x71, 0x75, 0x65, 0x6e, 0x74, 0x69,
  0x61, 0x6c, 0x5f, 0x6e, 0x65, 0x74, 0x2f, 0x74, 0x6f, 0x72, 0x63, 0x68,
  0x2e, 0x6e, 0x6e, 0x2e, 0x6d, 0x6f, 0x64, 0x75, 0x6c, 0x65, 0x73, 0x2e,
  0x6c, 0x69, 0x6e, 0x65, 0x61, 0x72, 0x2e, 0x4c, 0x69, 0x6e, 0x65, 0x61,
  0x72, 0x5f, 0x30, 0x3b, 0x31, 0x00, 0x00, 0x00, 0x01, 0x00, 0x00, 0x00,
  0x0a, 0x00, 0x00, 0x00, 0x6c, 0xf5, 0xff, 0xff, 0xe6, 0xf5, 0xff, 0xff,
  0x04, 0x00, 0x00, 0x00, 0x28, 0x00, 0x00, 0x00, 0xa9, 0xf3, 0xde, 0x3c,
  0x09, 0xc4, 0x51, 0x3d, 0x72, 0xfb, 0x15, 0x3e, 0xd4, 0x76, 0x93, 0x3e,
  0x3b, 0x88, 0xe0, 0xbd, 0x5d, 0xb2, 0x24, 0xbe, 0xca, 0xfb, 0x41, 0x3e,
  0x45, 0xfc, 0x94, 0xbd, 0x32, 0xc7, 0x35, 0xbe, 0xf7, 0x9e, 0x3e, 0xbe,
  0xfe, 0xf5, 0xff, 0xff, 0x00, 0x00, 0x00, 0x01, 0x8c, 0x00, 0x00, 0x00,
  0x08, 0x00, 0x00, 0x00, 0x08, 0x00, 0x00, 0x00, 0x8c, 0x00, 0x00, 0x00,
  0x74, 0x00, 0x00, 0x00, 0x76, 0x6c, 0x70, 0x5f, 0x68, 0x61, 0x63, 0x6b,
  0x61, 0x74, 0x68, 0x6f, 0x6e, 0x2e, 0x69, 0x6d, 0x70, 0x72, 0x6f, 0x76,
  0x65, 0x64, 0x5f, 0x6d, 0x6f, 0x64, 0x65, 0x6c, 0x2e, 0x49, 0x6d, 0x70,
  0x72, 0x6f, 0x76, 0x65, 0x64, 0x4d, 0x4c, 0x50, 0x2f, 0x74, 0x6f, 0x72,
  0x63, 0x68, 0x2e, 0x6e, 0x6e, 0x2e, 0x6d, 0x6f, 0x64, 0x75, 0x6c, 0x65,
  0x73, 0x2e, 0x63, 0x6f, 0x6e, 0x74, 0x61, 0x69, 0x6e, 0x65, 0x72, 0x2e,
  0x53, 0x65, 0x71, 0x75, 0x65, 0x6e, 0x74, 0x69, 0x61, 0x6c, 0x5f, 0x6e,
  0x65, 0x74, 0x2f, 0x74, 0x6f, 0x72, 0x63, 0x68, 0x2e, 0x6e, 0x6e, 0x2e,
  0x6d, 0x6f, 0x64, 0x75, 0x6c, 0x65, 0x73, 0x2e, 0x6c, 0x69, 0x6e, 0x65,
  0x61, 0x72, 0x2e, 0x4c, 0x69, 0x6e, 0x65, 0x61, 0x72, 0x5f, 0x30, 0x3b,
  0x00, 0x00, 0x00, 0x00, 0x02, 0x00, 0x00, 0x00, 0x0a, 0x00, 0x00, 0x00,
  0x09, 0x00, 0x00, 0x00, 0x44, 0xf6, 0xff, 0xff, 0xbe, 0xf6, 0xff, 0xff,
  0x04, 0x00, 0x00, 0x00, 0x68, 0x01, 0x00, 0x00, 0x7e, 0x24, 0xfd, 0x3d,
  0x78, 0xdd, 0xba, 0x3e, 0x86, 0xd9, 0xae, 0x3e, 0x61, 0x5e, 0x06, 0x3e,
  0xb6, 0xdd, 0x5b, 0xbe, 0x05, 0x61, 0x28, 0x3c, 0x5f, 0x8d, 0x1d, 0xbf,
  0xed, 0xb1, 0xa6, 0x3d, 0xb3, 0xa5, 0xa2, 0x3e, 0x43, 0xab, 0x07, 0xbf,
  0xb8, 0xa1, 0xa7, 0xbd, 0xcc, 0x83, 0x15, 0xbf, 0x8f, 0x25, 0x96, 0xbe,
  0xa6, 0xd9, 0x2b, 0x3d, 0xa7, 0x44, 0xc3, 0xbc, 0xcb, 0xe7, 0x8f, 0x3e,
  0x11, 0xbd, 0xef, 0x3e, 0xf9, 0xd5, 0x90, 0x3e, 0x5f, 0x89, 0xe3, 0xbe,
  0xc0, 0xae, 0xc5, 0xbe, 0x67, 0x98, 0x90, 0xbd, 0x47, 0xd8, 0xa6, 0xbe,
  0x31, 0x2f, 0x3f, 0xbe, 0x3d, 0x3d, 0xb7, 0xbd, 0x93, 0x39, 0x3a, 0xbf,
  0xac, 0x2c, 0xda, 0xbd, 0xe6, 0xbf, 0xe8, 0xbd, 0xd0, 0xab, 0x01, 0xbf,
  0xf1, 0x21, 0xd2, 0xbe, 0x80, 0xb2, 0x2a, 0xbf, 0xe4, 0xa9, 0xe1, 0xbd,
  0xf9, 0xea, 0x63, 0xbe, 0xd2, 0x6b, 0x2e, 0x3e, 0x3a, 0x14, 0x8c, 0x3c,
  0x9c, 0x5e, 0xd4, 0x3d, 0xff, 0x7a, 0xd6, 0x3e, 0x0f, 0x19, 0x02, 0x3e,
  0x00, 0xf7, 0x5d, 0xbb, 0x94, 0xe0, 0x8c, 0xbe, 0x23, 0x12, 0x6e, 0x3d,
  0x51, 0x10, 0x5b, 0x3e, 0xe7, 0xdb, 0x15, 0x3d, 0x5c, 0xcb, 0x22, 0x3f,
  0x6a, 0xf1, 0x0a, 0x3f, 0x3d, 0xea, 0xa1, 0x3e, 0x56, 0x46, 0x47, 0xbe,
  0x41, 0xbd, 0x9b, 0xbe, 0x6c, 0x9a, 0x21, 0xbf, 0xfe, 0x13, 0x28, 0x3e,
  0x91, 0x6c, 0x8d, 0xbe, 0x16, 0xad, 0x6e, 0xbf, 0xdc, 0xf1, 0xcb, 0x3e,
  0x5b, 0x2a, 0x74, 0xbd, 0x7e, 0xaf, 0xac, 0x3e, 0x30, 0xb1, 0xfb, 0x3e,
  0x3e, 0x76, 0x78, 0x3f, 0x23, 0x82, 0x7a, 0x3b, 0xa1, 0xe1, 0xda, 0x3e,
  0x0f, 0x83, 0x22, 0x3f, 0x3a, 0x18, 0xe8, 0xbc, 0x9a, 0xdc, 0xba, 0x3e,
  0xc8, 0x1c, 0x94, 0xbe, 0xe7, 0x78, 0x91, 0x3c, 0x26, 0xcf, 0x9f, 0x3c,
  0x10, 0x1c, 0xd2, 0xbd, 0x69, 0xba, 0xb3, 0xbe, 0x4c, 0x3b, 0xf1, 0x3e,
  0x3c, 0x12, 0x42, 0xbe, 0x90, 0x9f, 0xe0, 0xbd, 0xc4, 0xb9, 0x91, 0x3e,
  0x7f, 0xb6, 0x09, 0x3f, 0x32, 0x4f, 0x38, 0x3e, 0x93, 0x61, 0x0f, 0x3f,
  0x4b, 0x0a, 0x08, 0xbd, 0x25, 0xe1, 0x8f, 0xbe, 0x7a, 0x21, 0xa9, 0x3c,
  0x1f, 0xb4, 0x87, 0xbe, 0x20, 0xe0, 0x0b, 0x3f, 0x1e, 0xce, 0x0b, 0x3f,
  0xc3, 0x4c, 0x4c, 0x3b, 0x30, 0xca, 0x74, 0xbe, 0xfc, 0xab, 0x00, 0xbf,
  0x92, 0x7d, 0xa0, 0xbe, 0xe9, 0xbc, 0xdf, 0xbe, 0xcd, 0x76, 0xd7, 0xbd,
  0x1f, 0x52, 0x22, 0xbe, 0xad, 0x78, 0x4f, 0xbe, 0xf7, 0xfb, 0x04, 0xbf,
  0x32, 0xb9, 0xa5, 0x3d, 0xae, 0x65, 0x44, 0x3e, 0x16, 0xf8, 0xff, 0xff,
  0x00, 0x00, 0x00, 0x01, 0x8c, 0x00, 0x00, 0x00, 0x07, 0x00, 0x00, 0x00,
  0x08, 0x00, 0x00, 0x00, 0x8c, 0x00, 0x00, 0x00, 0x75, 0x00, 0x00, 0x00,
  0x76, 0x6c, 0x70, 0x5f, 0x68, 0x61, 0x63, 0x6b, 0x61, 0x74, 0x68, 0x6f,
  0x6e, 0x2e, 0x69, 0x6d, 0x70, 0x72, 0x6f, 0x76, 0x65, 0x64, 0x5f, 0x6d,
  0x6f, 0x64, 0x65, 0x6c, 0x2e, 0x49, 0x6d, 0x70, 0x72, 0x6f, 0x76, 0x65,
  0x64, 0x4d, 0x4c, 0x50, 0x2f, 0x74, 0x6f, 0x72, 0x63, 0x68, 0x2e, 0x6e,
  0x6e, 0x2e, 0x6d, 0x6f, 0x64, 0x75, 0x6c, 0x65, 0x73, 0x2e, 0x63, 0x6f,
  0x6e, 0x74, 0x61, 0x69, 0x6e, 0x65, 0x72, 0x2e, 0x53, 0x65, 0x71, 0x75,
  0x65, 0x6e, 0x74, 0x69, 0x61, 0x6c, 0x5f, 0x6e, 0x65, 0x74, 0x2f, 0x74,
  0x6f, 0x72, 0x63, 0x68, 0x2e, 0x6e, 0x6e, 0x2e, 0x6d, 0x6f, 0x64, 0x75,
  0x6c, 0x65, 0x73, 0x2e, 0x6c, 0x69, 0x6e, 0x65, 0x61, 0x72, 0x2e, 0x4c,
  0x69, 0x6e, 0x65, 0x61, 0x72, 0x5f, 0x32, 0x3b, 0x31, 0x00, 0x00, 0x00,
  0x02, 0x00, 0x00, 0x00, 0x0a, 0x00, 0x00, 0x00, 0x0a, 0x00, 0x00, 0x00,
  0x5c, 0xf8, 0xff, 0xff, 0xd6, 0xf8, 0xff, 0xff, 0x04, 0x00, 0x00, 0x00,
  0x90, 0x01, 0x00, 0x00, 0x30, 0xe1, 0x43, 0x3e, 0xe1, 0xcb, 0xb1, 0xbe,
  0x2a, 0x28, 0xa0, 0xbe, 0x64, 0xde, 0x14, 0xbf, 0x5e, 0xf8, 0x4c, 0x3d,
  0x9a, 0xde, 0xb5, 0xbe, 0xc1, 0xc0, 0x86, 0xbc, 0xc2, 0xc0, 0xbb, 0x3c,
  0x67, 0x9d, 0x9a, 0xbe, 0x2c, 0x6d, 0xb8, 0xbe, 0x29, 0x7d, 0x24, 0x3f,
  0xe8, 0x22, 0x27, 0xbe, 0x08, 0x8c, 0xdc, 0x3e, 0x6c, 0xa5, 0xb6, 0xbe,
  0x7e, 0x0b, 0x16, 0xbf, 0x59, 0x78, 0xc2, 0xbe, 0x7a, 0x3d, 0xae, 0xbd,
  0x2b, 0x4a, 0x16, 0xbf, 0x8e, 0xc9, 0xf3, 0xbe, 0x16, 0x2f, 0xd7, 0xbd,
  0xa8, 0x96, 0xcf, 0x3e, 0x84, 0xf7, 0x10, 0xbf, 0x6b, 0x3e, 0xad, 0x3e,
  0xfc, 0xbb, 0x0c, 0xbf, 0xc8, 0x2b, 0x1f, 0xbf, 0xff, 0x77, 0xd5, 0xbe,
  0x42, 0xa4, 0x7d, 0xbe, 0xc1, 0xfc, 0x07, 0xbf, 0xf2, 0x31, 0xe3, 0xbd,
  0x4a, 0xf5, 0xcf, 0x3d, 0xdb, 0x85, 0xb2, 0x3e, 0x6f, 0xab, 0x25, 0x3e,
  0x58, 0xec, 0x3e, 0x3d, 0x3f, 0xda, 0x62, 0x3e, 0xd9, 0x97, 0xbc, 0xbe,
  0xd7, 0x6b, 0x37, 0xbe, 0xd5, 0x8a, 0xf6, 0xbe, 0x5f, 0x26, 0x01, 0xbf,
  0x18, 0x93, 0x6f, 0xbe, 0x7c, 0x49, 0xb8, 0x3d, 0x18, 0xc0, 0xc2, 0x3e,
  0x3f, 0xb8, 0x26, 0xbf, 0x5e, 0x32, 0x07, 0x3d, 0xf3, 0x9e, 0x1e, 0xbf,
  0x28, 0x9c, 0x5a, 0xbe, 0x45, 0xde, 0x5c, 0xbd, 0x5c, 0x3b, 0x7e, 0x3e,
  0xa7, 0x12, 0x87, 0x3e, 0xdd, 0x49, 0x83, 0x3e, 0xcc, 0x76, 0x90, 0xbe,
  0xb4, 0x99, 0x5a, 0x3e, 0x0a, 0xb3, 0xd3, 0xbe, 0x9a, 0xca, 0xbc, 0xbe,
  0xb3, 0xeb, 0xcc, 0xbe, 0x64, 0xb7, 0xff, 0x3e, 0x63, 0x2c, 0xc3, 0xbe,
  0x2e, 0xfa, 0xe3, 0x3e, 0xc0, 0x5a, 0x2d, 0x3e, 0x55, 0x68, 0xe1, 0x3e,
  0x3b, 0x8f, 0xbf, 0xbe, 0x85, 0xa2, 0xdd, 0xbd, 0x7b, 0x51, 0x0c, 0x3f,
  0xd0, 0x49, 0xaa, 0x3d, 0xa6, 0xd0, 0xf5, 0x3d, 0x85, 0xf7, 0xf5, 0x3e,
  0x2a, 0xfe, 0x66, 0x3e, 0xe6, 0xcb, 0x82, 0xbe, 0x9c, 0x7c, 0xd3, 0x3e,
  0x1d, 0xaf, 0x96, 0x3e, 0x0f, 0x94, 0x1d, 0xbe, 0x48, 0xb8, 0xef, 0xbe,
  0x8c, 0x69, 0x92, 0x3e, 0xc6, 0xfb, 0x0e, 0xbe, 0xd8, 0xed, 0x14, 0x3e,
  0xca, 0x53, 0x1c, 0x3e, 0x19, 0xa0, 0xd6, 0x3d, 0x95, 0xf2, 0x01, 0xbe,
  0xf6, 0x7e, 0xa4, 0x3e, 0x70, 0x80, 0x37, 0x3f, 0xb6, 0xf5, 0xd4, 0xbe,
  0x8b, 0x02, 0xc0, 0xbe, 0xd2, 0xb1, 0x13, 0x3f, 0xf1, 0xf0, 0x30, 0xbe,
  0x78, 0x9d, 0x40, 0x3e, 0x3c, 0x44, 0xd8, 0x3e, 0xa4, 0x7f, 0x02, 0x3f,
  0x4e, 0xd0, 0x28, 0x3e, 0xd2, 0x1e, 0x08, 0x3e, 0x93, 0x94, 0x2c, 0x3e,
  0x60, 0x1b, 0x41, 0xbb, 0xe8, 0x3b, 0x94, 0xbe, 0x9a, 0xf3, 0x87, 0x3e,
  0x20, 0x08, 0x00, 0x3f, 0xbe, 0x60, 0x0c, 0x3f, 0x67, 0x21, 0xe7, 0xbd,
  0x96, 0xbb, 0xd9, 0x3d, 0x98, 0xb6, 0x51, 0xbe, 0x4e, 0x26, 0xa2, 0xbd,
  0x82, 0x22, 0x78, 0xbe, 0x18, 0x24, 0x78, 0x3e, 0x56, 0xfa, 0xff, 0xff,
  0x00, 0x00, 0x00, 0x01, 0x8c, 0x00, 0x00, 0x00, 0x06, 0x00, 0x00, 0x00,
  0x08, 0x00, 0x00, 0x00, 0x8c, 0x00, 0x00, 0x00, 0x75, 0x00, 0x00, 0x00,
  0x76, 0x6c, 0x70, 0x5f, 0x68, 0x61, 0x63, 0x6b, 0x61, 0x74, 0x68, 0x6f,
  0x6e, 0x2e, 0x69, 0x6d, 0x70, 0x72, 0x6f, 0x76, 0x65, 0x64, 0x5f, 0x6d,
  0x6f, 0x64, 0x65, 0x6c, 0x2e, 0x49, 0x6d, 0x70, 0x72, 0x6f, 0x76, 0x65,
  0x64, 0x4d, 0x4c, 0x50, 0x2f, 0x74, 0x6f, 0x72, 0x63, 0x68, 0x2e, 0x6e,
  0x6e, 0x2e, 0x6d, 0x6f, 0x64, 0x75, 0x6c, 0x65, 0x73, 0x2e, 0x63, 0x6f,
  0x6e, 0x74, 0x61, 0x69, 0x6e, 0x65, 0x72, 0x2e, 0x53, 0x65, 0x71, 0x75,
  0x65, 0x6e, 0x74, 0x69, 0x61, 0x6c, 0x5f, 0x6e, 0x65, 0x74, 0x2f, 0x74,
  0x6f, 0x72, 0x63, 0x68, 0x2e, 0x6e, 0x6e, 0x2e, 0x6d, 0x6f, 0x64, 0x75,
  0x6c, 0x65, 0x73, 0x2e, 0x6c, 0x69, 0x6e, 0x65, 0x61, 0x72, 0x2e, 0x4c,
  0x69, 0x6e, 0x65, 0x61, 0x72, 0x5f, 0x34, 0x3b, 0x31, 0x00, 0x00, 0x00,
  0x02, 0x00, 0x00, 0x00, 0x0a, 0x00, 0x00, 0x00, 0x0a, 0x00, 0x00, 0x00,
  0x9c, 0xfa, 0xff, 0xff, 0x16, 0xfb, 0xff, 0xff, 0x04, 0x00, 0x00, 0x00,
  0x90, 0x01, 0x00, 0x00, 0x5e, 0xe2, 0x08, 0x3e, 0xf6, 0xf0, 0xa8, 0xbe,
  0xa6, 0x44, 0x23, 0xbf, 0x4c, 0x6b, 0xba, 0xbe, 0x2e, 0x09, 0x99, 0xbd,
  0xc7, 0x71, 0x1a, 0x3f, 0x94, 0x67, 0xab, 0x3e, 0xb8, 0x4d, 0x42, 0x3e,
  0x2f, 0x31, 0x02, 0x3f, 0x3f, 0x2a, 0x8e, 0xbe, 0x70, 0xbd, 0x47, 0xbe,
  0xe9, 0x1b, 0xb9, 0xbe, 0x74, 0x4e, 0x0a, 0xbf, 0x07, 0x9e, 0x8b, 0xbe,
  0xc3, 0x7c, 0xfa, 0xbd, 0x76, 0xd1, 0x15, 0x3f, 0xae, 0x81, 0x1f, 0x3f,
  0x2e, 0xfb, 0xf1, 0x3e, 0xff, 0x24, 0x35, 0x3e, 0x1d, 0xbe, 0x12, 0xbf,
  0x8a, 0x07, 0x08, 0xbe, 0x59, 0xf6, 0x11, 0x3f, 0xf9, 0x74, 0xd9, 0x3e,
  0x01, 0x6a, 0xcb, 0x3e, 0xa4, 0x2d, 0xb6, 0x3e, 0xc6, 0xdc, 0x8a, 0x3c,
  0xfd, 0x16, 0xab, 0xbd, 0x4b, 0x8c, 0xa3, 0xbe, 0x57, 0xda, 0x10, 0xbf,
  0xf3, 0xb6, 0x97, 0xbe, 0x0a, 0x05, 0x6b, 0x3e, 0x55, 0x66, 0x0c, 0x3e,
  0xea, 0x47, 0xe2, 0x3d, 0x72, 0xfb, 0x1a, 0xbe, 0x4a, 0xaf, 0x84, 0x3d,
  0xb1, 0x96, 0x81, 0xbe, 0xc9, 0xfe, 0x81, 0xbe, 0xd4, 0x86, 0xf9, 0xbd,
  0xf8, 0xab, 0xa4, 0xbe, 0xec, 0x4f, 0x42, 0x3e, 0x5f, 0x90, 0x3c, 0xbe,
  0xa0, 0xcf, 0x0f, 0xbf, 0xf6, 0xd2, 0xa8, 0xbe, 0x55, 0x35, 0xaa, 0xbe,
  0x3c, 0x7b, 0x6a, 0xbe, 0x68, 0xed, 0x37, 0xbe, 0x04, 0x01, 0x8a, 0x3e,
  0x65, 0xd1, 0xa6, 0xbd, 0x75, 0x66, 0xf1, 0x3e, 0x4a, 0x2e, 0xc0, 0x3d,
  0x16, 0xd2, 0xce, 0x3e, 0xd6, 0xfa, 0x11, 0xbe, 0x18, 0xac, 0xad, 0x3e,
  0x14, 0x05, 0xa7, 0xbe, 0x6a, 0x37, 0xf1, 0x3e, 0x57, 0x8a, 0x18, 0x3f,
  0xa7, 0x73, 0xb9, 0xbd, 0xa9, 0x79, 0x2f, 0xbd, 0xc3, 0x19, 0x43, 0xbe,
  0x87, 0x7d, 0x10, 0xbf, 0x6c, 0xe4, 0xed, 0x3e, 0xee, 0x73, 0xb7, 0xbe,
  0x36, 0x51, 0x99, 0x3e, 0x61, 0x2f, 0x6b, 0x3d, 0xc5, 0xf6, 0x49, 0x3f,
  0xe7, 0xa0, 0x92, 0x3e, 0xcd, 0xd2, 0x98, 0xbe, 0xcb, 0xb9, 0x4c, 0x3e,
  0x79, 0x5c, 0xcf, 0x3d, 0x57, 0xa9, 0x34, 0xbf, 0x8d, 0x15, 0xfe, 0xbd,
  0x76, 0x62, 0x26, 0xbf, 0x2a, 0x21, 0xc2, 0xbe, 0x0c, 0x14, 0xbf, 0xbe,
  0xfd, 0x26, 0x35, 0xbe, 0x4f, 0x60, 0xad, 0x3d, 0x86, 0x9f, 0xb0, 0xbc,
  0xe1, 0x9f, 0x0b, 0x3f, 0x60, 0x9e, 0x29, 0x3f, 0xef, 0x33, 0x28, 0xbe,
  0xa6, 0x9e, 0x80, 0x3e, 0xa8, 0x79, 0xc4, 0xbd, 0x6f, 0x71, 0xac, 0xbd,
  0xc0, 0x0f, 0x01, 0xbf, 0x27, 0xd2, 0x1b, 0x3f, 0x52, 0xc5, 0x65, 0x3e,
  0x35, 0xfb, 0x9f, 0xbe, 0x09, 0x37, 0x69, 0x3d, 0x7c, 0xeb, 0x91, 0xbe,
  0xe7, 0x9f, 0x05, 0xbf, 0xd8, 0xd1, 0x21, 0x3e, 0x4e, 0x12, 0x93, 0xbe,
  0x94, 0x19, 0x0b, 0xbe, 0xca, 0x7c, 0x86, 0xbe, 0x1b, 0x43, 0x12, 0x3e,
  0xe3, 0x0a, 0x21, 0x3f, 0xa3, 0x87, 0x0f, 0xbe, 0x18, 0x44, 0x6c, 0x3e,
  0x59, 0x83, 0x46, 0xbd, 0x4e, 0xf2, 0x9b, 0xbe, 0x96, 0xfc, 0xff, 0xff,
  0x00, 0x00, 0x00, 0x01, 0x8c, 0x00, 0x00, 0x00, 0x05, 0x00, 0x00, 0x00,
  0x08, 0x00, 0x00, 0x00, 0x8c, 0x00, 0x00, 0x00, 0x75, 0x00, 0x00, 0x00,
  0x76, 0x6c, 0x70, 0x5f, 0x68, 0x61, 0x63, 0x6b, 0x61, 0x74, 0x68, 0x6f,
  0x6e, 0x2e, 0x69, 0x6d, 0x70, 0x72, 0x6f, 0x76, 0x65, 0x64, 0x5f, 0x6d,
  0x6f, 0x64, 0x65, 0x6c, 0x2e, 0x49, 0x6d, 0x70, 0x72, 0x6f, 0x76, 0x65,
  0x64, 0x4d, 0x4c, 0x50, 0x2f, 0x74, 0x6f, 0x72, 0x63, 0x68, 0x2e, 0x6e,
  0x6e, 0x2e, 0x6d, 0x6f, 0x64, 0x75, 0x6c, 0x65, 0x73, 0x2e, 0x63, 0x6f,
  0x6e, 0x74, 0x61, 0x69, 0x6e, 0x65, 0x72, 0x2e, 0x53, 0x65, 0x71, 0x75,
  0x65, 0x6e, 0x74, 0x69, 0x61, 0x6c, 0x5f, 0x6e, 0x65, 0x74, 0x2f, 0x74,
  0x6f, 0x72, 0x63, 0x68, 0x2e, 0x6e, 0x6e, 0x2e, 0x6d, 0x6f, 0x64, 0x75,
  0x6c, 0x65, 0x73, 0x2e, 0x6c, 0x69, 0x6e, 0x65, 0x61, 0x72, 0x2e, 0x4c,
  0x69, 0x6e, 0x65, 0x61, 0x72, 0x5f, 0x36, 0x3b, 0x31, 0x00, 0x00, 0x00,
  0x02, 0x00, 0x00, 0x00, 0x02, 0x00, 0x00, 0x00, 0x0a, 0x00, 0x00, 0x00,
  0xdc, 0xfc, 0xff, 0xff, 0x56, 0xfd, 0xff, 0xff, 0x04, 0x00, 0x00, 0x00,
  0x50, 0x00, 0x00, 0x00, 0x64, 0xb2, 0x24, 0xbf, 0x52, 0x7f, 0x04, 0xbf,
  0x23, 0x86, 0xdf, 0x3e, 0xaf, 0x4c, 0xdb, 0x3e, 0x61, 0x91, 0xe9, 0xbd,
  0xb0, 0x7e, 0x3d, 0xbf, 0x2b, 0x80, 0x23, 0xbf, 0x41, 0xc0, 0x19, 0xbf,
  0x44, 0xf6, 0x2d, 0xbf, 0x87, 0x4b, 0xeb, 0xbe, 0x00, 0xe1, 0xd2, 0x39,
  0x2e, 0x91, 0x44, 0xbe, 0xaf, 0x82, 0x1e, 0xbf, 0xf5, 0xa0, 0x66, 0xbe,
  0x94, 0xc0, 0xd7, 0x3e, 0xd5, 0x48, 0x18, 0xbf, 0x3d, 0xd5, 0x8b, 0xbe,
  0x34, 0x1b, 0x8a, 0x3e, 0x3d, 0x30, 0xaf, 0xbe, 0x72, 0x30, 0x0e, 0xbe,
  0x96, 0xfd, 0xff, 0xff, 0x00, 0x00, 0x00, 0x01, 0x8c, 0x00, 0x00, 0x00,
  0x04, 0x00, 0x00, 0x00, 0x08, 0x00, 0x00, 0x00, 0x88, 0x00, 0x00, 0x00,
  0x74, 0x00, 0x00, 0x00, 0x76, 0x6c, 0x70, 0x5f, 0x68, 0x61, 0x63, 0x6b,
  0x61, 0x74, 0x68, 0x6f, 0x6e, 0x2e, 0x69, 0x6d, 0x70, 0x72, 0x6f, 0x76,
  0x65, 0x64, 0x5f, 0x6d, 0x6f, 0x64, 0x65, 0x6c, 0x2e, 0x49, 0x6d, 0x70,
  0x72, 0x6f, 0x76, 0x65, 0x64, 0x4d, 0x4c, 0x50, 0x2f, 0x74, 0x6f, 0x72,
  0x63, 0x68, 0x2e, 0x6e, 0x6e, 0x2e, 0x6d, 0x6f, 0x64, 0x75, 0x6c, 0x65,
  0x73, 0x2e, 0x63, 0x6f, 0x6e, 0x74, 0x61, 0x69, 0x6e, 0x65, 0x72, 0x2e,
  0x53, 0x65, 0x71, 0x75, 0x65, 0x6e, 0x74, 0x69, 0x61, 0x6c, 0x5f, 0x6e,
  0x65, 0x74, 0x2f, 0x74, 0x6f, 0x72, 0x63, 0x68, 0x2e, 0x6e, 0x6e, 0x2e,
  0x6d, 0x6f, 0x64, 0x75, 0x6c, 0x65, 0x73, 0x2e, 0x6c, 0x69, 0x6e, 0x65,
  0x61, 0x72, 0x2e, 0x4c, 0x69, 0x6e, 0x65, 0x61, 0x72, 0x5f, 0x32, 0x3b,
  0x00, 0x00, 0x00, 0x00, 0x01, 0x00, 0x00, 0x00, 0x0a, 0x00, 0x00, 0x00,
  0xd8, 0xfd, 0xff, 0xff, 0x52, 0xfe, 0xff, 0xff, 0x04, 0x00, 0x00, 0x00,
  0x28, 0x00, 0x00, 0x00, 0xab, 0x25, 0xa0, 0xbe, 0x25, 0xe6, 0x99, 0xbd,
  0xac, 0xf9, 0x10, 0x3e, 0x82, 0x60, 0xe0, 0x3d, 0x7e, 0x73, 0x43, 0xbe,
  0x5f, 0xc2, 0x3d, 0xbe, 0x35, 0x7f, 0xa4, 0xbd, 0xef, 0x74, 0x8c, 0xbe,
  0xb6, 0xc6, 0xa1, 0xbd, 0xd1, 0x35, 0x39, 0x3e, 0x6a, 0xfe, 0xff, 0xff,
  0x00, 0x00, 0x00, 0x01, 0x8c, 0x00, 0x00, 0x00, 0x03, 0x00, 0x00, 0x00,
  0x08, 0x00, 0x00, 0x00, 0x88, 0x00, 0x00, 0x00, 0x74, 0x00, 0x00, 0x00,
  0x76, 0x6c, 0x70, 0x5f, 0x68, 0x61, 0x63, 0x6b, 0x61, 0x74, 0x68, 0x6f,
  0x6e, 0x2e, 0x69, 0x6d, 0x70, 0x72, 0x6f, 0x76, 0x65, 0x64, 0x5f, 0x6d,
  0x6f, 0x64, 0x65, 0x6c, 0x2e, 0x49, 0x6d, 0x70, 0x72, 0x6f, 0x76, 0x65,
  0x64, 0x4d, 0x4c, 0x50, 0x2f, 0x74, 0x6f, 0x72, 0x63, 0x68, 0x2e, 0x6e,
  0x6e, 0x2e, 0x6d, 0x6f, 0x64, 0x75, 0x6c, 0x65, 0x73, 0x2e, 0x63, 0x6f,
  0x6e, 0x74, 0x61, 0x69, 0x6e, 0x65, 0x72, 0x2e, 0x53, 0x65, 0x71, 0x75,
  0x65, 0x6e, 0x74, 0x69, 0x61, 0x6c, 0x5f, 0x6e, 0x65, 0x74, 0x2f, 0x74,
  0x6f, 0x72, 0x63, 0x68, 0x2e, 0x6e, 0x6e, 0x2e, 0x6d, 0x6f, 0x64, 0x75,
  0x6c, 0x65, 0x73, 0x2e, 0x6c, 0x69, 0x6e, 0x65, 0x61, 0x72, 0x2e, 0x4c,
  0x69, 0x6e, 0x65, 0x61, 0x72, 0x5f, 0x34, 0x3b, 0x00, 0x00, 0x00, 0x00,
  0x01, 0x00, 0x00, 0x00, 0x0a, 0x00, 0x00, 0x00, 0xac, 0xfe, 0xff, 0xff,
  0x26, 0xff, 0xff, 0xff, 0x04, 0x00, 0x00, 0x00, 0x28, 0x00, 0x00, 0x00,
  0xd4, 0x86, 0xad, 0x3e, 0xd4, 0x89, 0x47, 0x3e, 0x61, 0xcd, 0x91, 0xbe,
  0x96, 0xc9, 0x4d, 0x3e, 0xd1, 0x72, 0x7c, 0x3e, 0x92, 0xe6, 0x5a, 0x3d,
  0xcb, 0x01, 0x90, 0x3c, 0xcd, 0x8f, 0x79, 0x3e, 0x64, 0x0d, 0x12, 0xbe,
  0x1f, 0x1a, 0xdc, 0x3c, 0x3e, 0xff, 0xff, 0xff, 0x00, 0x00, 0x00, 0x01,
  0x8c, 0x00, 0x00, 0x00, 0x02, 0x00, 0x00, 0x00, 0x08, 0x00, 0x00, 0x00,
  0x8c, 0x00, 0x00, 0x00, 0x74, 0x00, 0x00, 0x00, 0x76, 0x6c, 0x70, 0x5f,
  0x68, 0x61, 0x63, 0x6b, 0x61, 0x74, 0x68, 0x6f, 0x6e, 0x2e, 0x69, 0x6d,
  0x70, 0x72, 0x6f, 0x76, 0x65, 0x64, 0x5f, 0x6d, 0x6f, 0x64, 0x65, 0x6c,
  0x2e, 0x49, 0x6d, 0x70, 0x72, 0x6f, 0x76, 0x65, 0x64, 0x4d, 0x4c, 0x50,
  0x2f, 0x74, 0x6f, 0x72, 0x63, 0x68, 0x2e, 0x6e, 0x6e, 0x2e, 0x6d, 0x6f,
  0x64, 0x75, 0x6c, 0x65, 0x73, 0x2e, 0x63, 0x6f, 0x6e, 0x74, 0x61, 0x69,
  0x6e, 0x65, 0x72, 0x2e, 0x53, 0x65, 0x71, 0x75, 0x65, 0x6e, 0x74, 0x69,
  0x61, 0x6c, 0x5f, 0x6e, 0x65, 0x74, 0x2f, 0x74, 0x6f, 0x72, 0x63, 0x68,
  0x2e, 0x6e, 0x6e, 0x2e, 0x6d, 0x6f, 0x64, 0x75, 0x6c, 0x65, 0x73, 0x2e,
  0x6c, 0x69, 0x6e, 0x65, 0x61, 0x72, 0x2e, 0x4c, 0x69, 0x6e, 0x65, 0x61,
  0x72, 0x5f, 0x36, 0x3b, 0x00, 0x00, 0x00, 0x00, 0x01, 0x00, 0x00, 0x00,
  0x02, 0x00, 0x00, 0x00, 0x04, 0x00, 0x06, 0x00, 0x04, 0x00, 0x00, 0x00,
  0x00, 0x00, 0x06, 0x00, 0x08, 0x00, 0x04, 0x00, 0x06, 0x00, 0x00, 0x00,
  0x04, 0x00, 0x00, 0x00, 0x08, 0x00, 0x00, 0x00, 0xee, 0x4f, 0xa5, 0x3d,
  0xc9, 0x85, 0x3a, 0xbe, 0x00, 0x00, 0x16, 0x00, 0x18, 0x00, 0x08, 0x00,
  0x00, 0x00, 0x0c, 0x00, 0x10, 0x00, 0x14, 0x00, 0x00, 0x00, 0x00, 0x00,
  0x00, 0x00, 0x07, 0x00, 0x16, 0x00, 0x00, 0x00, 0x00, 0x00, 0x00, 0x01,
  0x2c, 0x00, 0x00, 0x00, 0x01, 0x00, 0x00, 0x00, 0x08, 0x00, 0x00, 0x00,
  0x2c, 0x00, 0x00, 0x00, 0x16, 0x00, 0x00, 0x00, 0x73, 0x65, 0x72, 0x76,
  0x69, 0x6e, 0x67, 0x5f, 0x64, 0x65, 0x66, 0x61, 0x75, 0x6c, 0x74, 0x5f,
  0x61, 0x72, 0x67, 0x73, 0x5f, 0x30, 0x00, 0x00, 0x02, 0x00, 0x00, 0x00,
  0x01, 0x00, 0x00, 0x00, 0x09, 0x00, 0x00, 0x00, 0xfc, 0xff, 0xff, 0xff,
  0x04, 0x00, 0x04, 0x00, 0x04, 0x00, 0x00, 0x00,
};
const unsigned int g_vlp_model_data_len = 5180u;
